#version: 0.2 - Trained by `huggingface/tokenizers`
á »
á º
n g
Ġ t
Ġ c
Ġ Ä
ĠÄ ĳ
n h
Ã ł
Æ °
Ġ v
Ġt h
Ã ¡
Ġ l
Ġ h
Ġc h
i á»
Ġ k
Ġ b
Ġ m
Ġt r
Æ° á»
Ġ nh
Ã ´
Ġ s
áº ¿
Ġ n
áº ¡
Ġk h
á» Ļ
Ã ³
Ġ g
Ã ª
áº £
Ġ ng
Ġ d
áº ¥
p h
á» ĳ
Ġ ph
Ã´ ng
á» §
iá» ĩ
Ġ T
Ã ¢
Ãª n
Ġv á»
Ã¡ c
Ã ¬
Ġv Ãł
ĠÄĳ á»
áº Ń
áº §
Æ ¡
q u
Ġ qu
Ġl Ãł
Æ°á» Ŀ
Ġg i
Ġ r
Ġt á»
Ľ i
Ġc á»§
Ġcá»§ a
i áº¿
Ġc Ã³
Ġth á»
u y
áº¡ i
Ã £
Ġ N
Æ°á» £
Ġ x
a n
Ã Ń
o ng
áº¥ t
Ġ C
Ä ĥ
á» ĭ
á»Ļ t
Ã º
iá» ģ
Ġc Ã¡c
Ã¬ nh
á» ¯
Ġh á»
Ġ H
áº ¯
á» Ł
Ã¢ n
Ġm á»Ļt
Ġ Ċ
Æ°á»£ c
Ġch á»
Ãł y
á» ±
Ġch o
Ġkh Ã´ng
Ã ²
ĠÄĳ Æ°á»£c
Æ°á»Ŀ i
ĠÄĳ Ã£
a y
Ġtr ong
Ġ V
Æ°á» Ľ
c h
i Ãªn
Ġng Æ°á»Ŀi
a nh
© ng
Ġvá» Ľi
Ġ B
áº£ i
iá»ģ u
Ã´ i
áº§ n
Ã ¹
a i
á»¯ ng
iá»ĩ n
Ġ 1
áº§ u
Ġ M
ĠÄ Ĳ
Ġng h
Ãł nh
áº ·
Ġnh Æ°
áºŃ n
Æ°á»Ľ c
á» ¥
ĠT h
0 0
Æ°á»Ŀ ng
Ġnh á»¯ng
ĠÄĳ á»Ļ
i nh
iá» ĥ
Æ° Æ¡
a ng
Ġ L
Ġ 2
a o
a m
Ġm á»
Ġ (
uy á»
Æ°Æ¡ ng
áº¿ n
© c
áº¿ t
o n
Ġn Ãły
Ġ S
u á»ĳ
Ãł n
áº ½
a u
Ġl á»
Ã¢ y
Ġ á»Ł
Å ©ng
Ãł i
Ġkh i
á» ķ
Ġ P
u ng
ĠÄĳá» ĥ
ĵ ng
Ġn Äĥ
Ãł ng
Ġs á»ĳ
Ġhá» į
Ġs áº½
Ġg iá»
i n
Ġh o
Ġthá» ĥ
Ã¡ n
Ġr a
ĠÄĳ Ã³
áº¡ n
Ġc Ã´ng
áº ±
ÃŃ nh
Ġ A
Ŀ i
ĠT r
Ġtá» «
áº£ n
áºŃ t
ĠÄĳ áº¿n
Æ¡ n
Ġc Å©ng
á»ĳ i
Ã¡ t
Ã¹ ng
iáº¿ t
ĠvÃł o
Ġvá» ģ
â Ģ
Ã ½
Ġb á»ĭ
iáº¿ n
áº¥ y
á»Ļ i
Ġc áº£
Ã ©
Ġt Ã´i
ĠN g
ĠlÃł m
Ġph áº£i
ĠÄĳá» ĭ
. .
Ã¡ i
Ġ K
á» į
e r
Ġl áº¡i
á» Ń
áº± ng
e o
ĠC h
Ġth u
Ġnh iá»ģu
Ã² n
áº «
ĠÄĳ áº§u
Ġt áº¡i
ĠnÄĥ m
Ã¡ o
Ã¡ ng
Ġchá» ī
Ä ©
Ġ "
iá»ĩ c
Ġtr Ãªn
Ġs á»±
ĠN h
Ġnh Ãł
Ġ D
e n
áºŃ p
iá»ĩ t
Ãª u
áº ©
Ġb á»
á»Ļ c
Ġ G
Ġ -
Ãł o
iá»ĩ u
Ġv iá»ĩc
Ġn Æ°á»Ľc
Ġd o
ħ n
Ġ Ã´ng
Ġkh Ã¡c
Ġh iá»ĩn
Ġth Ãłnh
Æ° a
ĠP h
á» ĵ
ĠÄĳá» ĵng
Ġm Ãł
Ã¢ m
Ä Ĳ
Ã² ng
áº« n
Äĥ n
Ġ 3
a r
Ġqu an
áº¥ n
Ġn Ã³
áº¡ o
iá»ĥ m
Ãº ng
Ġc Ã²n
Ġth Ã¬
iá»ģ n
Äĥ ng
Ġ Q
Ġqu y
Ġ anh
ĥ n
ĠÄĳá»ĭ nh
áº¡ t
ĠnhÆ° ng
uy Ãªn
Ġh Æ¡n
áº¥ u
Ġt iáº¿
ĠÄĳá» ģ
áº¥ p
Ġgi a
Ãº c
Ġng Ãły
áº »
Ġnh Ã¢n
Ã´ n
Ġnh áº¥t
áº£ ng
Ġs au
Ġhá»į c
Ġ y
a l
± c
Ã¢ u
Ġgi Ã¡
ĠÄĳá»Ļ ng
e m
áº¯ t
ĠÄĳ iá»ģu
Ġb iáº¿t
Ġm Ã¬nh
Ã¡ nh
Ġth á»§
á»± c
Æ°á»£ ng
á»ĳ c
Ġr áº¥t
Ġh Ãłng
Æ°á» Ł
Ġth áº¿
Ã³ ng
áº· c
Ġd á»¥
ÃŃ ch
Ġc Æ¡
Æ°á»Ł ng
áº¿ u
Ġqu a
áº¯ c
Ġl o
áº· t
i a
á»ķ i
ĠÄĳ i
áº¯ ng
á» ©
Ġk á»
Ã¡ p
Ġkh o
Ġtr Æ°á»Ľc
Ġch ÃŃnh
Ãª m
Ġmá» Ľi
u á»Ļc
Ġc on
Ġnh áºŃn
áº£ o
Ġb áº¡n
ĠÄĳá»Ļ i
Ġd á»±
ĠÄĳ ang
Æ¡ i
iá»ĩ p
uyá» ĩ
ģ n
Ġthá» Ŀi
Ãº t
Ġtr Æ°á»Ŀng
e s
Ġv Ã¬
Ġ âĢ
Ġv iÃªn
i m
Ġ R
£ p
uá»ĳ c
Ġh ai
á»ĳ ng
áº¡ nh
u áº¥t
Ġc áº§u
áº ¹
Ġvá» ¥
Ġn Ãªn
Ġt iá»ģn
Ġn ay
ĩ nh
Ġhá» £p
o Ãłn
Ġt u
.. .
âĢ Ŀ
e l
ĠnÃ³ i
á»¥ c
Ġph Ã¡t
Ġt Ã¬nh
Ġth eo
ĠN am
Ġl Ãªn
Ġl Ã½
áº¡ ng
Ġs inh
ĠÄĳ á»ĳi
ĠâĢ ľ
Ġ U
á» ©c
á»ĭ ch
Ġv áº«n
Ġgi áº£i
iá»ĥ u
o r
Ġ 4
iá» ħn
Ġdá»¥ ng
Ġ 5
Ġh Ãłnh
ĠcÃ¡c h
Ġthá» ±c
Ġl u
Ġh Ã¬nh
uyá»ĩ n
Ġk áº¿t
Ġtr Ã¬nh
Ġc ao
Ġtiáº¿ p
Ã¡c h
Ġng o
Ġ I
ĠÄĳ iá»ĥm
Ġc uá»Ļc
Ġtá» ķ
ĠK h
Ġr áº±ng
á» ı
Ġlá» Ľ
áº¡ c
Ġn Ãło
Ġc Ã¹ng
Ġn á»¯
Ġth Ã´ng
Ġtr áºŃn
Ġb áº±ng
Ġch á»ĭ
Ġchá» ©c
ĠÄĳ áº¥u
iá»ĥ n
ĠV iá»ĩt
ĠÄĳ Æ°á»Ŀng
á» ¹
Ġx uáº¥t
« a
Ġb á»Ļ
Ġch á»§
Ġm Ã¡
Ġt á»ĳ
Ġh á»Ļi
Ġtá» Ľi
ĠÄĳ Ã¢y
Ġb Ã³ng
T h
Æ° ng
i Ãªu
Ġt in
Ġth áº¥y
u a
áº ³
Ġch Ãºng
uyá» ĥn
iá»ĩ m
Ġngh iá»ĩp
áº¡ m
Ġ2 00
Ġl áº§n
Ġ Ã
áºŃ y
Ĺ i
Ġt áº¿
Ġbá» ĩnh
Ġth Æ°á»Ŀng
Ġt Ã¢m
i l
Ġgi áº£
Ġtá» ±
Ġgiá» ¯
Ġgiá» Ľi
ĠnÄĥ ng
) ,
Ġy Ãªu
Ġch Æ°a
Ġc á»©
á»ĵ i
Ġnh iÃªn
Ġd iá»ħn
Ġd Ã¢n
á» £
Ġm áº·t
Ġth i
Ġt ÃŃnh
Ġlá»Ľ n
Ġh ay
Ġs áº£n
áº³ ng
uyá» ħn
Ġt a
Ġngh á»
á»į ng
áº¡ ch
Ġquy áº¿t
Ġ Ã¡n
áº© m
Ġqu áº£
00 0
Ġl Æ°á»£ng
Ġc áº§n
ĠA nh
Ġth Ã¡ng
Ġg Ã¬
Ġs Ä©
Ġ 6
áº£ nh
Ġlo áº¡i
Ġthá» ©
Ġt Æ°
ĠM á»¹
Ġk inh
2 00
Ġt Äĥng
ĠT P
Ġs á»Ń
ĠC Ã´ng
Ġt Ã¡c
ĠÄ ĥn
Ġt y
Ġgi an
Ġthá» ĭ
T r
ĠkhÃ¡c h
ĠNg uyá»ħn
uá»ĳ n
Ġc áº¥p
Ġt áº¡o
Ġv i
Ġqu Ã¡
Å ©
Ġgiá» Ŀ
Ġph áº§n
" .
iáº¿ u
áº¯ n
¥ c
áº§ m
ĠmÃ¡ y
Ġsá»ĳ ng
Ġb Ã¡o
Ġc Ã´
Ġt Ãłi
Ġvá» ĭ
ĠQ uá»ĳc
Ġth áº¯ng
Ġx e
ĠÄĳ áº¡o
Ġtr á»įng
Ġ Ã½
e t
áºŃ u
Ġkh u
Ġtu á»ķi
Ġt ay
) .
Ġkh Ã³
Ġtr áº»
Ġcáº£ m
Ġtr iá»ĩu
Ġv áºŃy
Ġtr á»Ł
Ã ¨
Ġt oÃłn
Äĥ m
Ġ áº¥y
á»Ł i
Ã¬ m
ĠÄĳá»ģ u
Æ°á»Ľ ng
a s
Ġb Ãłn
C h
r o
á» «
Ġl iÃªn
Ġdo anh
á» ģn
Ġb Ã¡n
i c
Ã© t
u s
ĠQ u
Ġb áº£n
Ġho áº·c
ĠG i
a t
Ġtr a
á» ĵng
Ġngh Ä©
á» ©ng
h i
Ġ em
ĠÄĳ Æ°a
Ġph Ã²ng
Ġl á»±c
Ġvá» ĩ
Ġtá» ī
Ãº p
áº© n
Ġ E
Ġqu á»ĳc
Ġnh au
o l
Ġch áº¥t
Ġb áº¯t
C M
Ã¡ m
Ġt áºŃp
Ġph ÃŃ
ĠH Ãł
ĠV N
Ġd Ã¹ng
uá»ĳ ng
Ã© p
Ġ F
áº· p
Ã´ m
ĠÄĳá» ķ
Ġth Æ°Æ¡ng
Ã µ
Ġm uá»ĳn
Ġngo Ãłi
Ġt Ã¬m
Ġt iÃªu
ĠÄĳ áº¡i
i s
Ġ 7
ĠÄĳ o
uá»ĳ i
Ġtr ung
Ġ an
á»Ļ ng
Ġhá» ĩ
Ġtá» ¥c
ĠTr ung
Ġn áº¿u
ĠÄĳ iá»ĩn
Ġ W
Ġvá» «a
á» Ľ
Ġch iáº¿n
Ġ1 0
Ġtr á»ĭ
uyá» ģn
Ġthá» ©c
Ġ áº£nh
Ġtr Æ°á»Łng
Ġs Ã¢n
ĠÄĳ áº¥t
r a
Ġb áº£o
ĠV Äĥn
Ġth am
Ġg áº§n
Æ°á» Ľi
Ġkho áº£ng
Ġ 8
Ġth á»ĳng
Ġv áº¥n
Æ° u
Ġd á»ĭch
Ġph Ã¡p
Ġtá»ĳ t
Ġchá» ©ng
Ġh iá»ĩu
Ġ J
á» Ŀ
Ġth o
Ġch iáº¿
Ġ X
Ġs ao
Ġgi ao
Ġhá» ĵ
Ġtr iá»ĥn
Ġc á»Ń
Ġg Ã¢y
Ã² a
Ġh áº¿t
ĠÄĳ Ã¬nh
Ġb áº¥t
áº¥ m
Ġth Ãªm
Ġs o
Ġb á»ĳ
Ġgi Ãºp
Ġph Æ°Æ¡ng
Ġt iÃªn
Ġ1 9
Ã³ a
Ġbá» ı
N g
áº£ y
Ġch uyá»ĩn
á»ĵ n
Ġph á»¥
Ġlá» Ŀi
Ġs Ã¡t
uy áº¿n
ĠH o
Ġs á»©c
Ġc Ã¡i
ĠÄĳ Ã¡nh
ÃŃ t
ĠTr ong
Ġcá»© u
Ġl Ãºc
Ġho Ãłn
Ġb Ã¬nh
ĠT Ã´i
Ġch Æ¡i
i t
Ġm áº¡nh
Ġb u
áº± m
Ġd áº«n
S D
ĠNh Æ°ng
o m
Ġph áº©m
Ķ ng
Ġr á»ĵi
N h
£ i
Ġb ao
áº· ng
Ġch u
Ġgiá»¯ a
ĠÄĳá»ķ i
ĠÄĳ Ã¡
Ġb iá»ĩt
ı i
Ġch áº¿
Ġc a
ĠÄĳ Æ¡n
Ġtiáº¿ ng
Ġquy á»ģn
Ġvá» £
" ,
Ġl áºŃp
Ġc Ã¡o
Ġt o
ĠU SD
ĠÄĳá»ĭ a
ĠT uy
Ġho áº¡t
Ġtá»« ng
Ġth iáº¿t
Ġch uyÃªn
Ġm ua
Æ°á»£ t
ĠB á»Ļ
Ġs Ã¡ng
Ġth ÃŃch
Ã³ c
Ġná»¯ a
Ġg áº·p
Ġb Ãªn
Ġv áºŃt
Ġth ay
Ġnh áºŃp
Ġd á»
Ġng ay
Ġch uyá»ĥn
Ġmá» į
Ġkh ai
Ġmá» Ĺi
Ġgiáº£ m
Ġk iáº¿n
Ġv Ã²ng
Ġth uá»ĳc
Ġc Ã¡
Ġb an
Ġnh áº¡c
Ġcáº£ nh
áº¯ m
Ġl Ã£
Ġt Æ°á»£ng
á»į c
Ġb Ãł
Ġvá» ±c
Ġv Äĥn
Ã¹ a
Ġthu áºŃt
Ġtá» ·
Ġ 9
Ġmá» ©c
Ġph im
Ã³ m
a d
Ãª ng
Ġv Ã´
ĠN á»Ļi
Ġtá»ī nh
Ġth áºŃt
Ġh Ã³a
Ġnghá» ĩ
á»ķ ng
Ġc uá»ĳi
Ġtr ÃŃ
Ġx em
Ġchá» į
áº¡ y
Ġt iáº¿n
Ġt uyá»ĥn
Ġph á»¥c
Ġth Ã¢n
Ġph Ãºt
t er
Ġng uyÃªn
Ġ ÃŃt
Ġ Y
Ġká» ³
Ġthu á»Ļc
Ġmá»į i
áº¹ p
Ġch ÃŃ
Ġchá» ĵng
Ġt Ãªn
i Ãªng
Ġch ung
ĠÄĳ á»§
Ġdá»± ng
Ġm ang
áº¯ p
Ġph áº¡m
áº§ y
Ġtr anh
t h
á»ĳ n
Ġkh áº£
Ġd Ã¹
L V
į ng
Ġnh iá»ĩm
Ġx Ã£
Ġk Ã½
Ġh Ã£
Ġph á»ĳ
Ġtr ang
Ġs á»Ł
Ġchá»į n
Ġh á»Ļ
a g
Ġnh á»ı
Ġt ÃŃch
ĠTh anh
H CM
Ġn Æ¡i
Ġd Ãłi
ĠÄĳ áº·c
Th eo
Ġm áº¥t
u r
Ġc á»ķ
áº© u
ĠB Ã¬nh
Ġx á»Ń
Ġchiáº¿ c
i d
ĠA n
Ġch i
Ġx Ã©t
Ġch Æ°Æ¡ng
á»į i
Ġkh á»ı
Ġlá» £i
Ġlu Ã´n
Ġk Ã©
á» Ŀi
Ġ á»©ng
Ġtá»ķ ng
Ġm Ã´n
Ġqu Ã¢n
Ġch Ã¢n
Ġb iá»ĥu
Ġngh á»ĭ
Ġs Ã¡ch
Ġx Ã¡c
Ġl iá»ĩu
Ġk áº¿
Ġ2 0
Ġ ai
o s
Ġx Ã¢y
Ġk iá»ĥm
e d
Ġm áº¯t
Ġ O
ĠH LV
Ġm áº¹
Ġb iáº¿n
Ġkh iáº¿n
Ġd anh
Ġc á»ĳ
Ġb á»Łi
Ä© nh
Ġqu áº£n
Ġt áº¥t
Ġká» ĥ
ĠÄĳ á»ĳc
Ġth Æ°
ĠÄĳá» Ŀi
Ġtr á»£
áºŃ m
á» Ľi
Ġk iá»ĩn
Ãł u
Ġh áº¡n
Ã¬ n
Ġm á»Ł
Ġtr áº£
á» ī
u n
Ġh Ã´m
Ġl áº¥y
Ġtá» Ń
a c
Ġy áº¿u
l e
á»¯ a
ĠC Ã¡c
Ġlu áºŃt
Ġd iá»ĩn
Ġtr uyá»ģn
Ġg Ã¡i
ĠÄĳ áº¹p
ĠÄĲ á»©c
Ġdá» ħ
ĠI n
Ä ĳ
Ġkh áº©u
Ġr Ãµ
âĢĿ .
ĠTh eo
ĠN áº¿u
Ġd u
Ġl á»ĭch
1 0
ĠTh á»ĭ
Tr ong
Ġt áº¥n
á»« ng
Ġs ang
Ġt inh
ĠÄĳ Ãłn
ĠÄĳ áº·t
i Ãªm
Ġnh Ã³m
Ġph á»§
uy áº¿t
Ġtr Ã¡i
Ġhá» ıi
Ġb a
ĠM á»Ļt
ĠL an
© a
t r
Ġth anh
ĠÄĳ oÃłn
ĠM inh
1 2
Ġph Ã¢n
Ġm Ã¹a
Ġg á»įi
á» ĥ
Ġngh iÃªn
Ġl Ã²ng
Ġh iá»ĥu
Ġchá»ĭ u
Ġ1 5
Ġkh Ã¡
Ġvá» įng
ĠS au
ĠÄĳ Ã¡ng
Ġc Ãłng
ĠÃ Ķng
Ġg hi
ĠgiÃ¡ m
Ġn á»ķi
Ġng Ãłnh
Ġtr áº¡ng
Ġb Ãłi
Ġv iá»ĩn
Ġt Æ°Æ¡ng
Ġh áºŃu
i ng
ĠÄĳ Ãºng
Ġth iáº¿u
Ġch Ã¢u
Ġx uá»ĳng
Ġgi Ã¡o
Ġtu áº§n
Ġ1 2
áº¿ p
N D
Ġngh iá»ĩm
Ġká» ¹
Ġh Æ°á»Ľng
Ġn á»Ļi
ĠÄĳ áº¡t
Ġkho a
Ġ3 0
Ġc ung
Ġchu áº©n
Ġph Ã¡
iáº¿ m
áº« u
ĠphÃŃ a
Ġtá» ĭ
Ġtr Ã¡ch
en t
Ġ Ã¡p
Ġd Æ°á»Ľi
Ã£ i
i v
Ġph Ã©p
Ġkh ÃŃ
Ġng u
« ng
Ġv Ã¹ng
ĠvÃł ng
Ġb Ã©
ĠTh Ã¡i
á» ĩ
Ġt iáº¿t
Ġdá»¥ c
ĠvÃł i
Ġh Æ°á»Łng
o Ãłi
á» Ĺ
Ġr iÃªng
o i
ĠH áº£i
á» Ĺi
Ġtá»ĭ ch
Ġm áº¡ng
Ġtr á»±c
u i
ĠÄĳá» ĵ
áº£ m
Ġth áº§n
Æ°á» ¡
ĠÄĳá» ©ng
Ġch á»ĳng
Ġt á»Ļi
Ġc áº§m
Ġnh anh
ĠNh á»¯ng
ĠmÃł u
Ġs áº¯c
t on
Ġx áº£y
P h
Ġcá»Ń a
1 1
Ġtá» ı
Ġgi Ãłnh
o t
á»ĭ p
ĠT Ã¢y
ĠL Ãª
Ġc á»±c
Ġng uy
200 4
ĠB an
áº µ
Ġc Ã¢u
ĠTr áº§n
ĠC Ã³
Ġlu áºŃn
Ġ Ã¢m
Ġngo áº¡i
ĠÃ ģ
Ġch áº¿t
Ġm á»¥c
Ã¹ i
am p
Ġká» ·
Ġl á»Ļ
Ġv á»ĳn
Ġs Æ¡
ĠCh ÃŃnh
ĠÄĳÃ³ ng
Ġch áº¡y
Ġngu á»ĵn
Ġt Æ°á»Ľng
u p
Ġt á»ĳi
Ġc Ãº
ĠKh i
ĠÄĳá»Ļ c
Ġho áº¡ch
ĠÄĳo áº¡n
Ġch áº¥p
áº¡ p
ĠÄĳ au
ĠÄĳ Ãªm
Ġb áº£ng
á»¯ u
Ġv ai
ĠlÃ£ nh
Ġh áº¡ng
Ġph ong
Ġho a
Ġn áº¡n
Ġd Ãłnh
ĠÄĳ áº§y
a k
ĠÄĳ Ã´i
Ġlá» ĩ
ĠD Å©ng
Ã³ n
C Ã¡c
Ġh Ã¡t
Ġnh Ã¬n
Ġt Æ°á»Łng
á»ĵ m
Ġch ia
Ġd i
Ġtr Ã²
Ġ 0
Ġx a
a p
Ġv Æ°á»£t
Ġhá»ĵ i
ĠNh Ãł
Ġph áº£n
Ġch iá»ģu
Ġ1 1
Ġch áº³ng
ĠÄĲ áº¡i
Ġnh áº±m
Ġkh Äĥn
i g
Ġm inh
Ġr á»Ļng
Ġg Ã³
Ġd áº§u
T Ã´i
Ġngh e
Ġtho áº¡i
iá» ħ
Ġ uá»ĳng
Ġd a
Ġb ay
á»Ń a
á»§ ng
Ġkhá»ı i
ĠTh u
a v
á»į n
uyá»ĩ t
d o
s e
u m
Ġv áºŃn
ĠH CM
Ġkh áº³ng
á»Ń i
á» ³
e c
Ġl Æ°u
Ġc á»¥
Ġc áº¡nh
Ġg á»ĵm
ĠnghÄ© a
ĠV Ãł
K h
Ġl Ã¢u
Æ°á»¡ ng
ĠÄĳá»ĭ ch
ĠHo Ãłng
Ġ1 8
ĠT á»ķng
ĠTh á»§
Ġd ung
Ġqu áºŃn
ĠNh áºŃt
Ãł m
Ġm áº¡i
ĠPh Ã¡p
Ġth áº¥t
e v
Ġ á»
ĠH u
o v
á» ģ
Ġt uyÃªn
Ġn áº·ng
Ġc Ã¢y
ĠÄĳ Äĥng
Ã¡ u
Ġb Ã¡c
ĠA r
il l
Ġch áº¯c
an d
Ġ Ã¡o
ĠTh Ãłnh
Ġn áº±m
Ġnghá» ģ
Ġng Ã´i
Ġph áº¡t
i r
Ġh iá»ĥm
ĠÄĳ Ã¢u
ĠkÃ© o
Ã¢ ng
ĠNg á»įc
á»Ľ m
Ġv ui
Ġb iá»ĥn
Ġb Æ°á»Ľc
Ġx in
ĳ ng
Ġg h
Ġph a
u l
Ġg á»Ńi
ĠL ong
ĠS Æ¡n
Ġn am
á»± a
1 9
e b
Ġs Æ°
u Ã¢n
ÃŃ n
Ã£ n
200 5
Ġth Ãºc
Ġl ao
M á»Ļt
iá»ħ m
ĠKh Ã´ng
Ġt uyáº¿n
ĠNg Æ°á»Ŀi
ĠÄĲ Ã´ng
Ġgi áº¥y
iá»ģ m
Ġm Ã´i
Ġlá»Ľ p
Ġc á»Ļng
Ġh uyá»ĩn
Ġs á»Ľm
Ġch Ãº
ĠNg h
Ã² i
Ġs ai
ĠÄĳ a
ĠC up
Ġh áº¡i
Ġgiá» ĳng
áº© y
Ġt Ã¹
Ġthu a
ĠÄĲ á»ĵng
ĠÃ Ĥ
į c
Ġtr ai
ĠhÃ£ y
Ġnh u
Ġchá» Ĺ
Ġkh Ã¡n
Ġx Ãºc
Ġ200 4
u áº¥n
Ġng á»Ŀ
ĠmÃ¡ u
á»ĭ nh
Ġkh á»Łi
Ġd uy
Ġh Ã²a
ĠQu ang
Ġx áº¿p
Ġnh iá»ħm
ĠÄĳ Ã´ng
ĠD Æ°Æ¡ng
á»ĳ t
o b
i e
Ġl áº½
Ġchá» ©
Ġv iáº¿t
ĠÄĲ H
u e
Ġc Äĥn
u Ã´i
uá»ĳ t
Ġc Ã¡n
Ġb uá»Ļc
L B
ĠÄĳ Ãło
ĠB áº¯c
ĠTr Æ°á»Ŀng
Ġ Ã´
Ġb áº§u
ĠÄĳ áº£m
Ġt Ãłu
Ġnh á»Ŀ
á» ·
Ġbu á»ķi
ĠH á»Ļi
es t
ĠV Ã¬
Ġ1 00
ÄĲ T
Ġ w
Ġth Æ°á»Łng
á» ¡
ĠÄĲ Ã¢y
Ġl Ä©nh
h o
2 3
Ġhá» Ĺ
Ġph iáº¿u
Ġk iáº¿m
r e
ĠÃĤ u
Ġc Ã¡nh
ĠNg oÃłi
Ġph Ãºc
Ã Ķng
Ġm á»ĳi
Ġgi Ã¡c
Ġ2 5
Ġm áº«u
Ġto Ã¡n
Ġth áº©m
is t
Ġ19 9
ĠA l
Ġ5 0
ĠC LB
ĠD o
ĠIn ter
Ġth áº¥p
Ġthu áº¿
ĠC Ã²n
ĠNg a
Ã£ o
ĠgÃ³ p
ĠÄĲ iá»ģu
Ġchá» Ŀ
Ġb áº¡i
Ã¨ o
Ġm ay
i on
i ch
ĠR e
Ġthá» Ń
in a
Ġnh á»Ľ
ĠNh a
Ġd áº¡ng
Ã¡ y
Ġ1 6
es s
ĠCh á»§
Ġs á»£
Ġ1 4
áº· n
Ġs uy
in e
i o
Ġ p
ĠTh áº¿
Ġ á»ķ
ĠÄĳ Ã´
Ãº i
Ġd Ã¢y
ĠH á»ĵng
Ġl Æ°á»£t
Nh á»¯ng
Ġch á»¯a
ģ m
Ġm ong
ĠM ar
ĠT iáº¿n
ĠTP HCM
á»© t
ar d
n et
i p
Ġn Ã¢ng
Ġtr Ã¡nh
S au
ĠL iÃªn
Ġd áº¥u
Ġthu áºŃn
Ġ áº
Ġt ai
Ġchiáº¿ m
r an
Ġph á»ĳi
ĠÄĳ ua
Ġth áº³ng
ĠL e
ĠÄĳá» ı
Ġ Z
ĠÄĳ áº£o
ĠV á»Ľi
Ġ200 5
Ġt áº¡m
Ġh y
Ġng Ã¢n
Ġh Ãºt
Ġs Ãºt
Ġn á»ģn
Ġqu en
Ġlá» ħ
Ġngh iÃªm
Ġc oi
Ġng á»§
Ġv áº»
T T
s en
el l
Ġt Ã²a
Ġth áº£o
t o
Ġs Ã¢u
B ND
Ġ1 3
Ġn iÃªn
ĠkÃ© m
ĠH Ã¹ng
Ġm áº¯c
t e
Ġmá» ģm
Ġh áº¡nh
Ġc áº£i
Ġh á»¯u
Ġnghá» ī
ĠhÃ£ ng
Ġnh áº¹
ĠGi ang
Ġm Ã³n
Ġh uy
ra q
Ġl Ã¡
Ġqu ay
Ġt á»ĳc
ĠS á»Ł
Ġph iÃªn
Ġqu anh
ĠH á»į
Ġh Ã´n
Ġlá» Ĺi
Ġh iá»ĩp
Ġthu Ãª
se a
Ġtá» ©c
Ã³ i
Ġm iá»ģn
el sea
Ġx uyÃªn
Ġ200 6
Ġv Å©
ĠPh Ã³
k h
Ġqu Ã¡n
ĠU BND
o d
ĠI raq
ĠCh Ãºng
Ġth Ã´i
Ä© a
Ġl uyá»ĩn
Ġm áº·c
Ġb á»ķ
Ġc an
Ġth Äĥm
Ġph Ã³ng
2 0
ĠH iá»ĩn
Ġt ung
Ġh áº¡
ag ue
Ġh áº¥p
Ġthá» «a
ĠPh Æ°Æ¡ng
Ġng á»ĵi
Ġth Ãº
ĠL u
Ġbá» ©c
o f
e x
e w
ĠÄĲ Ã³
o c
ĠÄĲ Ãł
ĠÄĳá» įc
Ã³ t
Ġr Ãºt
ĠnÃ³ ng
Ġs uáº¥t
Ġh Æ¡i
Ġc Æ°
Ġtr á»¥
ĠÄĳo áº¡t
Ġm áºŃt
Ġngh i
Ġm Ã´
Ġt áº£i
Ġc Å©
Ġt im
áºµ n
ĠÄĳ áº©y
Ġk ÃŃch
Ġm áº¥y
Ġch a
Ġ1 7
ĠT Ã¢n
Ġh áº¡t
Ġhá»į p
ĠK im
Ġ2 3
ĠB áº£n
Ġn uÃ´i
Ġ áº¥n
Ġb iÃªn
Ġb áº¡c
á»§ y
Ġd Ã²ng
Ġv Ã©
Ġl Æ°á»Ľi
Ġs uá»ĳt
Ġk iá»ĥu
Ġs ong
il an
Ġtr á»Ŀi
Ġn Ã´ng
ĠPh áº¡m
Ġch áº¯n
Ġtr ao
á» ĩnh
Ġth Ã¡i
d on
Ġd Æ°á»¡ng
or e
Ġk Ãª
ĠB ar
ĠH Ã²a
ĠH Ãłn
Ġh áº§u
Ġl áº¡c
a b
á»Ļ n
Ġho Ã¡
i an
Ġs áºµn
Ã£ y
ĠX uÃ¢n
Ġ4 0
Ġkho áº£n
Ġbu á»ĵn
á»± u
ĠTr Æ°á»Ľc
Ġc Ã¢n
Ġtr áº¯ng
Ġb iá»ĩn
Ġth ÃŃ
Ġkh Ã¡m
1 5
Ġt iá»ĥu
Ġt iá»ĩn
Ġkhá»ı e
Ġtr uy
Ġph Ãª
ĠPh Ã²ng
Ġ Æ°u
Ġl áº¯m
o u
Ġth ai
T uy
Ġth iá»ĩn
á»³ nh
Ġgi ai
Ġd á»©t
Ġb Äĥng
Ġthá»ĭ t
Ġthá» ¥
on e
ĠÄĳo Ã¡n
3 0
Ġch áº¥n
ĠH ai
ĠT á»«
ĠGi Ã¡m
Ġch Ãºt
o a
Ġchá» £
Ġw eb
Ġth iá»ĩt
E A
Ġ f
ĵ i
Ġch Ã¡u
Ġk áº»
ĠPh Ãº
Ġqu Ã½
Ġg Ãł
ĠN Äĥm
a h
Ġx anh
Ġc am
ĠCh elsea
Ġd áº§n
s on
Ã¨ n
Ġb inh
Ġlo áº¡t
Ġnh iá»ĩt
ĠHo a
ĠÄĳ Æ°Æ¡ng
o áº¡i
Ġt uyá»ĩt
Ġng áº¡i
Ġch uyáº¿n
Ġs Ã´ng
ĠÄĳá» ©a
Ġ '
Ġchá»ī nh
ĠV Å©
ai n
a z
Ġb Ãło
Ġc Æ°á»Ŀng
u á»ķi
ĠÄĳ Ã¡p
ĠÄĳ ÃŃch
Ġph Ã³
ĠÄĳ em
ĠÄĲ Ãło
Ġ2 2
ĠM ilan
Ġt Ã¡i
Ġth ao
Ġt áºŃn
Ġl á»ĳi
5 0
r y
ĠT Ãłi
sen al
Ġc áº¥m
į t
o an
Ġth áºŃm
ĠÄĲ á»ĭnh
Ġg áº¯ng
Ġch Ãłng
Ġtá» Ŀ
áº¹ n
ı ng
ĠÄĳ á»Ļt
Ġs áº¯p
Ġph Ã¹
Ġá» ŀ
r us
Ġl y
Ġtá» ¥
Ġk á»ĭp
Ġá»ķ n
Ġ2 4
1 4
ĠT áº¡i
Ġc áº¯t
Ġ in
Ġvi Ãªm
ĠB áº£o
Ġth Æ¡
Ġm áº¡ch
Ġn á»Ńa
A nh
G i
ĠCh á»ī
Ġl Æ°Æ¡ng
Ġk im
Ġn á»ĳi
Ġtho Ã¡t
us h
Ġt ÃŃn
ĠS h
Ġg áº¯n
Ġs áº¡ch
ĠNh iá»ģu
áºµ ng
Ġb Ãły
Ġkh á»ĳi
N áº¿u
ĠM ai
Ġng Äĥn
Ġmá» Ŀi
âĢ ¦
Ġl áº¡nh
Ġth iÃªn
ĠÄĳ en
ĠH á»ĵ
Ġn iá»ĩm
Ġn inh
Ġth uyáº¿t
Ġm Ãłn
Ġl ai
Ġkh áº¯c
Ġk ia
Ġkh á»ķ
Ġd Ãłng
ĠM al
áº§ ng
Ġso Ã¡t
ĠT uáº¥n
Ġgi áº£n
ĠâĢ ĵ
ĵ n
iáº¿ p
ĠÄĳÃ³ n
Ġl á»±a
Ġph Ã¡n
Ġqu áº§n
ĩ t
Ġn iá»ģm
ĠCh i
á» «a
Ġl iá»ĩt
Ġs Ã³ng
ĠlÃł ng
Ġ2 1
Ġkh á»§ng
Ġh uyáº¿t
o h
Ġm á»Ļ
Ġ Ã¡nh
ĠN áºµng
Ġkh Ãºc
Ġng áº¯n
Ġvi rus
i k
Ġs ung
Æ°á»£ u
ĠÄĳ Ã²i
á»£ i
áº³ n
Ġph áºŃn
ĠÄĲ áº£ng
i er
ĠC Æ¡
Ġph Æ°á»Ŀng
Ġ ung
Ġl á»¥c
ĠNg uyÃªn
Ġlá» Ń
Æ°Æ¡ i
Ġth iá»ĩu
ĠL Ã¢m
ÄĲ V
Ġb Ã¡nh
Ġk á»ĭch
am es
or t
K hi
Ġh Ãłi
Ġm Ã£
Ġ á»§ng
ĠB áº¡n
Ġhá» ģ
C Ã³
Ã¨ m
ĠE m
Kh Ã´ng
ĠRe al
u b
Æ°á»Ľ p
Ġd á»ĭ
Ġh áº³n
T áº¡i
ĠB Ã¹i
ĠcÃº m
Ġth áº»
as s
Ġkh áº£o
ĠPh an
e z
ĠS ing
ĠQu áº£ng
Ġc áº·p
iáº¿ ng
Ġch Äĥm
Ġlá» ĩnh
ĠÄĳá» £i
Ġqu Ãª
Ġb Ã¢y
á»Ļ p
ĠB á»ĩnh
Ġtr Ã¬
Ġn á»Ĺi
Ġc Äĥng
ĠS t
Ġr á»ĳi
l d
u t
ap ore
Ġl áº¡
Å© i
Ġtr Ã¹ng
Ġr Æ°á»£u
Ġb á»¥
Ġt áº§ng
il e
iv er
p o
Ġc Æ°á»Ŀi
Tr Æ°á»Ľc
ĠÄĳá» «ng
Ch Ãºng
Ġc áºŃp
Ġ6 0
ro s
Ġsá»Ń a
ĠG ia
ĠT áº¿t
Ġc á»±u
Ġch Ã³ng
ĠNg Ãły
c e
ĠH iá»ĩp
ai l
Ġm iá»ħn
o g
ĠS Ãłi
Ng Æ°á»Ŀi
Ġm Ãª
Ġng Æ°á»£c
Ġvá»£ t
1 8
L ÄĲ
ĠB Ãł
r id
Ġlá»Ń a
á»į t
Ġ200 3
ĠV iá»ĩn
ĠÄĳ Ä©a
Ng Ãły
Ġ e
ĠAr senal
Ġt áº¯c
ĠG Ã²n
Ġtr Äĥm
Ġc Ãł
ĠInter net
1 3
ĠV inh
Ã© o
ĠL ÄĲ
in es
Ġm u
ĠTh Æ°Æ¡ng
âĢĿ ,
Ġs Ãłng
V á»Ľi
Ġchá» ©a
ĠT Ã¢m
Ġh áº£i
u v
Ġ Æ°á»Ľc
Ġd áº¡y
o k
al l
Ġchá» ¥c
ĠCh á»ĭ
Ġx ong
Ãµ i
T P
Ġho Ãł
Ġqu Ãªn
Ġlo Ãłi
Ġb Ã¨
Ġm Ã¡i
Ġc Æ¡n
Ġx ung
Ġt á»Ļc
Ġkh áº¥u
Ġs áº¡n
Ġtá» ĵn
Ġn Ã£o
t a
Ġh Æ°Æ¡ng
Ġc á»¥c
Ġ Ã©p
Ġch áºŃm
Ġkh ung
Ġr u
Ġnh áº¯c
ĠSing apore
ĠÄĳá» ¡
200 3
Ġ ÃŃch
Ġg Ã³c
Ġth Ã¡c
Ġb ÃŃ
n e
Ġqu áº£ng
Ġth áºŃn
Ġnh áºŃt
ĠTh áº¯ng
Ġl áº¯ng
Ġngh Ã¨o
Ġd á»ĭp
ĠÄĲ á»ĥ
Ġg áº¥p
ı a
Ġch áº·t
ĠNh Æ°
u ro
s ia
Ġl áº«n
Ġgi am
Ġt áº·ng
1 6
p r
t al
ĠN ew
ĠBar c
Ãº a
Ġs iÃªu
Ġph á»ķ
ĠN inh
c o
Ġt áº¥m
ĠK inh
Ġt áº§m
ĠW or
m an
ĠÄĲ Ã¬nh
Ġngo Ã¡i
l o
Ġg á»ĳc
Ġch á»¯
ĠH á»¯u
Ġm áº¡c
Ġr Ãłng
Ġt áº¡p
£ t
Ġgi Ãł
ĠV iá»ĩc
Ġb áºŃt
Ġk ÃŃnh
Ġthá»§ y
Ġc á»©ng
a f
Ġn á»ķ
H iá»ĩn
Ġc uá»ĳn
Ġx Æ°Æ¡ng
Ġr á»Ŀi
ĠT iá»ģn
ĠLe ague
es ia
ĠH Æ°ng
Ġt Ã³c
% .
ac k
Ġng á»¯
Ġd Æ°Æ¡ng
Ġc Æ°á»Ľi
Ġng ang
Ġch áº¥m
Ġbu Ã´n
Ġlo áº¡n
Ġn á»Ļp
Ġkh uyáº¿n
ĠÄĲ áº¿n
Ġn á»£
er n
don esia
ĠÄĳá» £t
Ãº y
Ġm Ã£i
of t
Ġkh Ã¡ng
T V
ĠG ames
Ġ á»ĳng
Ġch uyá»ģn
ĠP al
Ġd á»¯
Ġgi Ãłu
Ġ2 8
T C
Ġm Æ¡
on a
Ġx áº¥u
B ÄĲ
ī nh
Ġs áº»
Ġn á»Ĺ
Ġt Ã´n
Ã£ ng
ĠC ar
ĠCh Ã¢u
Ġt Æ°Æ¡i
Ġc áºŃn
iá»ĩ ng
Ġg á»¡
ĠNg Ã¢n
Ġc Æ°á»Ľp
Ġgi áº¿t
¦ y
Ġtá» ĩ
ĠL inh
Ġk Ãªu
Ġ2 6
ion s
ĠH C
ĠS á»±
Æ°á»Ŀ n
Ġáº ¢
ĠP ar
N LÄĲ
b er
Ġc áºŃu
ĠWor ld
Ġr á»«ng
Ġs Ã³c
Ġm iá»ĩng
Ġkh Ã´
Ġm a
ĠH uy
ay sia
Ġb Ã¹
Ġ5 00
ĠM an
it e
ĠC Ã´
Ġch iáº¿u
ĠR om
1 7
Ġl áºŃu
ĠHu áº¿
Ġtr áº£i
am e
am s
Ng oÃłi
Ġr au
ĠB r
ĠS EA
) ;
Ġc o
Ġvá» ¯
Ġ al
Ġch Ã¡y
ĠB a
Ġá» ¦y
Ġng Ã´n
Ġr Æ¡i
ic k
Ġkh áº¯p
Ġ Æ°Æ¡ng
ĠÄĲ Ãłi
ĠP M
ĠThu áºŃn
Ġc á»Ļt
ĠI s
Ġho Ãłng
ĠM ad
ĠB ra
c om
Ġtr á»©ng
ĠC áº§n
ĠC á»¥c
200 6
Ġn Ãºi
Ġ2 7
Ġx á»©
Ġtá»ķ n
ĠÄĳá»ģ n
ent us
Ġdá»± a
l y
i et
Ġl iá»ģn
ĠÄĳ Ãłm
uv entus
Ġlá» «a
Ġy Ãªn
Ġt Ã¡n
Ġm Æ°a
Ġt uy
Ġs áº¯t
Ġk Ã¨m
Ġd Æ°
Q u
pr ess
on al
or d
ĠKh Ã¡nh
ĠCh amp
P T
Ġph áº¥n
Ġs á»¯a
ĠkhÃ³ a
ĠPh i
ĠPh Ã¡t
Ġtr Ãº
Ġx o
po ol
Ġth áº§y
i f
o ur
ĠM ic
Ġmá» «ng
ĠLu áºŃt
a w
iver pool
Ġhá» ĵng
Ġh á»ĳi
N A
Ġl Ã¡i
Ġl áº§m
Ġbá» ĵi
Ġd Ãµi
Ġchá» ¥
Ġt Ã´m
Ġv ay
ÄĲ á»Ļi
c ia
ĠTr Æ°Æ¡ng
Ġv áº¯ng
Ġ8 0
Ġtr á»«
áº¥ c
ĠC Å©ng
ĠI ran
Ġtiáº¿ c
ĠS er
Ġm ai
Ġh áº±ng
Ġchá»¥ p
ÄĲ á»ĥ
Ġ19 8
z il
ros oft
Ġáº ¤
ĠT H
ro m
Ġc áº£n
Ġnh iÃªu
Ġch áº·n
ĠChamp ions
C Ã´ng
Ġh uáº¥n
Ġm áº¯n
ĠIn donesia
Ġhá»į a
Ġ áº¥m
Ġk m
u d
e g
ĠH Æ°Æ¡ng
Ġl an
á»¥ y
ĠÄĳ Ã¨n
ĠMal aysia
Ġh áº¹n
t i
Ľ t
Ġd Ãły
ĠÄĳ áº£ng
á» ħ
ĠÄĳ Ãłi
ĠC áº£nh
e p
Ġh Ã¨
ĠT áº¥t
Ġx u
ĠG iá»
il ip
Ġthá» Ł
Ġd á»«ng
ĠL Ã½
ĠA C
Ġd Ã¡m
u ch
Ġc áº¥u
ÄĲ Ã¢y
) :
Ġth áº§u
Ġch á»Ł
ĠNg oáº¡i
Ġn áº¥u
Ġvá» ¡
Ġch áº£y
Ġvá»¯ ng
Ġsá»ĳ t
Ġb Ã³
Ġthá» ıa
ĠÄĲ T
o y
ĠÄĳ Ã¡m
Ġqu i
Ġph i
H Ã´m
u k
Ġd Ã¡ng
ĠTr ang
o p
Ġmá» ĩt
r i
Ġn áº¯m
ĠB ush
ĠB l
ĠNg ay
ĠHu á»³nh
Ġv áº¿t
k o
g e
L e
o x
Ġh Ã¢m
Ġth áºŃp
Ġc á»Ŀ
Ġl Ã¢m
Ġ3 00
Ġm Å©i
ĠÄĲ á»Ļi
Ġ2 9
Ġtr Æ°Æ¡ng
ĠTr Æ°á»Łng
ĠH y
Ġb á»¯a
Ġr Äĥng
Ġch á»ĳi
Ġmá» ¹
tal y
ĠL oan
Ġtr eo
Ġr á»Ńa
Ġchá» «ng
Ġng uyá»ĩn
iáº¿ c
2 1
2 4
Ġtr áº¡i
Ġt Ãºi
ĠM y
ĠM á»Ĺi
ĠMad rid
Ġqu ang
ĠÄĲ á»Ļ
ĠcÆ¡ m
0 5
Ġlá» Ĺ
T á»«
Ġ7 0
ĠC amp
Ġh Ãło
5 00
Ġl inh
Ġb á»Ļt
Ġng á»±
Ġru á»Ļt
Ġg an
Ġph áº«u
ĠC ol
ĠBra zil
Ġnh áº¥n
Nh Æ°ng
A ND
ĠH Ã£y
el ona
Ġ á»§y
Ġtr Æ°ng
ĠLÄĲ BÄĲ
Ġd áºŃy
Ġgi Ã³
Ġx Äĥng
am in
á» ŀ
as t
Ġtr Ã´ng
Ì ģ
Ġ u
ĠA S
Ġt Æ°á»Ŀng
Ġbá» Ŀ
ĠT á»ķ
g i
Ġn Ã©t
ĠR i
Ġáº¤ n
ĠMic rosoft
ĠÄĳ uá»ķi
N Äĥm
Ġ9 0
ec t
Ġkhu áº©n
á»Ľ p
Ġvá» Ŀi
Ġm Ã¹i
áºŃ c
Ġkh uyÃªn
Ġmá» ıi
Ġkhu Ã´n
Ġs Ã´i
Ġgh áº¿
w s
Ġg Æ°Æ¡ng
Ġthá» ķ
ĠW in
a x
ĠM áº¡nh
Ġbá»¥ ng
Ġth Ã´n
ĠN Ã³
h am
ĠV Ä©nh
Ġv ong
ĠB Ã¡o
ĠS an
ĠC on
e ch
Ġkh áº©n
B á»Ļ
ic o
ĠR ob
ĠR onal
L NA
i en
Ġb áºŃc
ĠH Æ¡n
Ġvá» ı
C Å©ng
ĠC an
b ur
á»Ľ t
Ġng á»įt
Ġd Ã¢m
ĠV al
Ġb Ã²
ĠlÃł nh
t Ã´
Æ ¯
Ã© n
ĠV ÄĲV
ĠTh iÃªn
Ġtr á»ĳn
Ġtr á»¯
Ġlá» įt
Ġch im
F A
Ġnh áº£y
Ġtr Ãºc
ĠH Ãłng
Ġm áº½
al ia
á»Ļ m
ĠÄĲ oÃłn
Ġh á»§y
ĠV Ã¢n
ĠK á»³
Ġt Ä©nh
Ġng Ãłn
ĠÄĳ áº¥y
Ġl Æ°á»£c
ĠPh ilip
ĠL iverpool
ĠKh oa
s t
Ġx Æ°a
ĠbÃ© o
Ã¹ m
Ġ200 2
ĠH á»ĵi
Ġk ÃŃn
r ain
ĠNgh á»ĩ
ĠPh Ãºt
ĠT AND
ĠD Ã¹
Ch á»ĭ
ĠM on
Ġb Ã£i
o w
a ch
f f
ĠL Æ°Æ¡ng
m ar
us tr
u g
Ġg ame
es ter
Ġng on
Ġd uyá»ĩt
ĠD á»±
ĠG D
Ġt áºŃt
ĠH ÄĲ
ĠÄĳ iá»ĩu
Ġgiá» įng
ĠD av
inh o
ĠJ uventus
2 5
Ġgi Ã¢y
Ġh uá»ĳng
ĠÄĳ áºŃu
ĠQu Ã¢n
Ġch áº¡m
Ġg á»Ĺ
ĠP r
Ġng Ã£
ĠÄĳá» īnh
Ġn Ãªu
Ġhá» ©a
ist an
ĠTh á»©
ĠTh Æ¡
ĠTr á»įng
Ġm Ã£n
ĠB á»ĵ
ĠÄĲ iá»ĩn
Ġb áº¯n
Ġd Æ°á»£c
Ġgiá» ıi
Ġhá»Ļ p
Ġb Ã£o
Ġl Ã¢y
oh n
ĠI taly
Ġngh Ã¬n
in i
ĠD u
ĠL Ãºc
0 1
Ġqu á»¹
ĠE U
b um
ĠÄĲ á»Ĺ
est ine
ustr alia
Ġmá» ķ
ĠC ao
Ġh iáº¿m
Ġs Ãºng
ĠK áº¿t
Ġhá» ©ng
Ġs u
Ġtá» ©
ĠÄĳ áº³ng
ĠP et
Ġk g
á»ı i
ĠL ai
ĠPM U
Ãª nh
Ġth áº£i
Ġhá»ĵ n
K S
Le ague
Ġl Æ°ng
ĠPal estine
Ġt Ã´
ĠB á»Łi
Ġkh ÃŃch
ĠlÃ£ ng
ig er
Ġqu Ãł
ĠCh ÃŃ
ĠTh á»Ŀi
ĠL Ãło
Ġr áº»
ĠT iÃªn
ĠV áºŃy
Ġtr Ãºng
ĠTh Ã´ng
Ġl Ã´ng
Ġph á»©c
á»ı ng
Ġth ang
ĠPh ong
M á»¹
Ġs á»ķ
Ġd ao
ar i
ĠV Ãµ
ĠÃ´ tÃ´
p ines
Ġtr á»ĳng
Ġkh iá»ĥn
ĠTh á»¥y
Ġ4 5
ĠGi áº£i
do ws
Ġb om
Ġ19 7
v er
Ġth Ã©p
ent ina
ĠÄĳ Ã¡o
au l
ĠA b
áº« y
Ġv iá»ħn
Ġch Ãło
Ġtr ÃŃch
ĠR iÃªng
Ġv Æ°á»Ŀn
Ġbá»ĳ n
) -
Ġtr áº§m
Ġb áº¡o
k rain
ĠM U
ĠÄĳá» ±
ĠB Ãªn
Ġx á»©ng
ĠtÃ¹ y
oc k
ĠÄĲ á»ĳi
Ġs a
ra el
Ġng á»«ng
Ġd inh
Ġ3 5
á» µ
it y
ĠkhÃ³ c
ĠC Æ°á»Ŀng
s ite
Ġth an
ĠQ uyáº¿n
Ġth Ã¹
ĠC am
Ġ3 1
Ġtá»ĳ n
19 9
T O
Ġl a
Ġnh Å©ng
2 2
ĠS ch
ĠBarc elona
en e
á»§ i
ĠT Æ°
ĠC áº£
ar y
Ġtr Ã²n
Ġn Ãłng
Ġ Æ¡n
ĠÄĳ e
Ġt an
ĠchÃŃ n
ĠPh Æ°á»Ľc
ĠGi ao
ĠA i
Ì Ģ
Ġtr Ãłn
Ġd Æ°á»Ŀng
ĠH en
ĠÄĲ áº·c
ĠV á»ģ
er a
ĠT N
% ,
Ġtr á»ĵng
ĠTr Ãªn
ĠÄĳá»± ng
Ġn áº¯ng
ill a
Nh iá»ģu
ng Ãły
Ġg áº¡o
ÄĲ iá»ģu
0 3
ĠH áº¡nh
Ġbá» Ľt
V iá»ĩc
Ġnh áº¯n
Ġ200 0
B áº¡n
ĠlÃ£ i
Ġb ang
ĠV iet
ĠThá»§ y
uch ia
ĠU krain
ĠE uro
ng Æ°á»Ŀi
er s
ĠGi Ã¡
6 0
m ail
Ġto Ãł
Ġal bum
x press
Ġh Ã¹ng
Ġd á»įc
Ġng Å©
ĠÄĲ áº§u
Ġb á»ķng
ra f
S G
Ġl áº¯p
ĠV á»¥
ĠCh o
0 2
Ġm iáº¿ng
Ġv ua
ĠNg Ã´
Ì £
ĠTh áº£o
en ko
ĠRom a
Ġkh á»Ľp
ĠA m
Ġtá»ı a
á»ī nh
w w
ĠTh á»±c
ĠAn d
Ġáº¢ nh
ĠÄĳ áºŃm
Ġl ÃŃnh
ĠA ustralia
ĠgÃ³ i
Ġt Ã¢y
Ġl áº»
ĠWin dows
v n
ĠD uy
Ġph á»ıng
ĠTh á»ĥ
ĠNh Ã¢n
Tr áºŃn
V á»ģ
Ġs á»©
Ġv áº½
ĠNh áº¥t
H Ãł
Ġk iÃªn
Ġtho áº£i
Ġkho Ã¡n
ĠIs rael
ĠPhilip pines
ĠÄĳ á»ĳt
Ã½ t
ĠA d
ĠÄĳ áºŃp
ĠC l
Ġtr áº¥n
ĠH A
ĠTh Ã¡p
© t
Ġt Ãºc
Ġc u
ĠT áº¥n
at e
ĠF ran
ĠkÃª nh
Ġt Ãºy
Ġv Ãµ
Ġth uyá»ģn
Ġb á»įn
Ġm Ã¡t
Ġgi áº£ng
áº± n
ĠÃ ļ
t el
Ġt áº£
0 4
ĠÄĲ áº·ng
Ġm uá»ĳi
Ġnh i
Ġtr Ãł
k g
Ġgi áº¥u
K áº¿t
Ġnh Ã¡nh
2 8
Ġl áº·ng
ĠC áº§u
Ġng á»¥
á»į a
ĠT D
Ġ áº©n
Ġth iá»ĥu
Æ°á»£ n
ĠA s
Ġ .
Ġtr áº¡m
m a
ĠÄĲ iá»ĥn
Ġho áº£ng
C Ã²n
ĠI I
Ġc Ã£i
Ġs Ãłn
ĠL á»Ļc
ed l
Ġkh Ã¡t
i z
Ġth Ã¡ch
ĠCh áº³ng
Ġgi Ãły
ĠN Ã´ng
Ġweb site
ar t
ho w
Ġd ÃŃnh
á»ĭ a
Ġc á»ı
Ġth a
Ġnh Æ°á»£ng
Ġm á»±c
4 0
i b
ĠS á»ĳ
ĠlÃ£ m
Ġf ile
Ġs Äĥn
s k
Ġl Å©
Æ°á»¡ i
Ġ Ã´m
Ġt iá»ģm
ad a
ĠQu á»³nh
ĠCamp uchia
Ġt ang
Ġt Ã¢n
ĠD Ã¢n
ĠF er
Ġth Æ°á»£ng
Ġr Ã¡c
ĠKh u
ĠL áº¡p
Ġc Æ°Æ¡ng
Ġd Ãłn
en n
d a
Ġtr Ãło
a el
ĠPh Ãºc
I n
Ġng á»«a
0 6
E xpress
Ġch áº·ng
Ġng áº¡c
Ġlá» įc
Ġt áº¯m
ĠÄĳÃ£ i
Ġtr á»įn
Ġt Ã¡
Ġt ÃŃ
H ai
en s
Ġth áº£m
en cia
e k
Ġgi áº¥c
ar l
ĠT Ãłu
ĠV KS
Ġch e
Ġ4 00
l or
Ġm Ã³c
ĠTD TT
ĠT Ã¬nh
ĠY Ãªn
T o
Ġcáº£ ng
n Express
Ġd áº¯t
o áº£ng
Ġhá» ıng
Ġbá» ģ
Æ¡ m
Ġgi áºŃt
Ġs Ã¡nh
ĠR o
n Äĥm
m p
j ect
Ġtr áºŃt
Ġs Ã³t
Ġx Ã¢m
ĠTh Æ°á»Ŀng
Ġc Ã¡t
Ġvi t
ĠJ ohn
Ġgi áºŃn
ĠC uá»Ļc
Ġng áº¡ch
ĠH iáº¿u
ĠS p
or k
Ġc anh
Ġkh iáº¿u
Ã© m
le y
Ġb áº£y
Ġng áºŃp
ĠCh Æ°Æ¡ng
u c
Ġl Ã´
Ġd á»įa
Ġph Ã¡i
ĠthÆ¡ m
Ġvit amin
Ġb áº¿p
ĠM áº·c
Ġmá» ¡
ĠDav id
kh Ã´ng
ĠRi edl
Ġm áº¡n
Ġkh á»ĳng
Ġh Æ°
Ġtr á»Ļm
ĠS inh
Ġlá» ĵ
ĠTr á»ĭnh
Ġnh á»ĭp
un d
Ġho ang
ĠÄĳ áº¡p
as hi
Ġk iá»ĩm
ou th
Ġc á»¡
' ,
or n
Ġb áº¯c
Ġchu á»Ļt
Ġnh á»±a
ĠB iÃªn
Ġnh Ã¬
ĠS LNA
ĠQu áº£n
Ġph Ãº
Ġt Ã¡o
Ġs á»¥
ĠN iÃªn
Ġgh Ã©p
á» £p
Ġ200 1
á»© a
Q ÄĲT
ch enko
ĠS ong
ĠU n
S á»±
Ġv a
ĠV Æ°Æ¡ng
ĠS e
ĠÄĳ iá»ĥn
Ġch Ã³
Ġd iá»ĩt
Ġhá» ķ
S C
Ġmu á»Ļn
ĠH am
Ġlá» ¡
on don
at h
ĠTr áº»
Ġn on
ĠT T
F rom
ĠB er
Ġb Ã¡m
Ġkh á»ķng
c on
ĠÄĳ Ãłnh
ĠL ao
ĠÄĳ áº¯t
ĠL am
Ġv ÃŃ
ĠlÃł n
an i
an k
ĠCh iáº¿n
ĠUkrain a
Ġb Ã¹ng
Ġn á»ģ
ub ject
2 6
Ġh Ã´
ĠN ai
ĠTh áº¡nh
Æ°á»Ľ t
Ġs ay
C on
Ġm Ã©t
Ġ uy
ĠG o
c Ã³
Ġnh Ã£n
ĠH áºŃu
ĠM ich
E C
Ġchá»§ ng
ĠL ondon
ĠC Ã¡ch
Ġb Ã¬
Ġb áº¡ch
Ġtr i
ian o
Ġth Ã³i
Ġvá» Ł
4 5
ĠT oÃłn
ĠD el
raf at
Ġd áº¡
Ġ Ã¡i
Ġt iÃªm
ĠPh áº§n
Ġh Ã´i
an mar
2 7
ĠC ÄĲ
Æ°Æ¡ n
Ġkho áº»
one y
X X
Ġ15 0
Ġnh Ãłng
Ġthá» Ŀ
e y
t in
Ġth áº£
Ġh u
Ġb áºŃn
ĠHC V
Ġch ua
ĠÄĲ an
ĠÄĳ áº¿
Ġl iá»ģu
Ġh Ãłm
Ġm áº£nh
ĠT ot
Ġdá» ĩt
Ġt áº¯t
Ġkh uyáº¿t
âĢ ľ
ly mp
ĠTr iá»ģu
n am
ĠC al
Ġv áº£i
ĠÃ Ŀ
Ġc á»ķng
Ġk em
Ġngh iá»ĩn
ĠD N
S Ã¡ng
Ġb á»ĳi
Ġtr á»¥c
Ġgi Ã£n
Ġx Ã³a
ĠTh á»į
Ġr áº¯n
e i
Ġng á»±c
Ġd Ã¢u
ĠS Ä©
Ġb á»ĳc
ĠÄĲ Æ°á»£c
Ġx Ãł
Ch iá»ģu
Nh Ãł
Ġh áº¹p
Ġg á»įn
v a
Ġh áº§m
Ġch áº½
Ġnh áº¡y
ĠT iger
ĠV F
Ġl ang
ĠA rafat
g entina
0 7
B C
2 9
Ġph á»ķi
Ġx uÃ¢n
s son
Ġc Æ°á»Ľc
Ġmá» ı
x i
Ġv áº£
ĠB ec
ĠW TO
Ġth iá»ĩp
D ÄĲ
er ry
Ġl Ã²
Ġth Äĥng
B áº£ng
T á»ķng
Ġ o
ÄĲ Ã³
ĠH á»įc
ĠD ung
Ġ áº©m
Ġh áº£o
Ġx Ã¡ch
ĠE l
Ġt Ãłng
Ġb Ãª
Ng ay
Ġth Ã´
ĠC r
Ġm áº¿n
Ġd á»ĵn
er o
ĠL y
ĠS c
ĠN Ã³i
ĠL áº¡t
Ġt Ã¡ch
Ġb ia
ĠH Ã³a
Ġmá» ĵ
Th á»§
Ġng Ã³n
á»ĳ m
an e
Tr ung
Ġkh á»©
Ġlá»ĩ ch
V N
Ġv ang
Ng h
á»ĩ t
Ġg á»ĳi
Ġs áº¯m
Ġ ,
ĠC N
S N
e al
Ġt Ãłn
Ġv inh
Ġv á»Ļi
Ġh iáº¿n
ĠGi Ã¡o
th Ã¡ng
áº¹ o
ĠRonal do
Ġb áº¿n
Ġhá» ¥
ĠB en
Ġsá»£ i
ĠS o
ĠT o
Ġd uyÃªn
Ġm Æ°u
ĠC QÄĲT
ĠÃļ c
Ġc ua
ĠÄĳ iá»ĩp
Ġtr Ã´i
ĠL a
e ng
l in
Ġ Ã¡m
Ġx áº¡
g o
n a
y o
Ġl eo
ĠH Ã´m
Ġvi d
Ch á»ī
ams u
Ġnh áº¡t
Ġs Ã¡u
ĠM au
Ġn á»ĵng
Ġv oi
V Ã¬
ĠTh áºŃm
8 0
ĠB áº±ng
Ġmá» ĩnh
G iá»
g h
Ġc Ãłi
Ġn iÃªm
on y
ic e
Ġvid eo
ĠÄĳá» ĩ
áº« m
Ġmá» ıng
ĠP er
Ġc áº¥t
Ġto ur
ĠNgh á»ĭ
Ġtr Æ°a
ÄĲ áº¿n
Ġng á»Ļ
Ġb Ã´ng
ĠK áº¿
C uá»Ļc
D o
Ġch Ã¡n
ĠS y
t y
ĠV Å©ng
ĠÄĳ ai
Ch á»§
ic a
ac o
ashi ng
Ġg á»£i
Ġlá» ıng
ĠNgh Ä©a
x in
ashing ton
Ġkh en
áº¹ t
. -
3 1
Ġtr á»Ļn
an o
ĠBarc a
H H
Ġthá»§ ng
ĠMy anmar
Ġcá»ĳ t
I V
ĠÄĳ Ã¢m
ĠT am
Ġbá» ģn
b a
u el
Ġm Ã¹
ro g
ĠSer ie
ĠO lymp
Ġbá»¥ i
Ġm Æ°á»£n
Ġkh Ã©o
ĠC Ã¡i
ĠL G
Ġs an
ĠVal encia
l and
Ġh a
Ġd Ã²
y a
Th á»±c
Ġk iá»ģu
ay ern
Ġthu áº«n
A r
B Ã¬nh
Ġc á»ĳng
tr ong
E m
V D
c ast
Ġch Ãºc
Ġm Ãły
Ġch Ã¹a
av ar
G L
200 2
Tr Ãªn
ĠX Ã¢y
ĠG r
ag e
á»ĭ n
ĠE d
A C
Ġtr uyá»ĩn
Ġg Ã¡nh
ĠÄĳá» ©c
ĠC D
Ġ3 6
ĠPh á»¥
g t
Ġkh Ã¢u
Ġnhu áºŃn
Ġ á»ĳc
ĠM áº¡ch
ĠÄĳá»ĵ n
Ġc m
Ġch Äĥng
ĠP C
ig h
ĠT im
ÃŃ a
Ġs Æ¡n
ÄĲ á»ĳi
as h
l a
ĠÄĳ áº¡n
Ġd á»Ļi
Ġx áº¿
I D
Ġv áº¥t
in o
Ġ3 2
ho o
Ġm Ãºa
Ġ á»©c
ĠC Ãºp
k e
kh am
L A
ĠÄĲ Ã£
ĠTh Æ°á»£ng
Nh Æ°
og le
ĠL á»£i
ĠQ ua
ĠÄĳ eo
ÄĲ iá»ĥm
ĠE r
Ãº n
ĠH IV
ĠM c
Ng uyÃªn
o od
l es
Ġs how
Ġho an
ĠW ashington
z ech
Ph Ã¡t
b ia
Ġc áº©n
ĠL Ãłm
ĠTh e
Ġhá»¥ t
Ġ á»Ľt
Ġx ÃŃ
ar e
cast le
ĠT iáº¿p
Ġthá» £
ĠÄĲ Æ°á»Ŀng
ĠÄĲ á»Ļng
ĠTh áºŃt
Ġe uro
ĠK ong
Ch ÃŃnh
e u
Ġch inh
Ġb i
Ġtr áº§n
Ġh eo
ĠTh Ã¡ng
ĠCh Æ°a
ĠV nExpress
ĠPh áº£i
os e
ĠCan ada
l et
ĠO s
Ġch Äĥn
k a
Ġv áº¹n
Ġgi Ã²
ĠS V
D Ã¹
ĠC H
Ġv Ãº
Ġch Ã¬m
ĠC ity
Ġph iá»ģn
? ".
ĠÄĳÃ³ i
Ġr Ãło
3 3
ch ester
iv e
ĠH ong
Ġ áº£o
Ġc áº¯p
ĠHen ry
Ġ :
Ġm Ãłng
Ġ Ã¡c
ĠV an
ĠL in
ÄĲ áº¡i
ĠTN HH
ĠC á»Ļng
ĠK iÃªn
Ġ7 5
Ġl áºŃt
Ġn á»Ł
ĠRo oney
Ġgi Æ°á»Ŀng
Ġth Ã¡o
Ġx Ã³m
c a
ĠC uá»ĳi
Ġhá» Ł
Ġbu Ã½t
Ġhuy nh
H LV
ĠAr gentina
ĠK iá»ģu
at ion
d am
3 2
ĠÄĲ a
Ġv Æ°Æ¡n
ĠÄĲT DÄĲ
Ġth Æ°á»Ľc
ĠS ubject
Th á»Ŀi
Ġso áº¡n
ĠT á»ĳi
ĠB ol
ĠH S
T S
Ġb Ãºt
Ġx inh
Ġlá» ©a
te in
Ġtr Ã¹m
Ġt iá»ĩc
ĠT S
ĠX in
el d
B Ãł
Ġs ex
er t
TV T
Ġtho áº£
3 5
ĠC áºŃp
ĠS Ã¡ng
ĠY ork
7 0
Ġn Æ°á»Ľng
iá»ħ u
l i
Ã£ nh
ĠC zech
ĠNh ung
ĠHÄĲ XX
Ġ Æ°a
ĠM á»įi
ĠO anh
Ġtá»¥ ng
Ġn Ãºt
ĠcÃ³ c
ĠB áº¿n
Ġn áº¡i
Ã¹ y
ĠL H
ĠQ uy
f ord
m á»Ļt
Ġm Ã³ng
Ġn áº¥m
ĠP ak
Ġch á»ĳt
Ġ19 6
it h
0 9
V á»¥
nh am
ĠQu an
ĠS ent
ĠH á»£p
Ġ6 5
ĠlÃ£ o
0 8
Ġg a
ĠM áº·t
s p
ĠB V
ĠH iá»ģn
ĠD Ã¹ng
á»Ĺ ng
ig a
3 4
Ġ &
Ġc ai
Ġm i
1 00
ĠÄĳ Ãł
ĠÄĳ áº¯p
ĠCh u
M áº·c
Ġm áº¡o
ĠL áº§n
ĠD i
Ġng á»±a
ĠB ÃŃ
iv o
ĠÄĳ áº»
Ġth Ã¢m
Ġd á»ĳi
ĠM at
ĠCh Ã¡nh
Ġl á»¥
C N
ĠC Ã¹ng
Ġmá» Ŀ
ep ort
s in
Ġc ay
ĠV Ãło
D á»±
Gi Ã¡
z a
Ġvá»ĭ t
ĠÄĳ am
Ġb áº¿
te nham
Ġdá»ĭ u
ĠTH PT
ĠMich ael
Ġb Æ¡i
Ġng Æ°á»¡ng
ĠBec kham
Ġch áº©n
Ġd Ä©
ill i
ĠGo ogle
eport ivo
T iá»ģn
Ġth Ã¹ng
Ġng áº§m
ĠC ÄĲV
ĠL Æ°u
ĠTr ÃŃ
g ar
h a
ĠG l
Ì ī
Ġd e
ĠB Æ°u
ĠG TVT
Ġmá»į c
u áº§n
Ġb Ã¡t
ĠGiá» Ŀ
d ay
ĠM or
Ġl Ãºa
ĠA M
Ġ5 5
ĠB Ã¡c
! ".
ĠA g
Ġnh áº«n
ill ar
d e
ĠS A
ĠD VD
Ġng Æ°ng
ĠB ayern
Ġr ock
ĠÃģ nh
S A
EA N
d er
Ġth e
ĠT Ã´n
Ġthu á»·
Ġlá»Ļ n
ĠA ir
C Ã¡ch
Ġtr iá»ĩt
an t
200 1
Ġ áº¥p
Th á»©
ot a
Ġt á»§
Ġh Ã²
Ġng Æ¡i
ĠV C
ĠD e
Ġh ung
. ,
ĠTr áºŃn
ĠgiÃ¡ p
Ġ +
Ġs Æ°u
ĠC Ãł
ĠL Ãł
re al
tr ess
I A
i ra
Ġl Ã´i
ĠKh áº£i
Ġc á»±
Ġl áº¡m
an a
ĠB ag
Ġch Ã¬
Ġn Ã¡t
Ġtho áº£ng
C S
l er
Ġg ene
Ġtr Ã¡ng
le x
ĠÄĲ K
ĠG ÄĲT
ĠkhÃ³ i
Ġhu á»·
c ar
Ġt iá»ĩm
Ġc áº¯m
Ġ199 9
ĠAS EAN
g iá»
ĠC or
Ġ ong
ĠTh Ã©p
Ġ3 4
ĠR áº¥t
or to
os t
Ġbá»ı ng
Ġch ai
ĠP l
Ġxo ay
C Ã¹ng
p e
Ġ3 8
ĠPar is
ĠOlymp ic
Ġl Æ°á»¡i
Ġ6 00
Ġ25 0
ĠK iá»ĥm
ĠR á»ĵi
eo r
... ,
Ġ3 3
Ġ of
w n
Ġm áº¯m
Ġtr inh
il le
V Ãło
Ġv u
ĠVF F
19 8
illar real
r ist
ĠS ad
Ġv Æ°Æ¡ng
Ġ199 8
ĠT Ãº
I FA
l os
o o
Ġch Ã©p
Th áº¿
ol a
Ġn áº£y
Ġngh iÃªng
az io
Ġt áº©y
Ġr Ã£i
Ġ8 00
ag o
ĠS i
ÄĲ Æ°á»£c
ĠA ng
Ġtho Ã¡ng
Ġ12 0
Ġh am
Ġho Ã£n
ÄĲ á»ĵng
ing ham
Ġng áº¯m
ĠT Ã¹ng
ĠtÃŃ m
Ġt áº¿t
Ġm Ã¬
ver ton
Ġm en
Ġkh e
Ġm Ã¢u
ĠHo Ãłi
A n
ĠTuy áº¿t
B Ãªn
Ġn á»ĵi
Ġkho Ã¡i
l ine
ĠÄĲ A
... ".
ĠRonal d
b ro
H N
Ġl áº¥p
Ġr Å©
ĠB o
Ġb áº¯p
ĠCh arl
á»Ń u
ĠG áº§n
ĠB TC
ĠS ang
ĠCh ung
Gi áº£i
Ġnh áºŃu
V Ãł
Ġh áº¯n
Ġng á»įn
ĠSh ar
ĠT uá»ķi
ĠS a
y l
Ġ3 7
Ng uyá»ħn
t t
Ġl Äĥn
ĠPak istan
Ġthu áº§n
Ġng Ã¢m
ĠN Ãªn
an s
ĠCh uyá»ĩn
ĠKh oáº£ng
9 9
ĠM ob
a hoo
u z
Ġl Ã³t
C Æ¡
ĠNh i
Ġkho Ã¡c
k ho
Ġb Æ¡m
ĠH ar
r am
Ġl ong
á»¥ n
an n
D C
Ġb á»Ļi
ĠÄĳá» ¥
ĠH áº¡
ch á»ī
ĠB Ãłi
er b
Ġchi p
ĠThu á»µ
id d
ov ic
Ġs tress
ĠS un
ng uyÃªn
Ġv Ã¡n
Ġn á»¥
Ġtá» ĵi
ĠF IFA
ĠMan chester
e ar
Ġd Ã£
ĠH P
ĠP aul
at t
avar es
u an
Ġl áº¥n
ĠT avares
ĠC S
ĠÄĲ á»«ng
Ġx Æ¡
r áºŃp
w en
Ľ n
Ġl áº¯c
ĠC a
ov a
Ġth áº§m
Ġch Ãªnh
Ġb Ã¡
ĠTh á»ĳng
ĠS am
ak a
H ÄĲ
3 6
3 00
Ġ oan
.. ..
ĠE x
ĠT á»±
p p
Ġm áº»
ĠC SG
ĠH oÃłn
en a
ĠY áº¿n
Ġv an
Ġv Ã¢y
Ġth áº¥m
Ġl Ã¹ng
Ġb á»įc
Ġbá» Ĺ
E FA
s inh
Ġc Ã²i
Ġth áº¯t
Ġm á»Ļng
Ġn áº¿p
Ġgi Ã£
Ġd á»Ł
ĠT M
ĠS il
ĠQu Ã½
Ġth Ãły
Ġl Ã¹i
ĠB u
ĠM á»Ľi
Ġl áº·p
ĠC á»¥
ĠB iá»ĥn
Ġbá»Ĺ ng
Ġph u
ĠH uyá»ģn
Ġph e
Ġho áº¡i
Ġtu á»ĩ
V iá»ĩt
ĠTh iáº¿t
Ġ6 4
ort s
ĠHA GL
ĠN Æ°á»Ľc
ĠH áº±ng
ĠÄĲ Ãºng
ĠS l
ĠCar los
Ġ j
á»ĭ t
Ġl Ã©o
ĠS te
Ġgh en
ĠÄĳá»¥ ng
Ġl á»Ļi
ĠCh á»£
ĠB Ã¢y
ĠÄĲ áº¡o
ĠW est
it ed
Ġng á»Ļt
Ġd á»ĳc
Ġho áº¡
Ġ3 9
Ġph Ã¡o
ĠM un
ĠD á»ĭch
ĠG er
Ġtu Ã¢n
Ch elsea
' '
Ã ģ
Ġm Äĥng
ĠNh u
ĠTh á»«a
Ph Ãºt
ĠÄĳ uÃ´i
Ġkh uy
Ġho Ãłnh
al a
Ġr á»§
ĠH Ã£ng
Ġkho an
b ank
ĠC P
ĠTr Ãł
Th Ã¡i
Ġc áºŃy
Th Ã¡ng
7 5
t or
£ n
e h
Ġg Ã£y
Ġng á»£i
Ġd áºŃp
ĠU EFA
ĠIn tel
ig o
ex press
bur g
Ġc Ãºp
Ġn Ã´n
Ġg áº¯t
ĠNew castle
áº» o
H A
Ġg ay
ĠP ro
Ġdo áº¡
ĠU á»·
H o
Ġh Æ°ng
Ġph áº¿
ĠT om
ĠB áº¡ch
ĠÄĳá»ĩ m
Ġd á»įn
Ġr áº¯c
ĠNh Ã³m
Ġáº¢ ráºŃp
s o
Ġ im
Ġl á»Ł
ĠV illa
ĠD anh
Q G
Ġd Ã¢ng
ĠSh ev
Ġnh o
ĠH áº§u
ĠS Ã´ng
ĠR os
ne y
ĠC á»ķ
ĠRonald inho
Ġth áº¯c
Ġb áº©n
Ġr á»¥
Ġp in
i x
t á»«
Ġ i
ĠÄĳá» Ľn
Ġqu Ã©t
ĠV Æ°á»£ng
ĠTh i
Ġsá»ĳ c
Ġ' '
C H
d or
r es
Ġb á»Ļc
Ġchu á»Ĺi
ter s
Ġthá»ķ i
o un
ĠTh Ãºy
ĠO l
ĠT ÃŃnh
an y
Ġf an
4 4
T Ã¬nh
ĠÄĲ inh
ĠG eor
vn express
á» ĥn
Ġm á»¥n
ĠÄĲ Äĥng
Ġ4 6
ID S
ist el
3 8
H Ã£y
Ġch Ã³t
Ġcá»§ ng
ĠH e
Ġ4 8
Ġlu i
Ġx á»ī
ĠM ay
Ph Ã¡p
u ay
Ġr o
ĠN á»¯
ĠB Ã³ng
ĠHo Ãł
ĠÄĳ áº¯c
ĠÄĳ Ã¹a
Ġs on
ĠL oáº¡i
ĠF A
om p
3 7
Ġt ia
ĠV ÃŃ
ĠTh Æ°
ĠV áº¥n
ĠKh anh
ĠPet er
istel ro
T H
Ġ Ã¢n
Ġl am
Ġch Ã´n
Ġb áº¥m
ÃŃ u
ĠNh á»Ŀ
m o
ul ham
ĠAC B
I C
P EC
Nh Ã³m
ĠÄĳÃ´ la
ĠÄĳ áº¯ng
Ġth Ã¡nh
Ġthá» į
âĢ Ļ
ĠY ahoo
ed er
Ġ Æ¡i
áº¿ m
ĠÄĳá»ĵ i
B an
Ġt Ãª
Ġch iÃªu
Ġm áº·n
Th Ã´ng
ĠCN TT
istelro oy
ĠR od
v an
ĠB ang
ĠM Ã¹a
ĠKh Ã¡ch
az a
u x
ov ich
ĠUn ited
ĠSad dam
N am
Ġg Å©i
ĠS Æ°
Ġlá» ģ
ol i
ir m
h d
Ġ ?
Ġ áº¡
Ġth Ã¡p
Ġn Ãłn
Ġr á»§i
Ġp ro
m er
Ġnh Æ°á»Ŀng
ai r
ĠP orto
is s
Ġ7 00
Ph Ã³
ĠPr em
c k
Ġnh áº§m
ĠC á»©
ĠP an
ĠU y
Ġh Ãł
Ġb Ã³n
Ġy áº¿t
ĠB ul
4 00
n er
Ġh uyá»ģn
ĠT Ã²a
Ġm áº£ng
Ġkh Ã´i
ĠV I
ĠB H
Ch o
irm ingham
N G
ĠC ro
D A
Ġc Æ°á»¡ng
ĠC áº©m
ĠÄĲ iá»ĥm
m outh
Ġc ong
ĠÄĳ Ãª
ĠÄĳá» ©t
ac e
Ġhá»Ĺ n
ber g
ĠA lex
iv i
Ġt áº£ng
Ġnh á»©c
Ġn Ã©m
Ã¹ n
ĠG Ã²
Ġw ww
Ġv en
ĠN istelrooy
Ġk iÃªm
Ġvá» įt
our inho
ĠSan t
Ġt Ã´ng
Ġm Æ°á»Ŀi
Ġr áº¡ng
ĠB á»ĭ
B á»ĩnh
g on
k m
ĠT Q
Ġlá» £n
Ġr ung
ĠH Ãłnh
Ġt Ãºng
ĠTh iá»ĩn
ĠK erry
ar a
Th áºŃt
Ġdá» Ŀi
c el
Ġx ÃŃch
Ġsá»¥ p
9 0
Ġr á»±c
ĠV illarreal
ĠM á»Ł
ĠL iga
ĠG u
Ġph Ã¬
ĠS á»¹
Ġth Æ°a
Ġl Äĥng
Ġr á»Ļn
ĠD iá»ħn
and er
Ar senal
į a
Ġv Æ°á»Ľng
Ġth áº¡ch
Ġl Æ°á»Ľt
Ġd Å©ng
ĠN a
i ev
Ġr áº¡p
Ġtá» ıi
Ġx Æ°á»Łng
Ġmá» ĵi
ĠQ H
ĠÄĳÃ¡ y
ĠMon aco
ug h
S LNA
d io
Ġk áº½
Ġtr Äĥng
Ġnh áº¯m
Ġgi Ã¡n
ĠS ao
Ġquy áº¿n
Ġquy á»ĥn
Ġkho Ã¡
Ġc Ã´n
orts mouth
B á»ĭ
Ġh áºŃn
ĠgÃ¬ n
ĠM ex
ĠBag hd
B ar
i or
Ġx Ã´
Ġx oa
ĠTr áº¯ng
ĠM ourinho
ĠD eportivo
ĠC o
ĠG ary
4 6
ĠÄĳ iá»ģn
ĠMun ich
4 3
Ġt áº¡t
Ġb Æ°u
ĠC Ã¢u
ĠTh á»ķ
man n
ĠTot tenham
ĠÄĳ iÃªn
Ġch Ãª
Ġkh Ã©p
Ġd áº¡o
ĠShev chenko
H áº£i
ĠMar k
i um
Ġc á»į
Ġtr á»Ļi
id a
8 00
j a
Ġl áºŃn
Ġl ÃŃt
Ġs Æ°á»Ľng
Ġg áº¡ch
Ġhá» ıa
ĠV in
Ġt ivi
Ġv Ä©
Ġh Ã²n
Ġx Ã´ng
ĠS al
ĠA c
ĠTr iá»ĩu
S á»ĳ
Ġtr Ã¢u
Ġd Ã¡n
ĠM o
ĠL á»ĩ
ĠNh Æ¡n
ar k
Ġkho Ã¡ng
ĠW al
ra c
az z
Ġph Æ¡i
bur n
B Ãłn
ĠB Ãłn
ĠÄĲ áº¡t
ĠCh iá»ģu
ĠNh áº¡c
igh t
Ġl áº·n
ĠT iáº¿ng
ĠL ev
in d
ĠK á»¹
Ġchu i
L Ãłm
ĠH ol
ĠLe e
ĠPrem ier
Ġth áº¯n
Ġhá»į ng
Ġ19 5
Ġdá» «a
ĠAd r
A l
ĠTr á»ĭ
Ġ20 10
ĠAnd re
Ġ Ãł
Ġv áº¡ch
ĠT á»Ń
ĠM Ã¬nh
ĠW illi
Ġchá»į c
u á»ĵn
ĠT el
en d
ĠQu áº£
Ġbu Ã´ng
ĠBaghd ad
c Æ¡
Ġtr Æ°á»£t
ĠL á»ħ
Æ°á»Ł i
F one
Ġd áº¡n
ĠÄĳá» Ĺ
ĠN or
ĠV ina
ĠM Ã£
ĠL azio
ĠMar tin
6 00
Ġl Æ°á»¡ng
á»ĳ p
á»§ a
ed ia
Ġkh Ã´n
Ġx áº£
Ġ4 2
Ġx i
ĠJ e
Ġtá»¥ t
) ...
l u
Ġ á»§i
ĠÄĳ Ãºc
Ġtr áº¯c
Ġs p
Ġtá» įa
ĠA D
ĠÃģ o
4 2
Ġc áº¡n
ÄĲ á»©c
ĠQ uyáº¿t
Tr Æ°á»Ŀng
gar ia
Ġnh uyá»ħn
Ġn Ã¢u
iá»ģ ng
ĠM á»¥c
ĠS ony
idd les
C uá»ĳi
Ġk iá»ĩt
Ġnh Æ°á»£c
Ġg ai
qu e
ĠÄĲ á»ģ
Ġ199 7
C áº£
T áº¥t
Ġc l
ĠM os
ia t
Ġbu á»ĵng
ack burn
Ġm anh
ĠH ay
ĠTh Ãªm
ak sin
ell o
Ġm Å©
ĠPh Æ°á»£ng
ĠJ ose
Ġh Ãłn
Ġch Ã¢m
ĠTh ay
Ġlá» ĵng
Ġt amsu
ĠGi Ã¡ng
Ġ8 5
ĠO wen
M A
T M
m e
ĠC as
ĠÄĲ Ã¡ng
ĠS en
ĠNh Ä©
em en
Ġ Ã¢u
Ĥ n
ĠÄĳá» ±c
ĠV áº¥p
ĠM B
ĠphÃŃ m
ĠCol e
H á»Ļi
M á»Ĺi
nh Æ°
Ġb Ãº
ĠM P
ĠP ir
Ġchu á»Ļng
C Ã´
Ġnh Ã©
Ġr á»¡
ĠB et
ĠMex ico
Ġv Ã£
Ġm Ã¢y
it t
ĠchÃº a
S V
X H
Ġkh iáº¿m
! âĢĿ.
b ao
w ood
Ġtr Ãłng
Ġtr Ã¡n
ĠG S
oh am
bro ugh
ĠB Ã¡
ĠTh aksin
ĠK ar
Ġ ox
ĠÄĳ áº±ng
ĠB ern
ĠS ai
ĠR á»ĭa
In ter
iddles brough
Ġc áº¥y
Ġl au
Ġch áºŃt
Ġr Ã¡o
ĠV ic
ĠCh iáº¿c
is co
L u
Ġta xi
ĠX uáº¥t
Kh oáº£ng
Q ua
Ġ á»ĵn
ĠÄĳ Ã²n
Ġtr á»į
Ġkh ao
ĠvÃł nh
ĠV Ãłng
ĠL iÃªm
ĠK iáº¿n
M an
Ġg Ã£
Ġx Ã¡
ÄĲ áº§u
Th anh
' ),
S B
Ġh Ã¡i
Ġn Ã©n
on t
ĠTH CS
ĠBol ton
ĠT V
Ġqu Ã¡i
Ãº m
ĠR ich
us se
Ġv áº·t
Ġn á»©t
Ġph áº³ng
ĠB ÃŃch
ĠTh Ã¡nh
iv al
Ġh iá»ģn
Ġh iáº¿u
ĠÄĲ á»ĭa
Ġho Ãłi
ĠTr uyá»ģn
or g
ĠNgh iÃªn
6 5
B Æ°á»Ľc
s a
uy en
ĠV i
ĠL á»±c
ĠA f
ĠE verton
ed a
Ġnh á»¥c
Ġs Æ°Æ¡ng
ĠL at
ec o
ĠLH Q
3 9
L iÃªn
ines e
ok yo
b on
d i
Ġn o
ĠS hi
id e
ĠHu á»ĩ
Ġcu á»ĵng
H u
H Æ¡n
Ġ on
Ġt i
Ġqu áºŃt
ĠP ier
ĠNh Ã¬n
Ch Æ°Æ¡ng
R S
R eal
¯ a
Ġth Ã¨m
Ġg as
Ġchá» Ľ
er k
Ġ4 4
ol f
ush chenko
kho áº£ng
Ġkh Æ¡i
Ġng Æ°
ĠÄĳá» įng
ĠC áº£ng
ÄĲ Ã£
Ġb ar
Ġm Ã²
ÄĲ Ãªm
Ġ5 2
ĠJ ul
Ġch anh
Ġn Ã£
qu áºŃn
ĠÄĲ Ã´i
ĠA t
ĠNg hi
L Ãł
t áº¥n
w are
Ġnh á»Ł
ĠG áº¡ch
ev illa
ĠFran c
B Ã¡c
Ġnh áº·t
Ġng Ãµ
Ġ4 9
Th Ãłnh
Ġtho Ã¡i
id ane
ell a
Ġh iáº¿p
Ġph Ã´i
iv es
s au
Ġ ac
Ġc Ã¡p
ĠT á»īnh
ĠÄĳá» Ľi
ĠÄĲ i
Ġho i
ĠO p
ĠPar k
ach er
ĠLy on
ĠTr inh
Ġkho ai
Ġngo an
/ /
l ines
Ġt á»ĳng
ĠÄĳ un
Ch Æ°a
H Ãłng
g us
Ġv ac
Ġh iá»ĥn
Ġx Ã¡t
ĠB Ã¡ch
ĠÄĳi Ãªu
th Ã¹ng
M U
T A
ĠS ol
ass age
l Ãłm
Ì ĥ
ĠH Ã¬nh
ĠHÄĲ ND
tt p
V ÄĲ
d inese
Ġc á»ĳc
Ġl Ã¡t
Ġtr á»ħ
Ġng áº«u
ĠL áºŃp
Ġgiá» įt
ĠD a
Ġh á»ĳ
Ġh Æ°u
ĠS im
Ph Æ°Æ¡ng
Ġb Ãłng
Ġs c
ĠM Ãł
ol e
ĠEr ik
ĠC A
ĠÄĲ Ãªm
ĠS Ã¢n
ĠLu is
ĠGeor ge
: //
o e
Ġ Ãło
ĠT in
Ġchu Ã´ng
if orn
gh an
iforn ia
r ed
ĠÄĳá» ¥c
ĠB áº¡c
ĠB ill
ĠVKS ND
ĠAir lines
gus on
Ġh ang
ĠT áºŃp
ĠT okyo
ÃŃ p
in k
i es
Ġ Æ¯
ĠT Æ°á»Ŀng
ĠC ai
Ġ5 6
ĠhÃ£ i
ĠZ idane
Ġ Ãªm
Ġ ax
Ġm Ã¨o
Ġd Æ°a
Ġ199 0
Ġc á»Łi
Ġh ero
Ġch ay
ĠT iá»ĥu
ĠQu á»¹
Nh áºŃt
h im
Ġc Æ°á»£c
Ġs Æ°ng
ĠB á»Ŀ
Ġbá» ĥ
ol y
á»Ľ n
ec ce
ĠBul garia
g g
Ġc Ãºng
Ġl Æ¡
Ġph un
Ġx Ãło
ĠM ac
ĠK á»ĥ
ĠI r
H á»į
Ġl Ã¡ng
Ġb Ã´i
ĠB BC
ĠÄĲ Ãłn
ĠF ab
B M
Ġm g
Ġs e
Ġs en
Ġs Ãºc
er on
Ġ199 6
Ġhero in
Ġthá» īnh
Ġx Ã¬
ĠB ro
Ġ5 3
is h
ĠTot ti
ĠGÄĲT LA
A S
J uventus
ĠN o
ĠÄĲ B
ĠTh Ã¹y
ĠCh rist
ĠThá»ĭ nh
ĠAdr iano
ghan istan
T iáº¿n
Ġ Ã¡
ĠÄĳ áº¯n
Ġth áº±ng
ĠT ay
ĠTh áº¡ch
ĠL áº¡c
giá» Ŀ
Ġtr e
ĠM ot
ĠS áº½
ĠNg Æ°á»£c
ĠG ar
Ġ200 7
2 000
Ġch Ã¨
ĠB e
ĠL ib
ĠPh áºŃt
Ġ4 7
et ro
Ġcam era
Ġsá»¥ t
Ġch uá»ĳi
et h
á»ĩ n
l an
Ġt áº§n
ĠÄĳ Ã¨
Ġch Ã©n
Ġb á»±c
Ġd ai
ai k
ĠS áº£n
in s
Ġ5 7
it ter
Ġto p
un a
ĠViet nam
l ad
ĠTh Äĥng
Ġlá» į
ĠP V
ĠP ow
ĠA F
Ġ4 3
Ġngo áº¡n
Ġcan xi
Ġt Ã¹ng
ĠC el
ĠM Ã´i
Ġbá» ĵ
ĠPh Ã¹ng
Ġto áº£
rid ge
usse in
B a
ĠÄĳ uá»ĳi
Ġh Ã³c
ier i
Ġmu á»Ĺng
ĠCal ifornia
ĠAf ghanistan
t á»©c
ĠÄĲ Ã´
ams ung
ĠPet ro
7 00
C P
S P
ĠM as
ĠL iÃªu
ar do
ĠE to
Ġ ur
Ġr Ã¡p
Ġ5 1
at ia
b o
Ġtr áº·c
Ġd áº¡i
ĠM uá»ĳn
ĠE n
Ġso i
ĠAn ton
ĠGiá» Ľi
ĠV iáº¿t
ĠHam as
ĠCS ÄĲT
4 7
Ġth áº£n
ĠmÃ£ nh
ack er
O C
Ġtr u
ĠC ap
amp ard
ĠbÃ³ p
? âĢĿ.
Ġk iá»ģm
al i
Ġ7 2
ior entina
ĠErik sson
ĠTh iáº¿u
ĠS ar
Tr ao
Äĳ áº¡i
Ġvu Ã´ng
ĠT Ä©nh
ĠB rom
on d
Ġho Ã³c
ĠA th
ĠFer guson
L Ãºc
w ard
ĠÄĳ áº§m
ch i
Ph áº§n
ĠRob b
ĠÄĲK VÄĲ
r ia
ĠB áº¥t
... )
Ġ4 1
Ġlu á»ĵng
ĠX Ãª
aw i
ĠNhu áºŃn
s hi
ĠÄĳ áº¡m
Ġm od
Ġnh á»įn
Ġqu Ã£ng
Ġr á»ĥ
ĠC Ã¡t
ĠY an
Ġcá»¥ m
Ġ á»ĳm
Ġh áº¡ch
Ġr á»Ľt
amp ton
Ġgh Ã©t
Ġch áºŃu
Ġg Ã¡c
ĠJ un
uv e
4 8
Ġr áº½
ĠC at
ĠL ar
Ġrá»¥ ng
4 9
h e
Ġtr iá»ģu
Ġng Ãło
ĠT Ã´
ĠH ussein
Tr áº£
H O
Ġt áº¡ng
Ġch áº£
Ġb Ã³c
Ġtr Ã¢n
Ġr Ã¢u
Ġkho Ã¡t
ĠU r
us t
ĠX Ã´
ĠDo anh
ĠAng el
a eda
r is
ĠM Ã¡y
ar ago
Ġlo Ã©t
ĠT our
ĠL ampard
ĠÄĳo an
Ġtho a
um acher
4 1
Ġl Ãºn
Ġk ar
Ġr ao
et a
Ġdá» ¡
M al
T iÃªu
Ġv Ä©nh
Ġtr á»«ng
Ġs á»ıi
ĠE sp
to p
B Ã¡o
Ġd iá»ĩu
ĠM il
ĠTh Ã¢n
Ġpro tein
T B
X áº¿p
ĠV iá»ħn
arago za
Ġ Ã´n
ĠT Æ°Æ¡ng
ĠN et
th eo
ĠÄĳ áº·n
Ġl á»Ļt
Ġm Ãłi
ĠT u
ĠV á»ĭ
Ġtá»± a
V áºŃy
Ġch Ã©m
Ġm Ã¹ng
ok ia
Ġt iá»ħn
Ġn iá»ĩu
Ã¬ a
ĠRob ert
Ġ Æ°á»Ľp
Ġc Ãłnh
ĠV á»«a
ĠViet tel
Ġn ang
Ġvá» ī
Ġr Ãł
ĠC os
ĠK y
Ġ6 6
Ġp en
Hu áº¿
G áº§n
c m
e f
Ġm l
Ġn á»į
Ġthá» ±
ĠM oham
ph Ãºt
Ġr á»ĩt
ĠL Ã£nh
ĠKh á»Łi
at r
Ġ7 8
ĠW eb
Äĳ Ã£
ul l
Ġ199 5
Ġ Ã³c
Ġv áº¡n
Ġh i
ĠÄĲ Æ¡n
Ġg áº¡t
Ġd áº»o
Ġr Ã©t
ch áº¡y
ĠB or
ĠÄĲ áº¥t
ĠJ av
ĠX uyÃªn
Ġgh Ã©
Ġg á»¥c
Ġng Ã´
Ġx Ã¡m
ĠB áº¯t
Ġtu Ã½
ĠGr and
Ġl Æ°á»Ŀng
Ġh ao
Ġb áº¥y
Ġm assage
Ġnh á»ĭ
áº¿ ch
ĠT or
Ġ7 7
Ġlá»¥ t
s h
Ġr áº£i
ĠH á»ĩ
am a
Ġmá» ī
ĠNg Ã£i
Ch uyá»ĩn
ĠGl itter
5 5
B áº£n
N Ã³i
Ġ5 8
ĩ ch
Ġr Ã¨n
ĠS amsung
ĠG h
cÆ¡ va
V Ã²ng
Ġn áº£n
ĠM áº¹
Ġkhi Ãªu
er to
ĠF PT
Ġngu á»Ļi
ord an
Ġb áº«y
ĠPh im
Ġ6 8
ad o
n áº¿u
x cÆ¡va
Ġv Ã¢n
Ġl Ãºng
Ġn á»ĳt
ĠH iá»ĥn
ĠAr m
ĠAl l
ern an
Q aeda
j an
Ġc áº¯n
Ġch at
Ġm áº§m
ĠC Ã¡
ĠV en
ĠB á»ī
ĠFran k
ĠLin ux
Ġkh iáº¿p
Ġg á»ĳm
ĠK e
Ġv iá»ĩt
Ġm á»ĳc
Ġn áº¡p
Ġd Ã£y
Ġchá» Ń
ĠS m
ĠI b
Ġ199 3
ĠFer r
ĠB irmingham
ĠA pp
ist a
let ico
A F
B ol
c i
k y
ĠÄĳ á»ĳng
Ġl Ã¢n
Ġm á»ĭn
ĠK iá»ĩt
ĠD áº§u
Ġ6 2
ĠJ on
ĠX ÃŃ
Ġox y
C SG
r en
Ġ Æ°á»Ľt
Ġh ttp
ĠM á»©c
ĠTr Ã¡i
ĠK u
ĠF igo
Ġ7 6
R iÃªng
ĠÄĳ Ã¨o
Ġv e
Ġch á»ĳn
ĠT Äĥng
Ġr á»ĳt
ĠM Ã´n
Ġká» ģ
ot t
ww w
L áº§n
X in
m ed
Ġc á»įc
Ġg á»«ng
Ġgi áº¿
ĠX Ã£
outh ampton
C D
e e
u et
ĠM ess
at es
Ġdá» Ĺ
ĠY ushchenko
Ġ199 4
Ġgiáº¿ ng
; &
Ġc Ã¡m
Ġngh á»ĭch
ĠS u
ĠG M
ly wood
ĠNo el
H á»ĵi
Ġc á»ĵn
ĠV ua
ĠS I
ĠJ ames
ĠSt ev
lo ad
eng er
S ND
Ġ ao
Ġt uyáº¿t
Ġkh á»ī
Ġg am
an ia
ĠV TV
en z
Ġ5 4
Ġlu Ã¢n
il a
ĠF or
ĠF ulham
AC B
H Ã£ng
nh á»¯ng
ĠM a
áº· m
ĠX P
any ol
Ġth áº¡c
ph one
ĠV ir
ĠCh áº¯c
ÄĲ Ãł
oun ce
N ew
Ġv Ã¡ch
ĠN okia
Ġx uÃ´i
ĠM iddlesbrough
ug uay
Ġt am
ĠÄĳ áº¥m
Ġg iá»ģng
Ġgi ang
ĠB CH
ĠA h
ĠthÃ¬ a
n es
Ġ !
Ġn áº¯p
Ġkh Ã¡i
ĠTr Æ°ng
ĠK H
ĠNh áºŃn
Ġ6 7
ĠJ uve
ĠhÃ£ m
ig an
est ival
ĠCro atia
L iverpool
ĠM er
ĠD iá»ĩu
Ġ am
ĠÄĳ Ã²
Ġs Æ°á»Ŀn
Ġg u
ĠV áº¡n
ĠL iá»ĩu
el e
Gi Ã¡m
ĠGD P
Ġth áº¥u
Ġg Ãµ
ĠV á»£
ĠG aza
ĠVC K
C áº§n
f eld
i el
k ok
Ġb áº©m
Ġvá» Ĺ
ĠN H
ĠV ie
el and
Ch Ãło
om ina
Ġu á»·
ĠMon t
ĠCSG T
' )
5 6
Ġl Ã¡ch
Ġh acker
Ġb Æ°á»Ľ
Ġm Ã²n
Ġs et
Ġkh uáº¥t
ĠL i
in t
er mo
ĠR am
rog ba
eder er
5 4
N T
Ġs Ã´
ĠC á»Ńu
Ã² m
Ġ5 9
Ġ6 3
ot o
ĠNgh e
Ġl uá»Ļc
ĠTh áº¥y
A M
Ġng áºŃm
ĠT Ã¡m
Ġru á»Ļng
ester ol
D anh
Ġkh ong
Ġng á»¡
ĠT á»·
Ġx ao
ĠTr e
ĠR a
ĠÃ Ķ
Ch iáº¿n
ĠBl air
c Ã´ng
ĠR aul
b y
ĠÄĳ Ã¹i
Ph áº£i
Ġgh e
v ia
Ġv Ã¡
Ġx Ãłi
ĠB iáº¿t
Ġ200 8
- -
i ed
Ġm ÃŃ
Ġr Æ°á»¡i
et ti
ĠQu Ã¡
om bia
ag a
Ġvac xin
t ic
Ġch Ã¡nh
Ġnh a
Ġnh Äĥn
Ġkho Äĥn
Th u
om as
ĠY o
ĠBet is
% ).
C T
D I
Ġc á»Ľ
Ġs uá»ĳi
ĠL Ã£
et t
ur e
Ġmu á»Ĺi
Qu áº£ng
Ġk áº¹o
Ġng áº§n
ĠM i
on da
ĠNg uyá»ĩt
Ġtá»± u
Ġsu Ã½t
ĠMob ile
M á»Ľi
b i
Ġnh á»ĵi
Ġd ang
ĠD om
ĠE s
Ng a
ĠBr emen
Ġhá»ķ ng
Ġax it
ĠXÃª Ãºt
Ġb Ã£
Ġx Ã´i
ĠP ortsmouth
ĠD rogba
al e
ĠF l
Ġc ar
Ġm au
Ġm á»Ļc
ĠK l
ar en
ĠU SB
ĠKh o
Å© a
us en
ĠW enger
S t
c ol
k s
Ġl Ãª
Ġch en
Ġm Æ°Æ¡i
ĠK Ã´ng
Ġbá» «ng
ĠKh ai
Ġ7 9
ĠJ an
ut in
erk usen
Ġt Ã¡m
ĠÄĳ inh
Ġchá» ĩch
ĠD Æ°á»Ľi
ĠBang kok
T iáº¿p
c elona
Ġm an
Ġd áº¹p
Ġr á»Ļ
ĠÄĲ iá»ģn
ao ke
ĠCh áº¥t
áº» m
oy ota
Bar celona
Ġt áº¥u
Ġt Ã³m
Ġch áº£i
Ġm á»§
Ġs á»į
Ġph á»Ł
ĠM el
Ġbá» ĵn
it s
ĠWilli ams
ĠSai gon
Ġv áº¯t
Ġb á»įt
Ġng áº¥t
Ġng á»įc
Ġvá» Ľt
ĠH D
ĠÄĳáº¿ m
Ġd áº±n
ĠB ÄĲ
Ġto a
ut t
ĠMat xcÆ¡va
G S
Ġl en
ĠT uyÃªn
Ġr ong
ĠH an
Ġcho l
ĠTh Ãº
ĠK á»·
Ġtu á»³
ĠI BM
ĠHol lywood
Ġk iÃªng
Ġb Äĥn
Ġqu á»µ
ĠP omina
ÄĲ áº·c
Ġan d
os ter
af e
ĠPar ma
Ġch iÃªn
Ġk áº¹t
ĠB el
Ġkho e
at a
ĠF ederer
H á»įc
b ox
i ent
u j
ĠC áº¥p
ĠC áº£m
ĠC á»Ńa
ĠL Äĥng
Ġxo Ã¡
ĠBl ackburn
G ia
v al
Ġs Ã©t
Ġph ai
ĠB S
ĠTh uá»ĳc
ĠPh á»§
Ġ9 5
tr e
iat is
Ġs áºŃp
Ġqu áº¡t
ĠS av
ĠJ i
U SD
p i
z al
ĠÄĳ áº¯m
Ġv Ã³c
Ġv Ã²i
Ġth Ã²i
Ġh ÃŃt
Ġch Ã¡o
Ġch áº£o
ĠS Ã¡u
Äĳ Æ°á»£c
ak h
ĠSt am
ĠchÃ¬ a
N H
Q uá»ĳc
g er
r ay
ĠT a
Ġr á»ħ
ĠS Ã³c
B áº¥t
H áº§u
M Ã¡y
Ġ uá»ĳn
ĠC áºŃu
Ch iáº¿c
Ġ13 0
ĠRich ard
Ġchol esterol
V al
c Ã¡i
Ġg om
Ġx ay
ĠV y
ĠV áºŃn
ch o
Ġ8 2
ĠHo áº·c
Ġto an
Ġ9 00
ĠAnton io
5 3
V nExpress
w ich
Ġd Ã©p
ĠD ell
Ġlo a
c á»ķ
Ġk Ã¨
Ġph iáº¿n
ĠH ung
á»£ t
Ġem ail
ev ic
ĠMal d
5 9
j ax
Ġth Ã¡m
Ġqu áº§y
Ġr áº¡ch
ĠV á»ĭnh
Th á»ĭ
il bao
Ġ0 4
ĠbÃ¹ n
uk ovich
7 6
E F
T á»ĳi
Ġch ÃŃch
Ġm m
ĠB as
is e
iger ia
C a
l ay
ĠN A
ra him
Ġ8 4
Ġ8 6
shi p
5 2
Ġt ao
Ġb Äĥm
Ġnh ung
ĠL ang
ĠG re
or m
ĠAl ber
sk i
B A
M á»įi
t Äĥng
Ġph Ãłn
ĠV Ã²ng
ĠO r
ng h
Ġtr Æ¡n
Ġng uyá»ĩt
ph áº£i
ĠT uyá»ĥn
Ġngh iá»ĩt
ĠTh o
ĠL áº¡i
ĠS evilla
Ġ3 60
Ġgh Ãª
oc ied
TC C
Ġkar aoke
ocied ad
T Ã¢n
ĠT uáº§n
Ġx áº»
ĠM u
ĠS af
ĠF lor
Ġ8 7
ĠSA RS
Ġchá»Ľ p
ĠCos ta
Ġd Ã¨
ĠT erry
ĠC IA
ĠG il
... ).
ĠJ ack
Ġ9 9
d ex
ĠB Æ°á»Ľc
Ġbá» ©t
ĠG on
as una
ĠMot or
v ed
Ġr un
ĠH el
ÄĲ á»ģ
ĠVN PT
ĠJ uan
ĠO n
ot ti
ah a
% /
5 8
T ÃŃnh
c ini
Ġ eo
Ġ áº§m
Ġt Ã¡ng
Ġnh á»ĭn
ĠT á»ĳ
Ġgi áº·t
Ġ6 9
ad e
Ngh iÃªn
Giá» Ľi
ĠCharl ton
Ġkhuy a
Ġvá»ī a
A i
K H
m y
ĠÄĳ Ãłng
Ġnh Ã£
Ġs Ã¢m
Ġkh á»ĳc
Ġr Ã£
Ġr á»ī
ĠNg Ãł
ĠG en
ĠX anh
ov en
sk y
M S
r ard
áº ¢
Ġch Ã©o
ay ne
ÄĲ á»«ng
Gi Ã¡o
ernan do
C Ã¢u
Ġt Äĥm
ĠÄĳ áº¡c
ĠK r
Tr áº§n
ac t
ap ova
rog en
wn load
ĠEx p
T Ã¢y
Ġ Ãª
Ġkh á»Ń
Ġng á»©a
Ġ1 10
ĠD Æ°á»£c
or an
ĠHÃł m
Kh u
ĠAb d
Ġl Ãµi
Ġb Ãºn
ĠL ad
áº½ n
ĠK iatis
as er
ĠTM N
S Ã¢n
Ġ a
nh Ãł
Ġho áº¡n
ĠCh ile
om a
ed on
ob ot
ĠAs ton
In donesia
Ġi P
ĠVie ira
% )
l us
Ġt Ã²
Ġt est
ĠÄ Ĥn
Ġh áº»m
Ġnh an
Ġs áº¿p
ĠM iá»ģn
ĠA z
ĠD eco
ÄĲ H
ĠW il
Ġon line
C Ã¡i
M ar
v es
Ġv iáº¿ng
Ġd áº·n
ĠN igeria
et e
Ġin ch
ien a
Ġac id
Q T
Ġl Ã¡nh
Ġm áºŃp
ĠC ass
ĠV o
ĠS á»©c
er i
Ph Ã²ng
ie go
ÄĲV N
ĠPier o
5 1
Ġnh iáº¿p
Ġn an
ĠS at
ĠR u
ĠF estival
Ġ9 8
ag li
ĠO ld
Ġchá»£ t
TP HCM
ĠUr uguay
C áº£nh
P ar
i ro
w on
Ġ á»§
Ġn uá»ĳt
Ġ198 0
erb y
ĠYan ukovich
" ...
ĠN V
ĠH iá»ĩu
ch á»§
ĠM ak
ĠA v
ĠA IDS
ĠTr af
ĠCh a
Ġ7 1
ing s
ĠkhÃŃ a
ĠRobb en
ĠApp le
M Ã¬nh
Ġch Ã¨o
Ġk eo
Ġph iÃªu
ĠT ur
Ġcho Ã¡ng
... âĢĿ.
ĠF iorentina
á»Ľ c
Nh Ã¢n
amp dor
Ġp op
ĠAb b
ĠSam uel
ampdor ia
A IDS
Ġnh Ã¡t
ĠF ir
it ar
B S
B l
f ica
w e
Ġb o
Ġm ÃŃa
Ġr ang
ĠB ridge
ĠM áºŃu
ĠCh Ãºa
ĠRe y
M inh
d in
g u
p ort
Ġl áº§u
ĠN ic
ĠR af
ab eu
Ġlá»¥ a
ĠPow ell
Ġchá»Ń i
H oa
R áº¥t
S inh
n an
x Ã£
ĠÄĳ ÃŃnh
Ġn Æ°Æ¡ng
Ġn uá»ĳi
Ġqu ota
ĠCh uyÃªn
ol o
ed ved
ul in
ist o
ĠÃļ t
ĠBern abeu
ĠIb rahim
h uyá»ĩn
Ġt áº·c
Ġs á»«ng
Ġn áº¡o
Ġd á»ĵi
ĠTh am
ÄĲ Ãºng
ar ta
Ġ6 1
ĠvÃµ ng
ĠII I
K á»ĥ
S h
s i
Ġth ÃŃnh
ĠA PEC
ĠG ates
ĠX box
Lu áºŃt
Ġv Ã´i
Ġv uá»ĳt
Ġph anh
ĠT áº¡
Äĥ k
ĠV á»ĩ
Ġ3 50
ĠU dinese
Ġ18 0
ho áº·c
ĠRob erto
ĠAb u
orn o
ĠPremier ship
r ich
Ġtr Ä©
Ġnh á»įc
Ġx en
ĠH Ã¢n
ĠM in
ĠTh ur
ĠPh ÃŃa
ĠKh Ã´i
Ġvá»ĭ nh
ol es
Ġ7 4
Ġchi Ãªm
Ġcu á»Ļn
Ġh Ã©t
Ġg áº§y
ĠC ung
ĠB Ã©
ĠB os
ĠTh áº¥t
im era
et ing
ĠZ eal
ĠCH DC
ĠÄĳ u
Ġx Ã¡o
ĠH a
ĠV ai
ĠK aka
ĠQ uyá»ģn
ĠGi áº¥y
ĠShar apova
ĠGer rard
" ?
l l
Ġt Æ°á»Ľc
Ġg á»Łi
ĠV iÃªn
ĠP utin
ĠK iev
ĠPh Ã³ng
al ty
Ġtá»ĳ p
ĠX e
Ġtá»¥ i
b á»ĭ
Ġl Ã©n
Ġnh ai
Ġn á»ĥ
ĠL áº¡ng
ĠS und
Th á»ĥ
as ter
Ġ7 3
Ho Ãłng
ĠTraf ford
6 8
H iá»ĩp
V Äĥn
i eld
p s
s trong
Ġl ung
Ġch iáº¿t
Ġlá» Ŀ
Ġ8 3
ĠCal isto
agli ari
ĠZeal and
6 7
K im
M ilan
b ell
Ġb Ã¡ch
Ġn Ãªm
Ġqu áº¥y
Ġr anh
ĠN Äĥng
ĠA P
ĠCh inh
ĠI van
Tr á»Ł
ic ardo
uel a
H z
Ġch uá»Ļc
Ġs áº¡t
ĠT iÃªu
Ġngh Ãªnh
Ġtu i
á»ı a
lor er
V áº¥n
ĠH onda
om m
th uá»Ļc
ent e
um i
ĠCol ombia
ĠIr eland
ĠiP od
C Ã¡
S á»Ł
T in
h iá»ĩn
m ad
r on
Ġv áº¥p
Ġs áº¥y
ĠC á»§
Ġlá» «ng
Ãµ m
ĠcÃ¡ u
ĠÄĲT QG
i j
Ġm Ã´ng
Ġng Ã¡n
ĠN ay
ĠV áº«n
ĠB á»©c
ov er
ĠCl in
Ġpen alty
C C
M B
b l
o áº¡n
w in
y n
Ġ )
ĠÄĳ Å©a
Ġkh an
ĠC á»±u
ĠH igh
ĠG B
ĠG TCC
Ġ8 8
ĠHC B
ĠMan cini
ĠCr es
Ġcl ip
ĠT Ã¡c
ĠV A
ĠM ag
Ġkhi Ãªm
ĠP SV
ĠKh áº£
ĠJ er
it z
and al
Ġ199 2
oh an
ĠBen fica
ĠGon zal
' s
5 7
H P
T ay
c t
v Ã¬
Ġt áº»
Ġc al
Ġv Ã¡y
Ġx Ã³t
ĠTr Äĥng
Ġ8 1
tr Ã¡i
aul t
r ic
r ig
Ġs á»¹
Ġx Æ°á»Ľng
ĠC Äĥn
ĠH ass
ĠB ao
ĠM ah
al ke
et afe
Ch áº³ng
ĠJ o
ĠbÃ© n
av el
ĠAl b
ĠLH P
B Ãłi
y on
Ġnh ÃŃ
Ġd áº£i
Ġngh áº½n
es co
ĠR um
Ġ4 50
ĠOs car
ient es
Val encia
' (
K T
p y
v e
v Ãł
Ġt áº¥p
ĠN ev
ĠTr Ã¢m
es se
im ex
tr Ãªn
ik e
bur y
ĠVic tor
Ġb ong
Ġm iÃªu
Ġg Ã¢n
ĠB áº£y
ĠB all
ĠGi Ã¡p
ol d
ec k
ĠBr un
ĠAm er
ĠPhá»¥ ng
ĠCres po
E M
N ÄĲ
S ang
S ing
Ġv Ã¡c
Ġn áº¥y
ĠV H
on i
er son
ed o
ĠThu áº¿
Ġ14 0
Ġp oly
ĠMar c
ĠZ aragoza
ĠTo Ã¡n
ĠPir es
6 2
H áºŃu
L G
V T
n o
w an
Ġs Ãłnh
ĠK ur
Th am
Ġ0 9
19 7
ex t
Ġxo Ã¡y
ĠSch umacher
ĠSm ith
I T
P C
b e
Ġch áº¡p
Ġm áº¯ng
ĠC á»ĳ
ĠH áº£o
ĠV Ãłi
ĠL Æ°á»£ng
ĠNg Ã´i
ĠCh Äĥm
ĠNh Æ°á»¡ng
Ġthá»ĭ nh
ag an
Ġdu oc
ĠThu á»·
ie u
B r
d ick
n i
r ik
Ġ Ãºy
ng er
Ġb Æ¡
Ġm e
Ġng áº·t
ĠT ÃŃn
ĠN edved
ĠC omp
ĠV áºŃt
ĠV id
ĠM Ã³n
ĠÄĲ Ãłm
ĠS á»Ń
ÄĲ á»įc
Ġ8 9
ĠIn d
Äĳ á»ĳi
ĠgÃ³ t
ĠPal ace
ĠSch oles
ĠPer u
B ÄĲVN
G B
l áº§n
n y
y c
Ġt áº©u
Ġn ÃŃu
Ġg ang
Ġd ay
Ġd áº§m
ĠN ou
ĠM á»Ļc
ĠTr Ãºc
ĠCamp bell
6 4
B T
C á»¥
M Ã¹a
s á»ĳ
t iá»ģn
ĠS iÃªu
á»ķ n
ĠJ ac
Nh áºŃn
co w
ĠUkrain e
ĠCHDC ND
I taly
Ġc Ã²
ĠÄĳ an
Ġtr o
Ġg Ã²
Ġng Ãłi
Ġph Ã´
ĠS eo
ĠP as
ĠCh á»©ng
ell er
ĠAs h
ĠExp lorer
C áº§u
N K
n Ã³ng
t Æ°Æ¡ng
z e
Ġth Ãª
Ġl ive
Ġr Ã¡ch
ĠM ong
ĠTr Ã£i
ĠPh á»ĳ
em ber
ĠKh áº¯c
is a
6 1
6 3
T Æ°Æ¡ng
b ek
s ton
Ã ©c
Ġs Ã²ng
Ġs á»Ŀ
Ġvá» ©t
ĠTh iá»ģu
ĠS G
ĠG all
Ġvi sa
ro up
ub a
ĠbÃ¬ a
ĠLib Äĥng
ĠHung ary
ĠClin ton
9 5
v en
Ġs er
ĠT amsu
ĠCh áº¥n
ĠD is
ĠD ani
ĠW e
ĠW ayne
Äĳ á»Ļi
um a
ani um
A N
Ġl á»ĳc
Ġh Äĥng
ĠC Ãłng
ĠÄĲ á»ı
ĠL au
ÄĲ oÃłn
ol l
ĠJ ordan
ĠMar ia
ell i
ass er
SC L
E E
S áº½
ch e
ĠK on
ÄĲ i
ĠGi ai
Ġ16 0
ff ice
ĠBen it
ĠLev erkusen
S ubject
Ġ =
ĠÄĳ Ã¡i
Ġl Æ°á»£n
Ġnh á»Ļn
ĠL á»Ŀi
on so
ĠR y
ob ile
aw a
ĠlÅ© y
ĠSy ria
ĠMob i
ĠBu ff
ĠLat via
Ġv iá»ģn
Ġv Ã£n
Ġr obot
Ġx Ã©
ĠCh áº¿
Ġca c
onal d
ĠSi ro
ĠJe an
ĠGar cia
ĠArm strong
N Æ°á»Ľc
t ar
x em
Ġk Ã¬m
Ġs áº¹o
ĠT áº¡o
ĠN HÄĲ
ĠPh a
Kh Ã¡ch
ir i
Ġmu Ã´n
ĠPr imera
Ġj azz
D iá»ħn
Y T
c Ã¡c
Ġ áº¡t
Ġh en
Ġm á»ĳt
Ġng Ã²i
Ġd er
Ġqu Ã¡t
ĠN áº¡n
ĠC O
ch Æ°a
ĠM edia
ĠÄĲ á»ĳng
ĠTh á»¥
ĠG P
ĠR og
ho p
ez uela
l av
s ter
Ġt Æ°á»Ľi
Ġx áº¥p
us e
ĠQu áº¿
kh Ã¡ch
st em
enn is
'' .
ĠAD N
Ġmod el
m ir
Ã Ŀ
Ġc ard
Ġtr Ãºt
Ġph Ã¡c
ĠM Æ°á»Ŀi
ĠL á»ĭch
ĠK SND
ĠCh á»ĵng
ĠLÄĲ BÄĲVN
Ġsp am
ĠAt letico
Ġl á»¯
Ġnh Å©
ph áº§n
ĠB á»ĳ
ĠÄĲ áº¯c
ĠS P
ĠS or
ĠTr i
Nh Ã¬n
ĠHu Ã¢n
est a
ĠMor ientes
ĠRod dick
ĠAth ens
ĠFerr ari
New castle
6 6
C á»±u
L oáº¡i
u ra
Ġh Ã´ng
ĠT inh
Ġgi Ã²n
ĠÄĲ á»ĵ
Ġthu á»Ł
ĠD iego
Ġy en
Ġkho áº£nh
ĠKh iÃªm
Th Ãªm
ĠQu Ã¡n
ĠO DA
ĠÃĤ m
Qu an
ĠCharl es
ĠÄĲB SCL
ĠEsp anyol
ĠGonzal ez
9 3
H Ãłn
Ġt Æ¡
Ġch á»¯ng
Ġk Ã©p
ĠT ony
Ġx áº£o
ĠÄĲ Ã¡
Ġho c
Ġlo Ã£ng
Th áº¯ng
Ġthi Ãªng
ĠY Ãªu
ĠNgh iá»ĩp
BÄĲ iá»ĥm
ĠHC ÄĲ
ĠSI TC
B áº¯t
T á»ķ
g ra
t uáº§n
Ġb áº¡t
Ġd erby
Ġr á»ĳn
ĠB Ã´ng
ĠB al
ĠL áº¥y
ĠS on
ak e
of f
ĠIbrahim ovic
8 8
g io
Ġc Æ°ng
Ġch Ã¹m
ĠT O
an co
ĠM ass
Tr áº»
199 9
ĠPl ay
ĠSil va
ĠMos cow
Sing apore
Ġc áº¡o
Ġh áº£
Ġh Æ°á»Ľc
Ġng áº£
ĠT Ã¬m
ĠB ur
ĠL Ã£ng
ĠP e
ÄĲ Ã´i
ĠW hi
Ġin ter
ĠAb ram
con i
ation al
ĠMil os
ĠBenit ez
Ġn i
Ġg áºŃy
ĠÄĳá» Ŀ
ai t
ĠM áº¥y
Ġkho ang
at ra
ĠF r
est rogen
gi áº£i
ĠShar on
c Ã²
g art
Ġt áº¡
Ġg á»Ļi
ĠB ell
ĠÄĲ ang
ĠL ou
au s
ĠD es
Ġká» µ
ĠF C
ab lo
Ġ197 5
cel otti
9 2
J C
T ot
Ġc á»Ĺ
Ġth á»ĳt
Ġng Æ¡
ĠK ing
ro yo
ĠF re
og na
ĠGiá» ¯a
ĠUy Ãªn
lus coni
L aren
c á»§a
Ġv ao
Ġn áº¿m
Ġqu ÃŃ
ĠC M
ch er
ĠB uá»ķi
ĠP atr
ĠA jax
ĠCh Ã¢n
ol ari
ĠX Ã©t
ot land
ĠBer g
ives how
ĠMilos evic
C B
S o
d es
Ġh uyá»ĩt
Ġs á»įc
Ġg r
Ġr á»ĵng
ĠM us
ĠK T
Ġká» ĩ
ĠLad en
ĠRey es
Tot tenham
L á»ħ
Q uyáº¿t
h Ãłng
Ġl iá»ħu
Ġg áº¥u
Ġng á»Ńa
ĠT oyota
ch iáº¿c
ĠM e
ĠTh omas
ĠNg uyen
ĠK oi
em ent
ĠR oy
ĠAn celotti
Ġvá»¯ a
HA GL
9 00
D T
E U
Ġ Ãºt
ĠÄĳ áºŃy
Ġl ÃŃu
ĠT R
ĠH ew
áº¯ k
ch uyá»ĩn
ĠS áº¯c
or y
ĠHo Ã¡
esse nger
% ),
b our
t ta
Ġ áºŃp
Ġng á»ı
ĠT á»ĳt
ĠT ech
Ġqu á»·
ĠC Æ°Æ¡ng
ĠCh Ãºc
ĠD inh
ĠF DI
ĠFran ce
Ngh á»ĩ
b á»Ļ
Ġs áº¥u
Ġn ao
Ġng Ã¢y
Ġqu áº¥n
ĠH áº¡t
ĠTr á»±c
ĠTr iá»ĥn
ĠK iáº¿m
ĠhÃ£ nh
iv orno
ĠAr royo
ĠAl an
ĠSch alke
Giá» Ŀ
ĠxÃŃ u
ĠYo ung
p er
t á»ķng
Ġng áº¡t
Ġx iáº¿c
ĠC Ã¢y
ĠC en
ĠV it
Ġngh iá»ģn
ĠL uÃ¢n
ĠL á»Ľn
ĠNg Ãłnh
ĠF ernando
Ġchá»į i
ĠLu c
ĠCr ist
ĠTo Ãł
Ġur anium
F F
M áº·t
Ġt Ãº
ĠÄĳ Ã¡n
ĠM C
ĠÄĲ áºŃu
ĠL ecce
au lo
er r
ĠG á»Ńi
Ġty pe
ul y
ou d
ez eg
ene y
Ġkhuy nh
Bol ton
ĠMobi Fone
T G
T Ã¬m
c Ã´
Ġgi Ãłn
ĠP a
ĠTr ao
ĠK en
ĠR ub
ĠBl u
ĠChrist ian
ezeg uet
l am
t ain
v ic
Ġc áº©m
Ġnh iá»ħu
Ġd Ãª
Ġd Ã¬
ĠL S
ĠCh iá»ĥu
ĠG al
ĠQ L
ĠR an
ĠI A
Ġnhu á»Ļm
Ġsc andal
ĠSeo ul
7 1
C l
p ol
Ġb in
Ġb Æ°á»Łi
Ġm iá»ĩt
Ġx áº¯n
ĠB áºŃt
ĠL Ã¡
Ġho r
Ġvá»¥ n
ĠKh Ã¡n
ĠQu Ã¡ch
ĠAl i
ĠAnd y
C O
D L
I I
L á»ĭch
u ong
Ġl aser
Ġb anh
Ġtr á»ĩ
Ġthá» ¥c
an te
ĠB á»ĳn
ĠM SN
ĠTh ÃŃ
ĠNg uá»ĵn
ĠI E
os hi
Äĳ á»ĵng
if e
ĠSc olari
ix el
ĠHigh bury
D Ã¹ng
D eportivo
V á»£
Â ł
Ġt em
Ġt áº¥c
Ġth áº¯p
Ġb áº»
Ġtr Ãªu
Ġn Ã¡o
Ġg olf
Ġthá» ģm
ĠB Ã¡nh
ĠÄĲ N
ĠTh iÃªm
ĠW HO
se ille
ĠRod rig
i al
k in
r Ãºt
Ġk iÃªu
Ġnh Ã¡i
ĠT an
Ġr á»Ĺng
ĠH N
Ġ( !
au dio
ĠP ent
ĠW igan
Ph á»¥
ĠAl onso
eg a
ĠBer lusconi
ĠTim es
ĠBH L
ĠCat al
M á»¥c
M uá»ĳn
Ġb áº¡
Ġr áº¡n
ĠTh an
ĠR icardo
ĠThá»ĭ t
Ġin s
ĠCap ello
H y
T á»·
g as
k er
x Ãª
áº ¤
Ġm Ã¬n
Ġs áº£o
Ġn Ã©
Ġgi un
ĠC Ã¡nh
ĠM ax
ĠTh oa
ĠTr Ã¢n
ĠKh ang
ed s
Ġ199 1
Æ¯ T
iz ar
ĠSinh anco
ĠStam ford
L ecce
g an
Ġc Ãły
Ġl Ã³c
Ġm Ã©p
Ġtr Ã³t
ĠV Ã´
ic rosoft
ĠF el
ĠSl am
Ġmá»ī m
Ġinter net
h áº¡ng
t s
Ġv áº·n
Ġb á»į
Ġm ail
Ġtr Ã¹
Ġng Ãłng
Ġd Ãło
Ġthá» ı
Æ°á»Ľ n
Ġbá»ĭ t
ĠK áº»
ĠD Æ°
ĠâĢ Ŀ
ĠKh Ã³
ĠGi gg
ah n
TV N
ĠRom e
199 8
ĠVC D
Mal aysia
Ġhor m
ĠGigg s
A P
S ch
t Ã´ng
y d
ĠÄĳ á»ĳn
ĠTh ai
ĠL o
on ic
Ġdo wnload
Ġy áº¿m
Ch arl
it o
os h
ap top
Ġlá»Ń ng
E D
E verton
F ulham
c ed
r u
v á»Ľi
Ġb Ã¡u
ĠÄĲ áº±ng
ĠP ablo
ĠTr ezeguet
ĠF ord
ac ete
ĠRe agan
ĠNew s
S ong
c Ã²n
z umi
Ġk áº¹p
Ġtr iáº¿t
Ġtr Äĥn
Ġn áº¿n
ĠT Ãªn
Ġr á»Ĺi
ĠN S
an ce
ĠCh Ã¡u
ĠD y
ĠG ra
ĠPh Ã¢n
ĠR ed
Ġtu á»Ļt
ĠÃģ i
ĠVen ezuela
bek istan
8 2
Ġ áº©u
Ġc á»«
ĠÄĳ ao
Ġv Ã¹i
Ġh á»Ļt
Ġk Ã¨n
Ġr áº«y
ĠH er
ĠB Ã¨
ĠD Ä©
ĠD uyÃªn
es l
as e
Ch i
ĠF ar
ĠX em
ĠBar os
ĠBr it
ĠKhu Ãª
ka ard
din and
I P
L Ãª
N E
x e
Ġ á»ĵ
Ġt Ã¡t
Ġth Ãł
Ġl i
Ġph ao
Ġr áº§m
Ġr Æ¡m
ĠC ty
ĠH al
ĠI P
ĠhoÃ¡ TiÃªu
ĠSt ar
iver s
ĠMan ila
eh ran
s feld
Ġt Ã©
ĠÄĳ áº£
Ġch Ã³i
Ġb Ãºa
Ġm áº§u
Ġnh á»ĩn
ĠT G
Ġx á»ĳp
ĠC op
ĠB ilbao
ĠA y
ĠK á»ĭch
ĠD on
ÄĲ á»Ļng
ĠÃ įt
Ġ0 8
ev a
ĠWal es
ĠSaf in
% ;
h mann
Ġ áº¥u
nh Ã¢n
Ġth á»ĳi
Ġm iÃªn
Ġkh Äĥng
Ġkh Ã¡nh
ĠB in
Ġgiá» ¥c
or f
Ġhá»ĩ t
ĠX Æ°Æ¡ng
Ng Ã¢n
Ġ198 6
ĠRi j
Ġ197 0
ya hoo
ĠNev ille
ĠJac qu
( '
8 5
B áº£o
t á»±
Ġv o
Ġl e
Ġl iveshow
Ġh on
Ġs il
Ġg áº·t
ĠV ol
ĠR Ãµ
Ġngo áº·t
Äĳ áº§u
Ġ0 1
Ġsu Ã´n
L á»Ŀi
T N
X uáº¥t
c ua
d y
Ġm ini
ĠB Ãłng
ĠB ÃŃnh
ĠS ociedad
and ro
ĠMar ch
oc a
ab i
ou t
ush u
ud j
ĠFer dinand
ĠMotor ola
ĠAbram ovich
ĠKoi zumi
L ev
f ield
Ġ Æ°ng
Ġv Äĥng
Ġnh áº¥p
Ġcho col
ĠL op
ĠS á»ĳng
ĠS aha
er land
ĠVN D
Äĳ á»ĥ
Ph iÃªn
Ġxu á»ĵng
) (
L Ã½
T Ã¡c
m i
Ġb l
Ġn Ãłnh
Ġng áº¯t
Ġph á»ĵng
ĠT y
Ġr Ã²
Ġr áº£nh
ĠP ra
ĠD J
en b
en ault
Ġcá»¥ t
ill as
Ġ198 8
st an
ĠBer lin
ĠAM D
ĠSant os
rac le
ĠÆ¯ á»Ľc
ĠRij kaard
B V
k i
Ġc uá»ĳng
Ġth áº¡o
Ġl áº«y
Ġkh áº¯t
Ã³ p
ĠN Æ¡i
ĠL os
ĠW ar
ĠAn nan
if f
ĠbÆ°á»Ľ m
Ġtest oster
K A
Ġ z
Ġc áº©u
Ġth áº¯m
Ġth iáº¿p
Ġch Ãł
Ġch á»ĳc
Ġch Æ°ng
ĠB D
ĠB Ã¡n
ĠS outhampton
Th ay
Ng uá»ĵn
Ġchu á»ĵng
if ic
ĠSc otland
ĠTom as
ĠRog er
Ġins ulin
E P
R oma
T uá»ķi
d s
g á»ĵm
m á»Ĺi
Ġl Æ°á»Ŀi
Ġl Å©ng
Ġtá» ħ
ĠB on
ĠCh Ãº
ĠD ar
ĠD ick
ĠI X
Th e
Ch u
ev in
ĠLe hmann
ĠSing h
ĠCass ano
H á»ĩ
M icrosoft
X VN
g r
x y
Ġ áº¿ch
Ġtr á»ķ
Ġn áº¡c
Ġvá» Ŀ
Ġgi Æ¡
Ġthá» ģ
ĠM Ãłu
ĠL j
ĠS JC
ĠCh Ãłng
ĠD iá»ĩp
ĠD áºŃu
ĠG áº·p
ĠG udj
ag hi
re ak
od e
ut i
ĠOs asuna
ĠCas illas
utt gart
ĠPent ium
8 4
B uá»ķi
P ortsmouth
j ico
Ġc Æ°a
Ġch áº±ng
Ġm áº©u
ĠT ehran
Ġhá» Ŀ
ai s
ĠM áº¡ng
ĠTh á»Ľi
ĠL Ã¢n
ĠP le
ĠTr Ã¬nh
ĠCh á»įn
Th á»¥y
Ph ilip
ir us
ĠMal lor
ohn sen
In dex
ĠHew itt
ĠMallor ca
? ",
A ustralia
C á»©
R O
s á»±
Ġt Æ°ng
Ġl áº©n
Ġl á»Ļng
Ġh Ã¡o
ĠN ik
ĠR ang
ĠU ng
tr Æ°á»Ľc
ĠBan k
ĠFranc isco
7 9
G á»Ńi
R ob
V á»ĭ
Ġ ...
Ġnh á»§
Ġnh Ãºng
Ġs im
Ġd Æ°ng
ĠT á»©
Ġx Ãª
ĠV ieri
ĠnhÃł m
ĠnÃ³ n
ĠW im
ĠY uk
th Æ°á»Ŀng
Äĳ i
ĠVI P
ĠKiatis uk
ĠIA EA
Ġchocol ate
B ra
M T
¨ ng
Ġ Æ¡
Ġc á»ĳi
Ġh at
Ġch Æ°á»Ľc
Ġph Ãł
ĠN ad
Ġx Æ°ng
ĠB áº£ng
ĠM Ã´ng
ĠS ain
ar o
em an
Tr Æ°á»Łng
ĠW at
Ġto i
Ġ9 2
Qu áº£
Ġkáº½ m
ĠJav a
ĠAbb as
esl iga
6 9
N á»¯
m ua
t amsu
Ġth iÃªu
Ġb iáº¿u
Ġnh áºŃm
ĠC uba
ĠH Ã³c
ĠB Ã£i
iá»ĥ ng
ĠS uá»ĳt
ĠTr áº¡m
Ġnhá»Ŀ n
iet nam
ud e
ĠAlex ander
ĠAF C
Ġtru ong
ĠGudj ohnsen
8 9
l Ãª
z aghi
Ġnh á»ķ
ĠT Æ°á»Łng
Ġx á»ĭt
Ġbá» ĵng
ar q
Ng Ã´i
ĠPal ermo
und esliga
ath in
ĠNghi Ãªm
ĠBuff on
B Ã¢y
W est
Ġ á»ıi
Ġqu áº©n
ĠH ill
ĠGi uly
ĠJ en
tr ick
ill ip
ĠZ am
ĠSer bia
Ġ198 4
ĠEr ic
ĠStev en
ĠCatal an
? (
D Æ°á»Ľi
G ÄĲT
H Ã¬nh
H Ãłnh
X em
z bekistan
Ġv Æ¡
Ġch ao
Ġn á»Ļ
Ġkh inh
Ġg á»Ľm
ĠT á»ĳng
Ġx á»Ļn
ĠH Æ°á»Ŀng
ĠÄĲ á»Ļc
Æ°Æ¡ m
ÄĲ Ã´ng
es ley
ĠO t
Äĳ Æ°á»Ŀng
Äĳ Ã¡nh
um p
re ira
, ...
L ong
S ao
b u
Ġt eo
Ġs á»ĩt
Ġng áº¥m
ĠT um
ĠN N
ĠN ob
ĠB ob
ĠL im
ĠL CD
ĠR áº«y
ĠChi rac
ri bank
aik os
ĠDani el
cua dor
athin aikos
M y
M obile
_ _
Ġ Æ°
Ġnh á»įt
ĠT á»Ľi
ĠT un
Æ°á»Ŀ m
ĠN e
ĠN i
ch t
ĠM ill
ĠL áº§u
ĠCh eney
ĠnhÃł o
en o
ĠE v
th ay
ĠHu áº¥n
ĠMar seille
ian a
ĠHÄĲ QT
Ġgu itar
ĠOn line
7 2
M ich
S S
o ph
t Ãªn
z i
ĠÄĳ iáº¿u
Ġn áº¡
ĠT al
ĠS ri
er y
ĠD ida
im ir
Ġvá»¥ ng
ĠJ a
ĠHo ward
ad ona
ag uay
ov ak
com bank
ĠDu ff
ĠRum sfeld
ĠPatr ick
ĠRan ieri
B irmingham
D u
c Ã¹ng
m l
m m
w a
Ä Ĥn
ĠH á»·
ĠTh áº§y
ĠnÄĥ n
ĠK ash
ĠD am
ĠQ uyÃªn
ĠE le
Kh Ã¡nh
Qu Ã¡
ĠTT XVN
nam o
ĠShi ite
TB N
A ston
B áº¯c
D av
L C
M c
Q uy
u f
w ait
Ġh ip
Ġtr uáº¥t
Ġg Ã¡y
qu y
Ġqu áº¿
ĠC T
ĠB M
ĠÄĲ Ã¡nh
ĠL ip
Th Æ°a
as a
ed orf
lin s
ĠKe ane
arq awi
Ã Ķ
Ġc Ãło
Ġc Ãºc
Ġv ne
Ġs Ã¡p
Ġn á»Ľi
ĠÄĲ Æ°Æ¡ng
ĠL Ã²
on en
ĠCh áº¥p
ĠD id
Ġbá» Ľi
ĠPh Ã¹
es ar
ĠW i
Ġxo ang
ĠCD MA
HÄĲ XX
ĠAngel es
ĠLou is
D á»ĭch
L azio
Ġb áº¹p
Ġng Ã¹i
ĠTh áº§n
ĠG etafe
ÄĲ Æ°á»Ŀng
Ġtu á»ĵng
ĠI M
ĠÃ Ĳ
ard i
ard ino
ik u
Ġ198 5
gi Ã¢y
ear s
ĠBro wn
val ho
ĠTur in
" :
M áº¹
N Ã³
Ġ om
Ġv Ã¡ng
Ġm ot
Ġr iáº¿t
ĠC Ãº
ĠÄĲ oan
ĠS áº¯p
ĠCh ia
Ġbá» «a
Ġquy Ãªn
is hi
Ng oáº¡i
it al
Nh áº¡c
ĠLan ka
ĠCar valho
ĠSe edorf
ei ra
ĠMald ives
B Æ°u
D F
N Ãªn
b áº¯t
Ġn ung
Ġgi eo
ĠB i
ĠÄĲ iá»ĩp
ĠÄĲ á»©ng
ĠP ac
ĠP enn
ĠA TM
ĠK evin
ÄĲ Ãłi
em i
ia go
Th iáº¿u
Kh Ã¡c
SC T
ĠOp en
f red
l Ãł
u do
Ġc Ã´i
Ġv áº«y
ĠT uyáº¿n
Ġr Ã²ng
Ġngh áº¹t
ĠP T
ĠR ice
Ng á»įc
Ġkhá»ı a
ĠO racle
Ġp lay
ĠRom ania
ĠbÃª tÃ´ng
ĠWilli am
ĠAlber to
bl edon
Charl ton
ĠLop ez
7 8
S áº£n
g in
s et
w ay
x Ã¬
Ġc áº³ng
Ġm áº¡
Ġnh Ã©t
ĠT uáº¥t
Ġr á»ķ
Äĥ c
ĠV áº£i
ĠS tr
ĠP o
ĠP GS
ĠD Ã²ng
ĠnÃ³ c
ĠW ed
ĠW ith
av e
um an
20 10
Ġxo áº¯n
ers burg
SC O
ĠAg ribank
lad imir
ĠMas ters
áº¢ nh
ĠWim bledon
! "
T uáº§n
X P
o ot
Ġs Ã²
Ġn á»ī
Ġkh á»ĳn
Ġr Æ°á»Ľc
ĠH Ãło
ĠB ut
ĠM TV
ĠTh Ã´n
Ġ2 20
ĠP ost
ĠP jico
ĠK ol
ĠG roup
ĠR áº¡ch
il y
us o
ĠJ im
ĠIn zaghi
TT H
ex as
Ar gentina
ĠLar sson
? "
M á»©c
k hi
p an
r ent
ĠÄĳ Ã´n
ĠÄĳ áº«m
Ġv Æ¡i
Ġl áº¡ng
Ġl áº±n
Ġm Æ°á»Ľn
Ġng a
ĠN iá»ģm
Ġx á»ķ
Ġx Äĥm
ĠB undesliga
ĠM Ã£i
ĠM ut
á»¥ ng
Ġ( ?
ĠS up
ĠP ao
ĠNh á»Ľ
ÄĲ áº¡o
ar raf
Tr ang
us s
ĠX NK
ass i
eg g
ĠBH YT
ĠAc er
ĠBall ack
K inh
h h
k ov
n ational
Ġl aptop
Ġs Ãºp
Ġph áº«n
ĠN at
ĠB á»Ńu
ĠÄĲ Ã´n
ĠA ch
ĠD iá»ħm
ĠPh iÃªn
ol og
ĠF all
ak i
ov e
ĠMar t
ush arraf
ero on
ĠMess i
won do
S er
T oÃłn
V á»«a
X B
h an
v ua
Ġl á»±u
Ġm áº£i
Ġm ark
ĠT áº§n
ĠV Æ°á»Ŀn
am b
ĠS ky
ĠK at
ĠD OC
ÄĲ á»ĭa
... "
Th uá»ĳc
Tr Ã¡i
Ġtá»ī a
ĠO Ã¡nh
Ph Ãº
ĠSt uttgart
ĠGM D
ĠCrist iano
7 4
9 8
h ay
u ter
Ġ uáº¥t
Ġh á»ĳt
Ġb iáº¿m
ĠV ÄĲ
ĠV ia
ĠM essenger
ĠD Æ°á»Ŀng
ÄĲ Ã¡nh
ĠU zbekistan
ĠI D
ĠJ oe
ed u
ĠPir lo
ĠMoham med
ĠPle iku
B áº±ng
M on
S outhampton
c Å©ng
l oáº¡i
Ġm Ã¢m
Ġd á»©a
ph en
Ġr Ã¡n
ĠP aulo
Ġra dio
... ),
Ġto Ã¡t
ĠGil ardino
Bl ackburn
ĠYuk os
Bra zil
O s
g ia
Ġl ay
Ġm Ã¡c
Ġm Ã¨
Ġn Ã´
ĠT ai
ĠC af
ĠTh á»¥c
ĠTr Ã¬
ĠI l
Ġ7 50
ĠJ ak
Äĳ áº·c
do om
Ġf or
Qu á»³nh
Ġ198 7
ĠBl ue
Ġláº» o
ĠTim or
ĠJacqu es
Ġtestoster one
U dinese
V iá»ĩn
l uc
Ġth á»ĳn
Ġh áº¯t
Ġm ÃŃt
Ġn it
Ġg á»įt
Ġng Ã³
en eg
Ġkho anh
ĠR ui
ĠF rid
id is
ĠAr ray
ĠMar adona
ĠMess ina
Par ma
7 3
? -
C I
D Ã¢n
Ġc omp
ĠÄ ©
Ġv Ã©t
Ġh á»ĳc
Ġtr á»įc
ĠT Ã¹y
ĠN ar
ĠM Ãª
ĠTr áº£
ĠTr Ã¡nh
ĠCh an
ĠF at
ac ing
tal ia
Ġ198 2
199 7
ovak ia
9 4
C Äĥn
F ran
H K
O S
o ok
Ġt áº©m
Ġl á»ĳp
ĠH TV
ĠQu e
ĠQu áºŃn
ĠJ ang
do vic
ĠÃĤ n
ri x
To Ãł
ĠUn ivers
ĠFrid ay
A d
B ÃŃ
C á»¥c
S L
Y Ãªu
Ġ uyÃªn
ĠÄĳ Æ°Æ¡
Ġl áº©u
ĠT B
ĠT á»«ng
ĠN ov
Ġx Æ°á»Ľc
Ġx Ã´n
ĠV ik
ĠL Ä©nh
ĠD an
ĠD ong
es h
âĢĿ ...
á»ı m
Tr á»įng
Ch á»ĵng
ĠZ h
Ġco py
PT NT
ind h
oshi ba
ĠKash mir
T áºŃp
c y
f u
l as
Ġc á»ĵng
Ġh Äĥm
ĠÄĳá» į
qu ang
ĠN Ãłng
Ġhá» ©c
ĠS ampdoria
ĠD Å©
ar us
ic an
Ġ24 0
ĠPer ez
ĠCel tic
ĠJon es
Ġcar bon
Ġmark eting
B res
L O
M Ã³n
W illi
b Ã¬nh
b Ã¡n
Ġ ĠĊ
Ġv Ã²m
Ġl uyáº¿n
Ġn oi
Ġd iá»ģu
ĠH Ã²n
ĠH á»ıi
ĠM á»ĳi
ĠM usharraf
er der
ÄĲ Ãłn
áº¹ c
Ãµ ng
Ġtho i
it ch
ig n
Ġtá»¥ y
ud io
aka ay
ĠVA T
A t
F C
U BND
W h
b at
h ai
n ew
w ang
Ġ Ã¹n
Ġch áºŃp
Ġch Æ°á»Ľng
Ġs Ã¡o
Ġg áº§m
ĠT exas
qu in
Ġr eo
ch iáº¿n
ĠTh á»īnh
ung berg
ĠTr á»Ł
ÄĲ Ã¡ng
or o
it ion
Ġ9 6
ue z
NLÄĲ O
Ġ198 3
Ġlá»ģ u
Ġhorm one
A D
A R
M áº¥y
Q uÃ¢n
f t
k ÃŃp
t ra
ĠÄĳ Ãºp
Ġg áºŃt
ĠT op
ĠC y
ĠC agliari
ĠH á»ıa
ĠB iá»ĥu
ĠÄĲ áº·t
ĠS outh
as car
th Ãłnh
tr y
Ġngá»§ i
Ġ198 9
ear ch
ĠAndre w
ĠKu wait
ĠAmer ica
indh oven
B á»ĵ
R á»ĵi
W TO
f e
n ic
Ġc Ã¹
ĠÄĳ á»ĳ
Ġs á»Łi
Ġng Ã¡y
ĠT C
Ġqu áºŃy
ay a
ĠM áº«n
ĠTh áº¡c
ao bi
ĠS iena
ĠI talia
ĠKh Ã¡c
ro l
ĠW ood
ĠJ enn
Ġ9 3
ĠThu Ã½
and a
ach i
Ġ197 9
EF L
ĠNS Æ¯T
8 3
B ay
X Ã©t
c oli
w ord
Ġl Ã¹n
Ġch Ã¨n
Ġn a
ĠT uyá»ģn
ĠM Ã¹i
ĠM akaay
ĠS ung
ĠA ra
Ġthu n
ĠI g
ĠI m
ĠKh Ã¡m
Ġkhu áº¥y
ĠGi áº£
ĠJ am
th á»Ŀi
ag el
ĠLu xem
ier ry
ĠCol le
ĠDav is
ĠCam eroon
ĠSy d
ĠSV ÄĲ
ĠBu Ã´n
áº¤ n
ced es
ĠLj ungberg
ĠSain t
Bres cia
j i
w ork
Ġth ung
Ġr Æ°á»£t
ĠC Ã¡n
ĠM ir
ĠL á»¯
ĠS om
áº« ng
ĠG and
el le
ĠKh á»ĳi
Tr iá»ĥn
ur i
ĠcÃº i
TT Q
Ġnháº¹ n
ĠSy stem
ĠFranc esco
nes day
ĠSund erland
ĠWed nesday
H á»ıi
Q L
T uyÃªn
V illarreal
n t
r at
r ight
Ġm áº«n
ĠL Ã¢u
ĠK ÃŃnh
ĠK ahn
ĠCh á»©
Ġbá» ĩ
âĢĿ :
ĠHo áº¡t
ev o
tal an
ĠPet ersburg
ĠOt to
ĠPac ific
ĠSyd ney
B ayern
F i
T uyá»ĥn
w ar
y ware
ng á»¥
Ġc á»ıi
Ġv áº¯c
Ġb á»¥c
Ġs áº«m
Ġgi Ã¹m
Æ°á»£ m
ĠH aw
ch iáº¿m
ĠD ub
âĢĿ !
or ge
ĠI V
ĠE indhoven
Äĳ iá»ĥm
av es
ĠMar y
to ur
Ġ17 0
ĠTel ec
ĠVina phone
ĠJack son
Ġser ver
" !
M ai
S p
T Ã¢m
W HO
Ġv ung
Ġs al
Ġg á»ıi
Ġd áº·m
Ġph ui
ĠTr Ãłng
Ġy áº¿n
Ġtu Ã´ng
or ld
Ġ19 60
ur t
un t
Äĳ iá»ģu
ul t
re am
ain e
if er
ff et
ĠbÆ°á»Ľ u
ĠBÄĲ S
ĠTO EFL
ĠDid ier
L Ãło
r in
Ġ á»©
Ġb Ãªnh
áº¥ ng
Ġx áº¯t
ĠC áº§m
ĠB ah
Ġgiá» ı
ĠD onald
ĠR áºŃp
ĠU á»ĳng
ĠLe on
ĠZ e
15 0
ox in
uc k
An d
ĠHar v
ĠCai ro
N et
s ao
Ġc áº¥n
Ġh Ã©
Ġs áº£ng
Ġs ho
Ġng á»¥c
ĠT ak
ĠN esta
ĠL ive
ĠS ec
ĠP ort
ĠP DA
in son
ĠKh Ãª
ĠKh oan
et to
as p
ol as
ĠInter national
ĠRob inho
199 6
ĠOl iv
ull ah
ĠGand hi
I s
K áº¿
Ġv áº¯n
Ġk iá»ĥng
Ġn áºŃu
Ġng Ã³ng
ĠT ang
ĠT Ã²ng
ĠT ol
Ġx ua
ĠH iáº¿n
ĠB ay
ĠS in
Ġho áº£
ĠCh ar
hi o
Kh á»Łi
ĠMal aga
ek wondo
ĠSo ph
Do anh
Ġnho Ã¡ng
ĠtuÃ½ p
Philip pines
' ',
I M
h t
s day
Ġc at
Ġc áº·n
Ġv áº£y
Ġch Ã¡t
Ġm ic
Ġnh Ã´m
ĠN ap
ĠC ech
ĠV er
ĠTr á»Ŀi
ĠK o
ia k
el a
ĠKh an
Ch Ãºc
ĠGi an
at i
ĠE cuador
ap at
ĠSer ge
ĠSer ver
ĠDel ta
ei ro
ĠSte f
5 10
8 6
D áº¡
S evilla
V Ãłi
X e
t Ã´i
Ġl Ã¬
Ġb áº§y
Ġs áº·c
Ġd áº³ng
ĠC áº¯t
ch a
ĠM iss
ĠS Æ°Æ¡ng
ĠA sia
ĠCh al
ĠQ K
el t
Ch á»įn
Ġ9 1
ĠO ut
ĠO PEC
Äĳ ang
iv ia
um ent
ip e
te ch
ĠLu dovic
oc o
ĠMy doom
ĠVal ent
ĠGD ÄĲT
ĠAm aobi
ĠPl aza
B ush
I S
s c
s ters
Ġb Ã³i
Ġs áº¡p
Ġkh a
ph Æ°á»Ŀng
Ġr Ã¡t
Ġr Ã³t
ĠV is
ĠM ur
ĠÄĲ áº«y
ĠS uá»ĳi
ĠTr iáº¿t
ĠK Ã½
ĠG Ã³c
ĠR EE
iv a
re gas
ess andro
to ya
ĠChi evo
Ġru á»ĵi
ĠStev e
ĠThur sday
ĠVictor ia
ĠMut u
talan ta
D N
S c
c uá»Ļc
t d
u ters
y s
Ġc Ãµi
Ġv Ã²
Ġnh áº£
Ġs t
Ġs á»ī
Ġg Ãłng
Ġng áº«m
Ġd ong
Ġd Ã£i
Ġph o
Ġtá» ³
ĠH á»ķ
ĠH or
ĠH áº¯n
ĠV áº£
ĠTr áº¡i
ĠD á»«a
Ġ3 20
ĠR io
ap t
Ġ23 0
Gi ao
Ġvá»ı n
ĠAF P
ĠNA SA
Dav id
V KS
g ate
k onen
l ash
Ġv un
Ġv áº¹o
ĠT uÃ¢n
Ġqu áº»
Ġr Äĥn
ĠN LÄĲ
ĠV a
ĠB Äĥng
ĠÄĲ Äĥk
on na
il m
av i
ĠAl bum
ass word
oo th
ĠHe e
-- --
ĠFlor ida
ĠCaf u
B Ã³ng
N á»Ļi
S ai
g ado
t Ãłi
t act
v á»£
Ġ á»ī
Ġc au
Ġtr Ã³i
Ġs Æ°á»Łi
Ġng áº©n
ĠT e
ĠT oshiba
Ġr Ã¹a
ĠC ard
ĠH Q
ĠV ladimir
ĠB y
ĠM TTQ
Æ°Æ¡ u
ĠL á»¥c
Ġmá» Ľ
ĠS aw
in n
ĠCh Ã¹a
ĠPh á»ķ
at ch
tr áº»
ĠRe hh
ab ri
gi Ã¡
ĠMc C
ĠAg assi
ĠSun ni
dio xin
ĠMartin s
ĠMer cedes
ĠRaf ael
ĠHass an
ĠWith e
ĠRehh agel
C amp
C QÄĲT
H á»ĵ
J ohn
T Ãłu
b áº±ng
p ing
Ġ /
Ġt á»§y
Ġm oi
Ġqu ai
Ġgi Ã¡ng
Ġgi Ãªng
ĠC Ã´n
ĠC ost
Ġhá» ħ
Ġchá» ķ
ĠB T
ĠTh á»Ń
ĠP TTH
ĠNg uy
er e
ĠCh ai
ĠNh iÃªn
ĠG ui
ĠPh n
ĠQu áº§n
un o
Äĳ Æ¡n
Ph áº¡m
ĠPar aguay
ĠJohn son
Ġcl ick
ĠBrun ei
ĠVid eo
ascar a
G Ã²
M ess
V áº«n
c áº£
k á»ĥ
t ÃŃnh
Ġc á»Ļ
Ġl on
Ġl ip
Ġl ink
Ġh Å©
Ġd áº«u
ĠC Æ¡n
ĠH uyá»ĩn
ĠV Ã¹ng
Ġ1 12
ĠM od
âĢ ¢
ĠK az
at or
th er
ĠRe uters
ĠZ an
Ġtrá»¥ y
Ġmu on
ĠDavid s
ĠCr uz
ĠMo ore
aik konen
ĠGall as
E R
G ame
c ao
d á»±
l Æ°á»£t
m ent
v in
v is
Ġt Ã©p
Ġk Ã¬nh
Ġk Ã¨o
Ġm ascara
Ġnh áº±n
ph a
ĠT TVN
ĠV eron
ĠM ik
ĠR AM
ĠKh Æ°Æ¡ng
Th i
ĠE xpress
ĠW olf
ĠvÃ´ lÃª
ĠO le
ĠO ffice
Ġ11 5
ĠBl ack
ĠMon day
ĠMont ella
ĠVia gra
8 7
G h
P al
e an
i ola
t ec
v Ã´
Ġt Ã²i
Ġth Ãªu
Ġnh á»ĳt
Ġcá»§ i
ch uyÃªn
ĠB Ã¡t
ĠB á»įn
ĠTh á»©c
am i
ĠS ak
ĠS ven
ĠP ic
ÄĲ a
ĠI C
Th iáº¿t
il ton
á»£ n
ĠJ in
ĠY ang
ĠkÃ© n
ĠO hio
Kh Ã³
ĠHu da
te ur
ĠCl ij
Ngh e
ĠCP U
ins tein
ĠTor res
ĠBrit ney
ĠNad al
C ÄĲ
L á»±c
m Ã´n
Ġ estrogen
Ġc ent
Ġtr áº§u
Ġnh Ä©
Ġs á»§a
Ġg áºŃp
Ġqu Ä©
Ġgi áº¥m
ĠN Ãºi
ĠN ep
ĠM Æ¡
ĠM its
ĠÄĲ áº§m
ĠL Ãłng
ĠL á»ĳi
es i
el s
200 7
ic on
ĠGi Ãłu
at o
th áº¯ng
ĠO k
Ġ11 3
ĠÃ´ xy
ĠquÃ½ t
ass o
ĠVal des
ĠMon toya
Ġ197 2
enn a
ĠEl l
Ġmá»ĵ m
ĠLar ry
ĠBel arus
ĠMald ini
ster dam
L TS
Z arqawi
b Ãł
b ay
r ai
t áº¡i
t ion
u al
Ã įt
Ġt ennis
Ġc áºŃt
Ġc Ã²ng
Ġb ai
Ġn eo
Ġn Ã¡ch
Ġgi áº±ng
ĠV igo
ĠM ua
ĠL av
Ġmá» ©t
in ardi
ĠK CN
en ce
ar th
es c
ĠR au
ĠR es
ĠHo an
ad d
á»ģ u
and y
ĠAl fred
âĢ¦ âĢĿ.
ick y
Giá» ĳng
Giá» ¯a
ĠWhi te
ĠClij sters
! âĢĿ
C Ã¢y
L Æ°u
N or
R a
R egg
Z aragoza
c Ã¡ch
Ġth áº±n
Ġh e
Ġh Ã¡n
Ġnh á»ī
ĠT CT
qu el
Ġr ay
Ġr áº§y
ĠV á»įng
ĠM áº¥t
Ġmá» ³
ĠS us
ĠD ec
ÄĲ an
im er
ĠR ec
Nh á»Ŀ
tr ung
Ġ12 8
ile fu
Ġ198 1
Ġsp yware
Man chester
ĠJav ier
Sch umacher
' );
B et
C an
E sp
O L
S á»©c
T á»Ŀ
o áº¡t
Ġ Ã¡t
Ġm Ãło
Ġd iá»ħu
Ġr Ãłnh
Ġr oi
ĠN G
ĠH T
ĠH á»Ĺ
ĠB áº§u
ĠÄĲ á»īnh
á»¥ i
Ġho ay
ĠA B
ĠPh áº¥n
ĠR ad
Ch Ã¡u
ĠE ng
ĠHo t
os s
tr áºŃn
tr á»«
Ph one
ect or
ĠCan n
199 5
ĠChu áº©n
ĠFab regas
ĠBor o
ĠNA TO
ĠNob el
Äĥc xin
Regg ina
N S
g a
g áº§n
k áº»
n ay
s Ã¢n
u er
Ġch áº¯p
Ġb ung
Ġs i
Ġs áº¯n
Ġng Ãł
qu ez
Ġthá» «ng
ĠN XB
ĠB ac
ĠB apt
ĠTh ierry
ĠL áº½
ĠL aw
ĠNh iá»ĩt
ĠNh iá»ĩm
ĠD ao
em a
it an
Ġbu ffet
ĠAm sterdam
ann i
att uso
ĠAh med
ĠMah m
tain er
illip s
' ).
. "
B I
L Ã£nh
S iena
b ar
d ar
m áº¥t
s iÃªu
Ġch áº§n
Ġch iÃªng
Ġs áº£
Ġn áº¯n
ĠT á»ī
ĠC ur
ĠV P
Ġngh Ã©n
ĠTh ua
ĠP ers
ĠA p
ĠK lins
ĠCh á»¯
ĠNh Ãłn
en port
el ele
Ch áº¯c
is se
ĠW ill
Ġ10 5
Ng Æ°á»£c
ĠY ong
id o
Äĳ an
ian i
ĠAs ian
ĠSe an
ĠRos si
ĠLib ya
ĠCel ta
ĠSav iola
BA R
Ġpoly mer
ĠDis ney
enb org
Mich ael
ĠVik tor
ĠHarv ard
iak os
2 50
7 7
H S
L iá»ĩu
S ent
c kh
e ing
k amp
m Ã¡y
s á»ĳng
u ar
Ġv Äĥcxin
Ġth Ã©t
Ġl áº§y
Ġb Ã¨o
Ġm Ã¡ch
Ġs áº§u
Ġs uyá»ħn
Ġn áºŃp
Ġn áº·c
Ġd áº·t
Ġph en
Ġph Ã¨n
Ġr áºŃp
ĠV ista
ĠTh áº©m
ĠCh ic
ĠCh uyáº¿n
ĠG attuso
ÄĲ iá»ĩn
ÄĲ Ã¡p
em er
ĠR ock
áº³ m
et te
ĠThu áº§n
ĠHam burg
ath an
ĠPas teur
" )
C Æ¡n
M Ãłu
P orto
b á»ĵi
s ien
v o
Ġk Ã©t
Ġtr Ã¨o
Ġkh iáº¿t
Ġr Ã´
ĠN á»Ĺi
ĠB Ã¡i
ĠM en
ĠÄĲ áº¯k
Ġmá» ĵng
ĠK ir
ĠU l
ĠKh a
il d
ĠGi áº£ng
ĠF uj
ĠW all
ĠW oo
ud etto
Ġ197 6
ĠVir us
ĠMak elele
ĠAv iv
ĠVH TT
Mon aco
ĠBah rain
B iáº¿t
C el
C áºŃu
D OC
S ampdoria
g ie
h áºŃu
l on
l ÃŃt
m g
Ã Ģ
Ġt ie
Ġc á»Ļi
ĠÄĳ Ã¹ng
Ġnh á»īnh
Ġg Æ°á»£ng
Ġqu e
Ġr áºŃm
Ġr Ã£nh
ĠB us
ĠM etro
ĠÄĲ á»ĳc
ĠÄĲ á»ķi
ĠCh á»©c
ĠD L
Ġlo go
es day
im e
Ġngo áº·c
us tin
ĠY u
kh u
Ġin ox
ĠChá»ī nh
ail y
ĠAS EM
ĠFer reira
let ic
ĠHar ry
ĠTu esday
ĠAsh ley
bour g
At letico
Bet is
9 1
B á»©c
L á»£i
Q H
g en
m und
Ã Ĭ
Ġt áº£o
nh áº¥t
Ġk ÃŃp
Ġb Ãºp
Ġb iáº¿ng
Ġtr Ã²ng
Ġs á»¥c
ĠT á»ĭnh
ĠH áº¡n
ĠTh ÃŃch
ĠTh Ã¡m
ĠL ivorno
Ġbá»ĭ ch
ĠCh á»¯a
us al
Ġcá»Ń u
Ġnhu áº§n
ĠRe gg
ĠCol in
Ġcá»« u
ĠTG ÄĲ
Q ÄĲ
f a
n ia
p in
z o
Ġl á»Ļc
Ġb e
Ġm áºŃu
Ġnh Ã¡y
Ġn áº§n
ĠC Ãºc
ĠC omm
ch áº¥t
ĠB á»ı
ĠM ang
ĠÄĲ áº£o
á»¥ p
ĠNg á»į
eo p
ÄĲ Æ¡n
ĠR aikkonen
... ",
Ch a
is on
ĠW erder
th áº§n
Äĳ á»Ļc
ul li
ie w
ber to
ĠIs lam
avar o
ĠEd u
ĠhÃ² m
ja er
ĠRy an
ĠTelec om
ĠNep al
ĠRegg ina
8 1
9 7
F iorentina
F err
L Ã¢m
b ie
c al
Ġ áº£
Ġh áº«ng
Ġm eg
Ġng áº¡o
ĠT á»Ŀ
ĠH uyÃªn
Æ°á»Ľ u
ĠB ast
ĠM áº¡c
ĠM Å©i
ĠÄĲ ua
ĠTh Æ°a
ĠL as
ĠL Ã£o
ĠTr anh
ĠNg Å©
ĠCh en
ĠD ig
Ġ9 7
12 0
eb an
re y
ĠSh in
ĠEm erson
ĠTH CN
uc ci
ank ovic
ĠEd ward
Ġ196 8
bro tta
Ãģ o
ĠAD SL
ĠÄĳá»Ŀ m
ĠJenn ifer
tour ist
Camp uchia
h Æ¡n
l at
m ain
Ã Ĥ
ĠÄĳ iá»ģm
Ġch Ãłi
Ġch Ã²i
Ġs Ãło
Ġn á»©c
ĠT Ã´m
Ġr i
Ġx Ã¹
ĠC ast
ĠC esar
ĠV TC
ĠÄĲ au
ĠCh ris
ĠD j
ĠD al
im i
im bank
Ch Ãº
Ch Ã¢u
ĠJ ung
Ng Ãłnh
ul o
ĠMar co
ĠIs s
ĠGiá» ĳng
ow n
ĠHen man
ĠAd v
sk ina
ĠHe in
ĠVic ente
ĠNHÄĲ Ãģ
NE SCO
Chu áº©n
ĠColle ge
quel me
ĠBapt ista
? .
? âĢĿ
C ol
D R
G A
T Ã²a
T iáº¿ng
b us
b and
c am
d iá»ħn
h ad
Ġc Äĥm
ĠÄĳ áº½
Ġl iÃªu
Ġch Ãłm
Ġs á»Ļ
Ġs á»©t
Ġng Ã²
Ġng anh
Ġng Ã¡ch
Ġvá» Ľ
Ġr Ãªu
ĠN T
ĠC E
ĠC áº£i
ĠC re
ch Æ¡i
ĠB ig
ĠB ab
ĠS to
es e
ĠR eb
Ġ5 50
Th Ã¢n
il o
Ch áº¥t
ĠE VN
ol s
Ġ0 5
ĠAl pi
ĠLe eds
ĠRom an
Qu á»·
mar t
ĠDav enport
.... ....
ĠPan athinaikos
Al b
ĠAlber t
ĠNHÄĲ A
ĠZam brotta
ĠUnivers ity
ĠZan etti
S á»Ń
T AND
p etro
ĠÄĳ iá»ĥu
Ġm Ãºt
Ġnh ang
Ġn en
Ġd á»ım
Ã¢ t
ĠN an
ĠH i
ĠH Æ°á»Ľng
ch im
ĠS of
ĠS ud
ĠD V
ĠPh á»¥c
im p
ĠR áº¡ng
ĠF ox
it a
th á»§
ag en
le cht
ton i
ot e
Kh o
gi Ã¡m
ĠBo eing
ear er
ĠVin c
ĠMo z
Ġno Ã£n
ĠAll awi
ĠDy namo
ĠLip pi
ĠAch ilefu
ĠFat ah
Esp anyol
ĠKlins mann
ĠChic ago
! ).
N V
N áº¡n
T Ãłi
b á»ĩnh
h Ãłnh
l ic
t á»īnh
Ġt Ãł
Ġt áº±m
Ġh á»§
Ġtr á»ı
Ġnh áº½
Ġnh á»«
Ġn Ã´i
Ġng Æ°Æ¡i
Ġqu áº¥t
ĠH Ã¡n
ĠM áº«u
ĠÄĲ áº¥y
ĠÄĲ Ã¡m
ĠÄĲ á»©a
ĠTh Ã¬
ia z
Ġ4 20
ĠKh at
Nh áº±m
th u
ĠAn field
ĠÃģ p
ak o
ĠThu áºŃt
ĠNgh á»ģ
of i
Gi ai
ĠSh earer
ĠBr ian
ĠBl uet
199 3
ĠDel le
ĠSl ovakia
ĠMoham ed
ĠBor is
ĠGre en
ĠTech n
M iddlesbrough
N á»Ĺi
R E
b áº¥t
c á»ĳ
e on
t an
Ġth iá»ģn
Ġch Ã¡c
Ġb á»Ł
Ġs Ãłi
Ġn u
ĠC á»Ŀ
á»ĭ u
ĠV iÃªm
ĠB ak
ĠM eg
ĠS Ã¡ch
ĠS enna
Ġgiá» Ł
ĠK al
ĠD áº¡
ĠD á»ĩt
en erb
ĠG ame
ia s
Ġcon tainer
ĠR M
ĠKh áº£o
ĠF red
ĠY asser
ig uel
ĠZ en
lo ok
if lu
ĠBol ivia
ĠBag gio
Mal aga
ves tre
ĠSat ur
ĠIE LTS
ĠRodrig uez
ĠCop a
uman cia
ĠBut ton
ĠJak arta
ĠMahm oud
ĠBluet ooth
M ua
N HÄĲ
V Å©
b Ã©o
h y
h á»Ļp
l ing
s ov
t en
u es
Ġth en
Ġth áº³m
Ġb Ã¨n
Ġtr Ã¡
Ġtr iá»ģn
Ġs áº¥m
Ġg áº¯m
Ġng á»¥y
Ġd Äĥm
Ġtá» Ľ
ĠH at
ĠV ang
ĠM ike
ĠP uy
ĠK n
ĠCh Æ¡i
ĠCh im
ĠD áº«u
Ġbá» ī
Ġlo ay
ĠR em
ĠO x
Ph im
ah ce
ĠTH A
ĠMy skina
ĠSant ini
ĠGS M
lad esh
Bol ogna
ĠDec ember
C áº£m
C agliari
J ordan
T R
W eb
c ine
c ument
x x
Ã ļ
Ġth ong
Ġl anh
Ġch áº§u
Ġk y
Ġnh Ãłn
Ġs áº©y
Ġs Ã³i
Ġg o
Ġd áº¡t
ĠM áº¯t
ĠÄĲ á»įc
ĠTh Ã¬n
ĠTr o
âĢ ĵ
ĠCh á»ĳng
ĠJ ohan
Äĳ Æ°a
ak is
ov o
uch ma
ĠRi quelme
ĠTam iflu
ĠLin k
ĠSi em
ĠSant ander
cel and
ĠÆ¯ u
akh stan
ĠBerg kamp
ĠVit amin
TG T
apat toni
ĠSaw aco
ĠPhn om
C arl
G er
G ian
K D
M C
T Ãªn
V A
m Ãł
m aster
Ġc áº±m
Ġl Ã¨o
Ġh áº¥t
Ġs iáº¿t
Ġg Äĥng
Ġph Ã¡ch
Ġph á»Ľt
Ġgi en
Ġgi Äĥng
ĠH á»©a
ĠP avel
ĠNh Ã¬
ĠD áº£i
ĠD us
ÄĲ B
Th áº¥y
Ch á»¯a
ĠQu i
ĠE instein
Äĳ áº¡o
ĠAr t
ik o
ber t
ĠMc Laren
ĠOl iver
ĠDa e
ĠTay lor
ĠPow er
ĠAh mad
ĠGen eva
ĠPe nh
enerb ahce
ĠSatur day
C LB
D P
I E
J uan
P r
S á»ĳng
S uá»ĳt
T Ã´m
T á»«ng
U S
U s
r as
t Ã¬nh
Ġ Ġ
Ġv Ã£ng
Ġl Ãµm
Ġnh áº¥c
Ġs Æ°a
Ġn ick
Ġg ram
ph Ã³
ĠT Æ°á»£ng
ĠB N
ĠB est
ĠA u
ĠD áº§n
ĠD ra
ĠG ill
ar m
ĠR Æ°á»£u
ĠGi áº£m
th á»±c
Äĳ Ã³ng
Ġp rog
ell y
Ġf lash
ĠBr es
199 4
ĠSil vestre
ĠNor wich
oran esi
Mc Laren
ĠSup er
M á»Ł
M art
N áº±m
b áº¡n
c l
e ed
ĠÄĳ iáº¿c
Ġh áº¿n
Ġh Æ°Æ¡u
Ġn á»ĩ
ph an
ĠÄĲ á»Ŀi
in ess
Ġho p
ĠK esley
ĠD ream
ar ch
ar io
al k
Ġká» ģn
Th á»ĳng
Ch uyÃªn
ĠX i
Ġ9 4
Ġ20 20
Äĳ Ã¡
ov anni
á»ģ nh
Ġe Bay
oft ware
Ġáº¤ t
ĠTH SCT
ow er
ĠViet combank
ĠBol ogna
ĠThur am
eneg ro
Ġchá»ķ i
Mess ina
' .
B Ã¡nh
C am
K iá»ĥu
d Ã¹
n Æ¡i
n ik
Ń a
Ġt á»Ļt
Ġt áº£n
Ġt á»§i
Ġth Ã¢u
Ġl iÃªng
Ġh iÃªn
Ġg Ãło
ĠT er
Ġr Ã¬nh
Ġr Ã¡ng
Ġr Ã¬a
ĠC ong
ĠC áº·p
ĠH it
ĠP S
ĠP DF
ĠNg á»ĵi
... âĢĿ
Th ua
ic ester
Ġ10 8
th a
Ph ÃŃa
Ġdi en
se y
ab ad
az e
az on
ĠEm p
ĠGiá» ¯
Ġo Ã¡n
ĠTo áº£n
ĠPC CC
Ġhá»Ł i
ĠDe f
ĠCS KA
ĠSte phen
ĠBang ladesh
iss an
ĠSaigon tourist
ĠValent ine
D VD
H á»ĵng
I ran
K á»·
R enault
V ua
b an
b áº£o
d u
d an
d Æ°á»Ľi
h á»£p
s áº½
v i
Ġc ot
Ġh an
Ġh áº¥u
Ġs ite
Ġchá» «
ĠM oy
ĠTh ao
ĠP en
ĠK uchma
ĠG mail
ĠG Hz
ĠU NESCO
il i
Tr iá»ĩu
ol od
SD ÄĲ
ton e
net Sent
ry s
ĠMai l
ort mund
ĠmÃª nh
all ad
uk a
Ġ197 4
ĠCam oranesi
ĠSA M
iev a
ĠVir gin
ĠFir ef
ement ieva
ĠPT SC
ĠCann avaro
Ferr ari
sov petro
ĠPuy ol
3 50
B Ã¡n
C A
M P
M ong
a q
c tr
h á»įc
m in
r áº¥t
s u
w at
Ġ [
Ġ Ã¡ch
Ġ Ãºp
Ġ enz
Ġt ÃŃt
Ġb it
Ġkh Ã¢m
Ġph áº¥t
Ġvá» «ng
Ġqu Ã¡ng
Ġqu á»³
ch á»ĵng
ĠB ack
ĠL Ãªn
Ġmá» Ńa
ĠS ac
ĠG V
Ġdo ping
Ġy ou
or i
as c
th ua
ag er
Ġdu á»Ĺi
Ġ12 5
ob er
ab le
Ġf ax
ĠWor d
ĠBra d
uk i
ĠAs s
ĠSc ott
erb ai
ĠEs sien
" ;
B ilbao
K áº»
b ridge
c er
t hi
Ġ %
Ġ amin
nh Æ°ng
Ġm á»ĭt
Ġs olo
Ġs Ã©c
Ġng Ã³i
Ġd áº¥n
ĠV á»¹
ĠP ep
ĠTr an
ĠTr apattoni
ĠK an
ĠD ementieva
ĠG ÄĲ
ĠQ uáº¥t
Ġquy á»ĩn
or th
Th áºŃm
Ġ200 9
Tr Æ°a
Ch uyáº¿n
Ch rist
ĠJ oa
th am
Ġdi oxin
ap ro
ap ixel
ir e
ist e
ĠMad onna
ĠCol l
ley ton
Con tact
TM N
ĠNet work
uj ah
rich ello
Os asuna
Willi ams
Is rael
ĠChai man
Contact Us
L Æ°Æ¡ng
M á»ĳi
S áº¯p
V iÃªm
m al
p t
r it
t Ã¡c
Ġth on
Ġh Ã²ng
Ġnh Ã³c
Ġs Ãº
Ġs á»¡
Ġx oÃłi
ĠH áº¿t
ĠV ien
ch ung
ĠL Ã¡ng
ĠS ÄĲ
ĠP rix
ĠK iá»ĥu
ĠK ore
ĠK enn
ĠG un
Ġkho Ã©t
Ġvá»¥ t
Ġ6 50
at edo
ĠE st
Ġca fe
Ġngu Ã´i
ov sky
est o
Ġ25 6
ĠRe g
all ah
Qu Ã¡n
Ġ197 7
Ġsex y
Ġmen u
uz ia
ĠFab io
ĠTomas son
ĠOut look
Alb acete
ĠBres cia
erbai jan
K á»³
L S
S ociedad
T Äĥng
b á»ı
c ess
j in
t u
w is
w atra
Ġt Ã³t
Ġth Ã¡n
Ġch Ã´ng
Ġb Ã¹i
Ġm Æ°á»£t
Ġnh Ã´
Ġs áº£nh
Ġn áº¥c
Ġg Ãºt
Ġph ot
ĠvÃł n
qu Ã¡
ĠN áº¥u
Ġx Ãºp
ĠC isco
ĠH ing
ĠH all
ĠÄĳÃ£ ng
ĠV á»ĳn
ĠB ir
ĠM ol
ĠL ion
am ine
ĠS XH
ĠP itt
ĠNg Ã´n
ĠK S
ĠCh ÃŃn
em lin
im o
ĠR ay
ĠKh uyáº¿n
Th Æ°Æ¡ng
ĠF ri
is try
ĠJ orge
th á»©
Ġngu oi
ina watra
ĠMar quez
ĠLat in
ĠTMN CSG
My anmar
ĠSerge i
ĠBac olod
Ġenz y
H C
O ffice
u le
v Ãło
Ġ up
Ġl Ãºt
Ġl Æ°Æ¡n
Ġm áº¥u
Ġm áº©n
Ġn Ã²ng
Ġg en
ĠT á»ĳc
ĠT iá»ĩp
Ġqu Äĥng
Ġx á»ĭn
ĠV u
ch áº¿t
ĠM et
á»¥ t
ĠL á»Ľp
ĠL Äĥk
ĠS N
ĠK ÄĲT
ĠD Ã¢u
ĠD HA
ĠG e
ĠG old
es k
or ca
as i
us ton
at in
Ġ10 1
Ġ8 50
ter n
th áº¿
th iáº¿u
id eo
ev er
Ġp assword
Ġ27 0
ĠCol um
Ġ197 8
198 6
ĠCP A
bo ard
ĠFl ash
oven ia
Ġcal o
ĠKaz akhstan
4 50
B á»Łi
D Å©ng
R o
V irus
b Ã¡nh
l áº¯c
y ad
Ġc ort
ĠÄĳ á»ĳm
Ġv áº¡
Ġtr Æ¡
Ġnh ieu
Ġs áº£y
Ġn á»įc
Ġg luc
ĠV á»ı
ĠP oly
ĠD H
em e
âĢĿ )
Th áº¥t
il es
Ch iev
ro w
ĠQu Ãª
at ar
ĠX a
ĠX u
om e
ĠO ne
Ġw ushu
ich e
Ġp ixel
all a
ĠViet sovpetro
ĠAnd er
ĠSp ears
ĠDel hi
ĠBec ks
ĠGr am
Ġ196 6
ĠVC B
ĠWal ter
azz i
ĠJe ff
ĠEn ter
Thu á»µ
ĠKiatis ak
ĠSund ay
ĠEric sson
Ġsho ck
Nor wich
Chiev o
B á»ĳn
I TC
L áº¥y
M Ã´i
M all
N IC
T oyota
j ad
m en
t á»ķ
y Ãªu
Ġ el
Ġc áº±n
ĠÄĳ áº¥ng
Ġtr áº¥u
Ġtr á»Ľn
Ãª t
ph Ã²ng
ĠT em
ĠH wang
ĠB lo
ĠP att
ĠTr ans
ĠTr ulli
ĠCh Ã¡y
Ġtiáº¿ u
ĠKh al
as k
ro ll
th Ã´ng
th á»ĭ
un e
Ġp iano
ĠBar richello
ĠSh inawatra
Qu ang
Ġ80 2
ĠHen in
ib an
Ġj udo
ĠBos ton
ĠFall ujah
Ġmic ro
aze era
Ġcot ton
ĠFiref ox
! .
D Æ°Æ¡ng
G o
O lymp
P er
V I
c Äĥng
i os
l ant
u ary
y an
Ġ áº¿
Ġ Ã³i
Ġl áº³ng
Ġl Æ°á»£m
Ġb asa
Ġm eth
Ġtr Æ°á»Ľng
Ġr Ãª
ĠC ad
ĠL is
ĠTr ai
al d
ĠR ica
as y
ic s
ag uar
av er
man tec
ep t
gi áº£m
ien ce
bur go
Ġ197 3
198 4
ĠJose ph
Lu is
ĠRobb ie
ĠGh rai
ĠJan uary
ĠAlb acete
Mall orca
ĠGhrai b
A b
K á»¹
S ant
T á»±
V C
l Ãªn
v ietnam
Æ ł
Ġt e
Ġt anh
Ġc Ãºt
Ġb áº§m
Ġtr áº§y
Ġn á»±c
Ġn Ãºm
Ġkh Ã©t
Ġg á»Ŀ
Ġd áº»
qu a
Ġr Ã¬
Ġr áº§u
ĠB inh
ĠM á»Ļng
ĠL iá»ħu
ĠS and
Ġho Ã¡n
ĠK le
ĠCh uyá»ĥn
ĠG I
ar n
Ġdá»¥ m
ĠR oh
ĠR ud
ĠI TC
Th Æ°á»£ng
at hi
ĠF in
is ia
Ġ10 3
ĠSau di
ec ca
Ġf ont
ĠSt ankovic
ĠHen rik
Ġsá»¥ n
ett s
ĠVai o
yon o
A g
C Ãłng
D Ã²ng
S Æ¡n
T E
m ond
s áº¿p
z h
ng oÃłi
Ġch an
Ġch Ãły
Ġng á»Ľ
Ġph á»Ļng
Ġgi áº¿m
ĠN á»ķi
ĠB utt
ĠM Æ°á»Ŀng
ĠÄĲ en
ĠÄĲ Ã¢u
ĠL en
am o
ĠS Ã³ng
ĠA k
ĠTr Ã²
ĠD aily
ĠG az
Ġlo i
âĢĿ ?
Ġ5 12
ĠI t
Th iÃªn
ĠF eb
ĠW ang
Ph ong
ul a
ew ell
ĠmÃ´ tÃ´
ber ia
Ġ197 1
ĠCr u
ĠNor th
ĠJul ien
ĠMass ach
ĠCM ND
And re
ĠHT X
B BC
G eor
L ivorno
c an
m it
n ect
v ice
Ġc Ãłn
Ġh Ã¢n
Ġh anh
Ġkh áº¿
Ġg anh
ph Ã¡t
ĠT áº¡p
Ġgi áº·c
Ġx ÃŃt
ĠC u
ĠC Æ°
ĠC om
ĠH un
ĠB au
ĠM and
ang e
ĠL ump
Ġ2 10
ĠS ur
ĠS DÄĲ
ĠS MS
ĠP ap
in dows
ĠK id
á»Ń ng
ĠCh ina
ĠNh á»ı
ĠD r
Ġbá» £
ar ra
el son
ĠI a
Th Æ°á»Ŀng
Ch á»©ng
ĠW right
ra w
Ġ19 0
ĠThu á»Ļt
Kh áº£
Ġá» ¨ng
ĠAr j
ĠDo Ã£n
Sau ber
ĠBar th
gi Ãºp
', '
Ġ196 7
ĠCor p
ĠPlay er
ĠEle ctr
ĠBM W
ĠLink ton
Carl os
. âĢĿ
C Ãł
J aguar
T I
U D
b iáº¿n
b reak
g ic
g á»įi
o om
s ch
v á»«a
Ġ áº¯t
Ġc á»įng
Ġth uyÃªn
Ġh Ã¨n
Ġch Ã¹i
Ġb on
Ġn ai
Ġn et
Ġng Ã³t
Ġng á»ķn
ĠT aw
qu an
ĠN ak
Ġx á»Ľi
ĠC isse
Ġhá» Ľt
ĠM Ã´
ĠM Æ°u
ĠL ille
ĠA N
ĠTr áº¡ch
ĠNg Ã£
ĠK am
ĠD iá»ĩn
ĠR ah
or st
ĠKh ÃŃ
Ġbá»Ļ n
ro v
ĠHo uston
ag n
Ġtrá»£ n
tr á»ĭ
Ġ0 6
ĠLu Ã´n
ou k
ĠSh er
ne gie
ĠCar negie
Ġ26 0
ĠBr emer
ĠSer ena
op y
ĠAm b
ĠSp ort
ĠSp arta
ĠGr uzia
ĠKr emlin
omm el
ĠRang ers
ĠIss awa
B á»ı
C ao
E x
Q K
Y ushchenko
c Ã¢y
s burg
Ġ á»ķi
Ġ áº¯p
Ġb eta
Ġm iá»ĩn
Ġtr au
Ġs áº¡c
Ġkh ay
Ġd áº«m
ĠT iáº¿c
ĠV Æ°á»£t
ĠM ell
ĠL iá»ĩt
ĠS ay
ĠS á»Ńu
Ġlá» µ
ĠA G
Th á»ĭt
Ġta ekwondo
it or
Ġto Ã¡i
ĠAn na
ac ch
tr eo
Ph an
áºµ m
Ġnhá»Ľ t
ĠMar at
ĠMich el
ĠÄĲK DT
ĠMark eting
ĠTour e
akh tar
ĠLump ur
C á»ĳ
H Ã²a
R i
X Ã¢y
c in
d ie
t iáº¿p
t áº¹c
v á»ģ
Ġc Æ°á»¡i
Ġv Æ°á»£ng
Ġch áº¯t
Ġb ÃŃt
Ġm Ã©o
Ġtr á»ĩt
Ġng á»«
Ġd au
ĠT ao
ĠT ev
Ġr Ã¢m
ĠN SND
ĠN uno
Ġhá» ±c
Ġchá» ±c
ĠB áº¿
on k
ĠS um
Ġlá» ĵi
ĠA TP
ĠA OL
ĠK ofi
ĠCh e
ĠG as
ĠR acing
Tr Æ°Æ¡ng
ĠW B
ĠO ct
ex e
eg al
ĠGiá» įng
Ngh á»ĭ
ĠTim e
Ġof f
ĠSil v
ĠAndre a
enz o
ĠRam allah
ĠRodrig ues
oca at
bu Ã´n
ĠTechn olog
ĠMassach us
6 10
? ).
H oÃłn
H á»£p
L Æ°á»£ng
V iet
b in
c Ã¡n
p rom
x a
ĠÄĳ ong
nh áºŃn
Ġl Ã¡c
Ġh áº¯c
Ġn ude
ĠT TC
Ġr es
ĠN áº±m
ĠC le
ai g
ĠM iguel
ĠL Å©
am an
au x
ĠTr ay
ĠTr avel
ĠCh Æ°
ia h
Ch á»£
ĠGi ovanni
ter o
ot ter
ĠBr u
ĠThÆ¡ m
Ġcu ar
ĠAg u
ĠEx imbank
res mo
ĠOl imp
Ġxá»ī n
Ġxá»ī u
ĠJon athan
ĠMont enegro
ĠAbd ullah
bour ne
9 6
R Ãµ
S te
k or
n Æ°á»Ľc
v Ã©
Ġv ol
Ġnh áº¥m
Ġn ong
Ġn ano
Ġn eu
Ġph an
Ġph oto
Ġqu Ã¢y
ĠC B
Ã² e
ĠB ia
ĠB á»¯a
ĠM ed
ĠÄĲ Æ°a
ĠTh Ã´i
ĠL leyton
Ġlá» £p
ĠA le
ĠD en
en sen
ĠG áº¡o
ÄĲ á»©ng
im ar
âĢĿ ;
ĠU S
ĠI celand
Th áº£o
il son
ra v
ĠJ ol
Ġchu á»ĵn
os a
Äĳ á»ģu
á»ĩ u
ĠHu gh
Ġw on
re en
ĠMar cel
ĠLÄĲ LÄĲ
Ġ28 0
ĠCar lo
ĠBr on
Ġxo ong
eg as
ĠPhilip s
Ġsá»© a
Ġo áº£i
ĠMau resmo
ĠAlex and
ĠLev ante
Ġvac cine
ĠGh ana
ĠdÃ¬ u
ĠLuxem burgo
ĠEmp oli
D Æ°á»Ŀng
H áº¡nh
M áº¥t
V Å©ng
b ach
c Ã¡
c áº§u
d en
f er
g ue
k ins
l Æ°á»£ng
p ro
r il
t ay
Ġ á»ķng
á» ¨ng
Ġt Æ¡i
Ġc áº§y
Ġl Ã³
Ġb áºŃy
Ġb iet
Ġs Ã¹i
Ġs earch
Ġkh ac
Ġg Ã¡o
ĠN Ãło
ĠH iá»ĥu
ch á»£
ĠB h
Ġngh áº¹n
ĠL AF
ĠP in
ĠK or
ĠD io
ĠG ard
ĠPh áº£
ar in
al f
ad i
Ġ0 2
Kh Ã¡m
Ġ18 1
19 75
ĠAl ger
ĠCar roll
ĠBr ug
ĠÄĲK ÄĲT
giá» ¯a
ĠWeb site
ĠFor lan
ĠAmer ican
ĠFel ix
ru ary
ĠBast en
ĠOx ford
ĠHing is
ĠFeb ruary
ĠTev ez
Ġcuar Æ¡
A v
V ic
V Ä©nh
b ps
f or
n á»¯
Ġ ad
Ġm on
Ġnh eo
Ġnh Ãµm
Ġn ÃŃn
ĠT uyá»ĩt
Ġgi Ã´ng
ĠB C
ĠL Ã´
ĠS anh
ĠS ab
ĠP at
ĠD áº«n
en i
ĠG uti
ĠPh áº«u
ĠâĢ ¦
el b
Ġngo ai
ĠnghÄ© nh
ĠE a
ol id
ĠF i
ĠF is
ĠF ort
ĠJ es
it amin
ac y
ĠÄĲH DL
az er
ĠRob inson
ĠFran co
ĠBer bat
ĠMat t
van ia
ĠMos k
ĠKu ala
ĠAz erbaijan
ĠNic olas
ĠAdv ocaat
ĠAu to
ĠColl ina
ĠBarth ez
ĠMassachus etts
ĠBerbat ov
B áº¿n
b áº£n
b áº£ng
s áº£n
t áº¥t
x uáº¥t
Ġc á»Ļm
Ġv áº¿
Ġth Ã³t
Ġch áº¡c
Ġnh áº§y
Ġs á»¯ng
Ġng á»Ńi
Ġd áº¥y
Ġph áºŃt
ĠT s
ĠT á»©c
ĠT áº¡m
qu á»ĳc
ĠV Ä©
ĠB rus
ĠB ommel
ĠM S
ĠM Ãłn
ĠL áº¡ch
ĠK it
ĠG om
ĠPh uong
ÄĲ Æ°a
al ay
ĠQu á»Ľi
ĠF ile
ĠJ ar
Ġca ch
th anh
th Æ°Æ¡ng
ed y
ing er
ĠZ in
Ġ13 5
ep p
ĠSy l
ĠBH XH
ĠSen egal
ĠJul io
ĠVo eller
ĠVÄĲ QG
ĠDub ai
ĠPers ie
ĠFi ore
A m
B á»ĳ
B oro
E G
G T
H Æ°Æ¡ng
J ose
N iá»ģm
T ai
c at
h á»Ļi
l áº¥y
p et
t inh
Ġ ion
ng oáº¡i
Ġnh am
Ġn áº¡t
Ġg áº¡c
ph i
ĠN ÄĲ
ĠH ÄĲT
ĠV egas
ĠB iá»ĩn
ĠÄĲ á»ĵn
ĠTh áºŃp
ĠL á»©c
ĠL ove
ĠK as
ĠK ap
ĠK HA
ĠK elly
ĠD ay
ÄĲ á»ĵ
ĠR enault
Ġtu á»·
... ;
ĠW ave
Ng hi
Äĳ á»©ng
tr on
av ier
ĠZ ag
Ġf ol
ah l
og o
ĠAS IA
ock et
ĠOs ama
Ġrá»¥ i
ĠSim on
Ġax ÃŃt
ĠChrist oph
ĠHan oi
ĠCen ter
Ġ(! ).
ĠTun isia
Ġom ega
ĠTro jan
ĠDus it
ĠVien na
ĠGaz prom
? âĢĿ,
B iáº¿n
B á»ī
G áº·p
H iá»ĩu
L TT
R W
b le
f an
n á»ķi
s yl
w orth
Ġ uyá»ĥn
Ġk Ã¬
Ġnh Ã¡o
Ġng an
Ġd áº¿
Ġd á»Ļt
Ġd el
Ġph one
ĠT iáº¿t
ĠT en
ĠT Æ¯
Ġr á»įi
Ġthá» Ľt
Ġx á»ĩ
Ġx ui
Ġhá» «ng
ĠP is
ĠK i
ĠK os
ĠK ate
ĠD ortmund
Ġbá» Ŀi
ĠG Ã¡i
ĠG or
ĠPh il
al og
ĠKh mer
as onic
ĠF ern
ĠF BI
ĠX Ã¡c
ĠY elt
th uá»ĳc
ĠLan d
av an
ilan i
ĠSt an
og a
ĠCar ol
ud ho
ech n
ath er
Ġo estrogen
ĠEd gar
ĠSal gado
ĠHel gu
ĠSat o
Ġbl ock
Ġhá»Ŀ n
Can ada
ĠMosk va
ĠYelt sin
1 000
C SC
D D
H ay
H áº±ng
N N
O T
S he
k áº¿t
m áº¹
á» ¦y
Ġt Ãºm
Ġc áº¡p
Ġv áº©y
Ġch uá»ĳt
Ġm iáº¿u
Ġnh Ã£o
Ġng ao
Ġd Æ¡i
ĠH ans
ĠB ai
ĠB BT
ĠTh ong
ĠL Ã²ng
ĠS eb
ĠS uz
ĠP LO
ĠA BC
ÄĲ Æ°Æ¡ng
Ġlo gic
ĠR á»ĵng
ĠR LC
Ch ia
ic al
at ter
ĠF ed
Ġ19 45
om bank
Äĳ áº¿n
ĠAl essandro
Ġp ar
Ġáº ¨
ĠPal m
iz e
ĠSp ir
ĠVF D
Ġo z
yl an
ĠSl ovenia
ĠCro uch
ĠAD B
ĠOp era
Ġsc udetto
ric io
izar ro
ĠTal iban
ĠPao lo
ĠNov ember
ĠNan cy
ĠJoa quin
ĠColum bia
ĠHelgu era
E l
G etafe
K iá»ĥm
P ost
R C
b it
g y
y stem
Ġt áº¡c
ĠÄ ĥ
Ġh Ã³t
Ġch áº»
Ġb Ã´
Ġtr Ãłm
Ġs á»ĩ
ĠC á»Ń
ĠB uch
ĠL it
ĠL áº¯k
ĠS el
ĠTr in
ĠK C
ĠR ol
et er
ĠGi Ã³
hi d
Kh ai
ill o
ain k
ĠSh ah
ros t
ĠCam bridge
ĠAm azon
ĠAM Subject
Ġrock et
ĠAir bus
ĠJul ia
ĠRu ud
ĠSon ia
usal em
Ġmeg apixel
ĠAmb ros
ĠAlger ia
elb aink
udho yono
J azeera
P V
P an
R os
b uk
k ar
l au
s an
t Ã¢m
v áºŃt
Ġt Ã£
Ġv áº¡t
Ġn om
Ġn Ã¡u
Ġg ao
Ġg Ãłi
Ġg Ã¡n
ph im
Ġthá» ĵ
Ġx uyáº¿n
ch u
ch ÃŃnh
ĠB es
ĠL Ãłi
ĠP izarro
ĠNg á»¯
ĠNh Ã£
ĠD ev
ĠD á»±a
ĠD ylan
ĠG á»įi
ÄĲ K
ÄĲ au
at ions
is o
is lav
ĠJ ong
ĠX I
ĠY ak
ed ine
ui gi
Ph Ã¢n
ir in
ĠDo ha
ĠLe wis
ĠLu áºŃn
Ġf orm
af ia
ĠCar ac
ĠMan uel
199 0
ĠTN XP
ĠSy mantec
ĠOlymp iakos
ĠGl azer
ĠSI M
ĠComp aq
Lev erkusen
ĠOliv eira
ĠSak da
ĠMoz illa
ĠKhat oco
Ġprog ester
Ġphot oc
ĠOlimp ico
ĠBrus s
4 10
L T
L yon
N Æ¡i
P S
P ro
U NG
V TV
V ietnam
c Æ°á»Ŀi
n Ã³i
o C
r ate
z he
Ġc uá»ĳc
Ġn il
Ġph Ã´ng
ĠT oi
ĠC orn
ĠV ui
ĠV SP
ĠL Ãłn
ĠL á»Ńa
ĠL ife
Ġbá»ĭ a
ĠD ennis
ÄĲ ang
Ch ung
ĠGi Ãºp
ĠGi áº¥c
Ng uyen
ĠLan ce
ill ermo
ok o
ff e
Ho áº¡t
ĠNa uy
ĠAth letic
ĠJer usalem
ĠKur d
ĠPenn syl
ĠSky pe
iste as
8 10
B Ã¹i
B TC
C Ã¡nh
M inardi
N a
O K
b ot
l og
r ip
Ġv Ã£i
Ġh ec
Ġnh Ãºt
Ġn á»ĩn
Ġg ui
Ġng Æ°á»£ng
Ġph Ãło
Ġqu áº§ng
Ġr Ã¹ng
ĠN á»¥
ĠC it
ch Ãº
ch ez
ĠB R
ĠTh oáº¡i
ĠL á»Ļ
on to
ĠK ey
ĠCh ap
ĠNh iÃªu
ĠR ap
ĠU ll
or s
Ch Ã¢n
Ch Æ¡i
ra de
ĠX avi
Ġbu á»ĵm
th en
th ony
ur ity
ĠO b
Äĳ á»Ļng
ĠThu á»³
ine jad
oc u
ĠMan iche
our t
ĠDu áº©n
ĠPet r
Lev ante
__ __
ĠLaw ren
% -
A talanta
C ity
M D
S l
U ng
a e
h ot
m ore
o it
t áº§m
v Ãłng
Ġt iá»ĩt
Ġl Ã©p
Ġch Ã¹ng
Ġb Ã¡ng
Ġm á»ĳ
Ġm ag
Ġn ua
ĠT Ã³m
Æ¡ c
Ġqu áº·ng
Ġr á»ĵ
ĠN al
ĠN ick
ĠC á»±c
ĠB j
ĠB ali
ĠS á»¯a
ĠP H
ĠP and
ĠK ov
ĠD un
ĠG ala
ar est
al es
ĠKh iáº¿t
il et
ĠF ax
ĠF ED
ĠHo ang
id ad
Ġcá»ĳ m
le i
do cument
ĠAl aves
pr il
lo w
ri y
ĠCan nes
ĠPr in
ĠAd el
ĠSe arch
ĠLy n
Ġhá»¥ i
198 3
Ġ195 8
ĠFir e
ĠStef ano
ĠSud an
rys tal
apro dex
mal at
ĠLion el
ĠSilv io
ĠPennsyl vania
ĠUll rich
? ...
C o
L áº¡i
M ay
N C
O ne
P G
P hi
R áº¡ng
S iÃªu
U Y
U krain
p a
p son
r et
t ai
y ah
Ġ 00
ĠÄĳ Ã¡t
nh iá»ģu
Ġl Æ°
Ġl á»ĳ
Ġl á»±
Ġh Ãºng
Ġch uyen
Ġk i
Ġm Ãłnh
Ġm et
Ġs am
Ġd r
Ġph iá»ĩn
ĠT á»Ļi
Ġgi áº«m
ĠN ur
Ġx á»ı
ĠC áº¥m
ĠH ilton
Ġcho Ãłng
ch en
ch áº³ng
ĠM ain
ĠTh iá»ĩp
ĠTh uyáº¿t
inh a
ĠL ab
am ond
ĠS ir
au a
ĠA imar
ĠNh o
ar ia
Th omas
il ian
ĠE C
ĠF ish
Nh u
Ġtá»ĭ t
Kh Ã¡n
Kh oa
ul os
ĠNgh Ä©
ĠBar b
ez man
po ulos
ĠPar malat
ĠPM Subject
Ġu á»ķng
ĠbÃ¬ u
ĠEd m
ĠEd ition
yl on
ĠHar ris
IC O
ĠMB A
Ġur Ãª
ĠSar ay
ĠTu á»ĩ
ĠMel ia
ĠMel bourne
ĠDell as
ĠBas el
ĠMu eller
ĠIslam abad
ĠSiem ens
Ġná»ĩ m
Ri edl
Ġphotoc opy
ĠBruss els
0 11
E d
R onal
S O
V an
l Ãºc
n áº±m
n ie
p en
s á»ķ
w ell
áº ©ng
ng Ã´i
Ġt Ã½
Ġt Ã©t
Ġc Ã¢m
Ġth áº¹n
Ġl ÃŃ
Ġl Äĥm
Ġl iáº¿ng
Ġh inh
Ġk iáº¿p
Ġb áº§n
Ġb uá»ĳt
Ġb reak
Ġnh ÃŃch
Ġg á»ĵng
Ġg ames
ph ong
ĠH ang
ĠM Ã¢y
ĠM end
ĠS k
ĠS iri
au d
ĠTr á»£
ĠCh ang
en berg
Ch áº¿
at on
at ive
ĠW on
ĠW ol
ĠO m
tr Ãº
ing ton
ĠZ eb
ĠvÃ© n
ĠCan on
ek ong
198 9
ĠBu á»ĵn
ĠVina Phone
ĠSG D
ĠPra gue
ĠMill er
ĠHein ze
ĠCong o
ĠVirgin ia
ĠGram my
ĠLis bon
ĠASIA D
Ronal do
A lex
B ao
C L
L CD
N á»ģn
O l
P A
U B
g hi
h ttp
k as
ļ t
áº ł
Ġh áº±n
Ġch á»Ļi
Ġn áº»o
Ġg Äĥm
Ġng áº©m
Ġng á»ĳn
Ġd Ä©a
ph Ãª
ĠT F
ĠT Ãł
Ġvá» ±
Ġr á»©t
Ġx iáº¿t
ĠM Æ°a
ĠM ey
ĠÄĲ oáº¡n
ĠS w
ĠS oftware
ĠCh echn
ĠG a
ÄĲ áº£ng
ĠQ atar
ĠR anh
ĠGi Ã¡c
ĠF M
ĠF ig
ra d
Ġ19 50
Ġphá»¥ ng
Ġmá»į ng
os ph
od y
ab eth
ĠSh e
ĠSer vice
ti en
ĠSan ta
ico id
Ġhá»ķ i
ĠEl vis
Ġ196 5
IA EA
ĠSte aua
ĠRos s
ĠDom in
ĠAbd ul
ĠNic ole
ĠCen tr
Ġthá»ı m
Ġsil icon
ĠSoph os
ĠEdward s
ĠMoy a
Ġenzy me
Ġhec ta
ĠChechn ya
: -
H uy
M Ãłn
P etro
V ÃŃ
a ja
d Ãłnh
d ro
i que
k en
o is
o und
v iÃªn
Ġ Ã¬
Ġ op
á» Ĳ
Ġt áº¯n
Ġc oc
ĠÄĳ Ãºt
nh áº£y
Ġl Ã³ng
Ġb Ã¹a
Ġtr en
Ġtr á»Ľ
Ġtr Ã³c
Ġnh á»£t
Ġg áº·m
Ġng Ã¹ng
Ġng Ãºt
Ġd áº¥p
Ġph Ã¬nh
ĠT ob
ĠN EC
Ġx á»Ł
ĠH Ã¡t
ĠV el
ch Ãºng
ch uyá»ĥn
ĠB á»Ļt
ĠP SG
Ġgiá» Ļ
Ġho áº¯c
er al
ĠD er
en do
ĠG abri
ĠÄĳá»ģ m
Ġtu Ã´n
âĢĿ -
ĠI T
ĠI ng
Th áº§y
ro tta
Ġto áº¡
ĠY ou
ĠY udhoyono
Äĳ Ã´i
ot to
Ġ0 3
Ġláº½ o
ĠInter pol
Ġthá»Ń a
ĠAnd rade
und ai
Ġo anh
AC O
ĠSad r
ĠAng kor
ĠRos enborg
Ġrá»¥ t
ĠBro ok
ĠHass elbaink
Br emen
ĠInd ra
ĠMax im
ĠIM F
ĠQue ens
Pal ermo
ĠComm un
ĠDig ital
She a
Ġáº¨ n
zhe imer
A jax
C ur
C rist
F ernando
H en
P aul
T el
T Ã¹y
l iÃªn
m á»Ľi
r ie
t Ã¹y
v ÃŃ
ng hi
Ġl im
Ġh Ã©o
Ġk ien
Ġb áº£
Ġb ox
Ġm Ãºc
Ġm uá»ĳng
Ġs h
Ġkh Æ°á»Ľc
Ġkh ÃŃt
Ġng uyá»ģn
Ġd Æ¡
Ġd á»ģn
ĠC Ã¹
ĠC uá»ĳn
ĠC ocu
ĠH av
Ġchá» ĵn
ĠB ent
ĠM ach
ĠÄĲ á»£t
on s
ĠS ah
ĠS CO
ĠA pril
ĠK od
ĠD DR
Ġkho áº¯n
ĠI d
ĠI v
ĠÃ Ĭ
ĠW ir
ĠW TA
ĠX ung
ĠdÃ¹ i
ur y
Ph a
do w
ov ski
ho a
ĠAl zheimer
ard s
ĠHai ti
iver t
ĠBa ch
ĠMic ro
ĠMic coli
ĠSan chez
ĠEU RO
ĠCam ry
iz abeth
lor ia
ĠGo od
let t
Ġ196 2
198 7
ĠPier re
ĠVen us
ĠÃĶ n
St ation
ĠLau ren
ĠKT X
ĠSystem s
ĠAhmad inejad
ĠSaray oot
ĠZeb ina
B áº§u
D a
R ay
T á»ĳt
b oy
c áº£m
m et
v Ã¹ng
v Ã²ng
z an
Ġ Ã¹
Ġ áº£m
Ġt uá»Ļc
Ġv Ãª
Ġb Ãłnh
Ġb Ã¡i
Ġb Æ°á»Ľng
Ġb áº©y
Ġnh Äĥng
Ġs Ã¹ng
Ġd an
Ġd Ã£n
ĠT Æ¡
Ġr Ã´m
Ġx Ã©n
ĠC á»ĳng
ch ia
ĠB á»ĵng
Ġ1 000
ĠM Hz
ĠL em
ĠL eban
ĠS v
ĠP A
ĠP ele
ĠA R
ĠNh áº±m
ĠD A
ĠG eo
ÄĲ áº¥t
Ġkho áº£
ĠU t
Ġ4 30
Th Ã´i
Th áº§n
Tr Ã¬nh
Tr Ã²
Ch Ãłng
ro ws
ĠF id
ĠF av
ra di
ĠJ ustin
th al
th áº§y
ĠAn thony
ĠAr ena
ĠNgh Ã¨
ĠMar ie
Ġbá»ķ n
ĠBar aja
ĠHy undai
199 2
ĠtÃŃ a
Ngh á»ģ
ĠPer rotta
Ġ196 4
lu ivert
ĠMos ul
ĠAbb ey
ĠRub en
ishi ng
ĠPic asso
ĠReb ecca
ĠDef oe
allad olid
Christ ian
alay eta
ĠLeban on
C á»ķ
D á»±a
H g
H am
M ark
P SV
T áº¡o
c á»©
d uc
i us
m á»Ł
m á»©c
s Ã¡t
t ail
z ai
Ġth áº£y
Ġl áº«m
Ġm o
Ġnh áºµn
Ġkh áº½
Ġkh Ã¹ng
ĠT od
Ġr ÃŃt
Ġr ich
ch á»ĭ
ch ev
ai i
ĠM ul
ĠTh uyá»ģn
Ġra dar
ĠTr uyá»ĩn
ĠTr oy
ĠK uz
er g
ĠCh os
ĠG am
ĠPh áº£n
Ġ3 40
el ess
Th á»Ń
ra ph
Ng uy
Ġca ffe
Ġnguy en
ak ov
Ġ0 7
Ġá» ·
ĠAr iel
ob ar
ĠAl ain
Ġ14 5
net s
ĠLe g
lo p
ud a
ĠAnd erson
ĠCl audio
ĠBec k
Ġ196 3
ĠDi amond
Ġchip set
ĠGeor gia
ĠPan asonic
ĠAc t
ĠPark er
Ġkar atedo
ĠGil berto
ĠKen ya
izar es
ĠFel ipe
ĠMart ina
AD B
war z
ĠVa art
Ġlip id
ckh orst
lat an
ĠRem on
Av iv
ĠGom es
ĠZag or
ĠÄĥ ng
ĠBuch arest
ĠEdm ilson
B Ã©
B BÃłn
F ab
G P
K ÃŃnh
L Æ°á»£t
O N
R e
b Ãłi
g ho
h cm
l imex
m Ã¡t
s er
Ġl á»¥y
Ġb áº¹n
Ġtr á»Ĺi
Ġs hop
Ġg all
Ġng á»ĳc
ĠT áº¿
ĠT Ã½
Ġr Ã¨m
ĠN á»Ĺ
ĠN Ã©n
ĠN eri
Ġx Ã¨o
Ġx Ã³i
ĠH as
ch áº¥n
ĠB á»ķ
ĠB ry
ĠM ekong
ĠTh Ã¡c
ĠTh áº£nh
ĠS n
ĠP ed
ĠTr á»©ng
ĠK ezman
ĠNh á»ĭ
ĠPh o
ĠPh one
ĠKh á»ķ
as ia
ĠJ ay
ĠX Äĥng
id er
Äĳ Ãªm
19 80
ĠAl m
ich ella
net h
ik i
ub ishi
ĠCar ib
ach e
ug ia
ĠSe aprodex
ĠMau ro
ĠMc Cl
ĠCor ia
Ġj e
ĠGu illermo
ival do
AS EP
ĠVo IP
Ġni u
ĠÄĳÆ°Æ¡ c
Ġsal on
ĠPatt ani
Go ogle
D Æ°
H Q
J an
L inh
M áº¯t
R om
S ec
c áº¥p
c Æ¡m
l ao
n á»Ļi
s so
Ġ or
Ġ ).
Ġt áº¥y
ĠÄĳ áº±m
Ġl áº¯t
Ġch Ä©a
Ġk Ä©
Ġb Æ°ng
Ġnh en
Ġs ÃŃt
Ġn áº¿t
Ġg á»ī
Ġng á»Ŀi
Ġng áº©ng
Ġd iva
ĠT áº¥m
Ġqu á»ĭ
Ġr áº±m
Ġx á»ĳt
ĠH áº¡ng
ĠH UD
ĠB it
ĠL á»Ĺ
ĠS Ã¡t
ĠS em
ĠTr ev
ĠK ab
ĠK luivert
ĠNh áºŃp
ĠD áº¥u
ĠG hi
ÄĲ A
Th ÃŃ
Tr anh
et ta
ad er
Äĳ Ãłn
Ġ12 7
Ġ11 6
ov an
re e
ĠDo wn
Ġp l
ĠMar sh
kh á»ĳi
Ġthá»¥ t
Gi áº£
gi ao
gi áº¥y
ĠRob son
mar k
ock tail
bia sso
ĠJun ich
ĠJun inho
ĠMag ath
ĠPlay Station
ĠHot mail
ĠBus iness
Ġgá»Ŀ m
ĠCru ise
ĠBron ckhorst
gho uti
1 10
A f
D ay
L oÃłi
M ad
U r
X á»Ń
c á»Ńa
d Ã¹ng
g es
h Ã¬nh
k inh
m áº·t
r ess
t iÃªu
t iáº¿ng
y e
Ġ Ã³
Ġch áº¡nh
Ġtr Ã¡o
Ġnh áº£m
Ġs Ã¡n
Ġkh ang
Ġd áº¥m
ĠT á»ıi
ĠT own
ĠN ot
ĠC á»ı
ĠC áº©n
ĠH ad
ch iÃªu
ch á»©ng
ĠB Ã¹
ĠB á»ĵn
ĠB Æ°á»Łi
ĠM Ã£nh
ĠL Æ°á»£t
ĠL ag
ĠL isa
Ġbá»ĭ p
ĠNg á»įn
ĠK TS
ĠK atr
ĠK ewell
er man
ĠG loria
ĠPh oto
ÄĲ á»£t
Ġtu á»ĵn
ĠI an
Th á»«a
et sk
ĠGi Ãły
Ġ10 2
Ġ10 4
ĠX H
th o
th Æ°á»£ng
ĠO S
ĠIn f
Äĳ a
ul th
ob a
ĠRe ina
Ġ17 5
ĠSt art
all i
ord er
Le eds
ĠCan izares
ĠAnd riy
Ġhu á»³nh
ĠMc E
ĠCor radi
Ġmod ule
ĠFerr ero
int endo
tre et
ĠComp uter
ĠJim my
Ad d
ĠTB N
Col ombia
NHÄĲ Ãģ
ĠKenn edy
ĠFri ed
athi wat
ĠHugh es
ĠQueens land
nets ova
B D
C ro
D áº§u
G Ã¡i
M o
V Ãµ
V Æ°á»£t
W indows
b Ã³ng
c ona
h at
m Ã¡
m áº·c
z y
Ġ at
Ġ Ã©o
ĠÄĳ ay
Ġv áº©n
Ġl áº¹
Ġh Æ¡
Ġch ang
Ġb áº·m
Ġm Ã¡nh
Ġm edia
Ġm afia
Ġtr Å©ng
Ġs áº§m
Ġn em
Ġg el
Ġg áº¯p
Ġd áºŃu
Ġx Æ¡i
ĠC áº¯m
ĠV ar
ch ai
ĠM em
ĠM oh
ĠM erk
ĠÄĲ Ã¡p
ĠTh Æ°á»Łng
ĠTh áº¯m
ĠL á»Ĺi
ĠL enn
ĠS Ã¢m
ĠS ap
au de
ĠNg o
ĠK CB
ĠPh Ã¡i
Ġlo an
ĠR á»Ńa
ĠR ev
ĠKh Ã¡ng
Th Æ°
ĠGi Ãłnh
ĠX á»Ń
ĠHo áº£
ir ut
ĠNgh Ã©
ie g
ou gh
ien co
ĠCl ark
ĠSe ung
ĠCr aig
ĠEr n
Ġ196 9
ĠÄĲK HK
idd ink
ĠCP C
ĠPan ucci
ĠSant iago
ĠCA TP
ĠJun ior
ĠRobert s
ĠTor onto
val ue
eck ler
GÄĲT LA
ÃĤ m
ĠJohan sson
ĠPep si
jin ov
ĠCad iz
Ġrich ter
ĠKatr ina
3 20
B iá»ĥu
B ec
L Ã¡
M N
M ac
R I
R eu
T Q
T uyáº¿t
W B
b ÃŃ
b áº§u
c Æ¡n
c ak
f urt
g Ã¢y
l uigi
v á»ĳn
Ã Ĳ
Ġ ar
Ġ á»ĳp
Ġ áºµm
ĠÄĳ áºŃn
Ġv on
Ġth au
Ġk ali
Ġm Æ°Æ¡ng
Ġtr á»ģ
Ġnh á»į
Ġs um
Ġng ai
Ġd ÃŃ
ph Ã¹
Ġr Æ°ng
Ġr uá»ķi
ĠC á»«
ch es
ĠB om
ai ng
ĠM est
ĠM iá»ħu
ĠÄĲ á»ĩ
ĠÄĲ á»£i
Ġngh iáº¿n
ĠTh áº±ng
ĠL ed
ĠL ot
ĠS amp
ĠP L
ĠP ocket
in er
ĠA ung
ĠA tt
er azzi
ĠD ir
ĠPh illips
ĠI LA
et am
ĠF ont
ĠX Ãºc
Ġba by
tr Æ°á»Łng
Ġ12 6
ĠAl v
Ġp it
ĠZ alayeta
Ġweb cam
ĠEm ail
Ġmu á»Ļi
all et
ĠCon d
ĠCam biasso
199 1
iz z
ĠKhu Ã´n
ĠEl ena
ĠOs aka
ĠBo jinov
ĠPaul eta
ĠVina Game
ĠVo eckler
ĠMus ic
ĠKol ler
ĠNar athiwat
ĠHaw aii
ĠWolf sburg
ĠCast ro
ĠVinc enzo
Ġcort icoid
ĠAnder lecht
ĠElectr onic
ĠSyl v
ĠKuz netsova
ĠJunich iro
Reu ters
ĠMest alla
A E
H áº¡t
I á»
I van
L á»Ĺi
T Æ°
T Ã¡
T our
m ohan
p lay
v á»¥
v isco
z ania
Ġ asp
Ġt áºŃu
Ġt Ã¢ng
Ġth Ã³c
Ġh ist
Ġnh áº±ng
Ġn Æ¡
Ġn Å©ng
Ġn áº»
Ġn á»Ľt
ĠH Ã´n
ĠH ur
ĠV ac
ĠV ass
ch Ã¢n
ĠB ad
ĠM iáº¿u
ĠÄĳá»Ļ n
ĠL Ãłnh
am y
ĠS ett
ĠTr Æ°a
ĠTr Ã¡ch
ĠTr á»«
ĠK em
ĠCh ern
ĠG Ãł
ÄĲ á»Ĺ
Ġqua t
ĠR on
ĠR ov
ĠR ain
ĠKh Ãºc
Ġsá»Ń ng
ĠE b
ĠVN ÄĲ
ĠW o
Ġto ang
Ġto ilet
ad ei
ĠY as
Äĳ Ã¢y
Äĳ oáº¡n
Ph on
Ph Ã³ng
iá»ħ ng
Ġ18 5
ian e
ĠBr ent
ĠSer gio
op er
ri que
ĠBl atter
VN PT
ĠMat erazzi
ĠVin ac
ĠAdr ian
ĠKar el
ole ez
ĠMa j
Ġsil at
ĠQue en
ĠTol edo
band ian
ĠRM IT
ĠKore i
ĠOct ober
ĠFis ichella
Ġgiá»Ļ p
! ",
' ;
5 12
5 11
B ul
G D
N Ãłng
S ad
V Ã´
b ul
h oÃłn
m Ã³n
t áºŃp
t áº¡m
t ord
y p
Ġ @
Ġ Ãºng
Ġt Ã¬
Ġc Ã¢
Ġl Æ¡i
Ġk ÃŃ
Ġm iáº¿t
Ġs Ãł
Ġng Ã¡c
Ġng Æ°Æ¡
Ġng á»£p
ph ÃŃa
ĠT oni
Ġr an
Ġr Ãº
Ġr áº¿t
Ġr Ã¨
ĠN ab
ĠN ow
ĠN eu
ĠC áº¡nh
ĠC á»§ng
ĠH um
ĠL á»ĩnh
Ġlá» ıi
ĠP ol
Ġra t
ĠA e
ĠA qu
ĠK iá»ĩn
ĠK Ãªnh
ĠCh am
ĠCh ev
ĠD eb
ĠD eng
ĠR LCD
Ġtu a
el en
ĠU T
or a
Ġlu á»¹
Ġkhu á»·
Ch im
ĠGi ann
Ġvá»ĩ t
ĠÄĳo Ã¡i
Ġ10 6
ĠJ ens
Ġtho áº¯t
ĠHo p
ĠHo me
Nh iá»ĩm
Ġdá» Ĺi
ur es
Äĳ á»ĵ
Ġ11 4
ÄĲT DÄĲ
kh Ã³
ĠLu que
ĠmÃ´ t
ab el
Gi áº¥c
af i
Ġu á»ĥ
ĠVal d
ĠCl ub
ĠHA P
ĠMau ricio
gar et
Bar ca
ĠCole en
ĠJun e
ust ar
Ġká»ģ nh
Ġam i
ĠRa j
ĠKho áº£n
ĠJi had
gu er
ĠTan zania
ds ay
ĠIg or
',' #
Ur uguay
4 12
G oran
I l
J ICO
M L
O PEC
R ub
R acing
S H
T D
T Ã³m
V Ãłng
V in
W ACO
b r
b Ãłn
b áºŃt
d Ã¢n
j u
k áº¿
k ip
l ob
s Äĥn
v ez
Ġ á»ĳ
Ġv Ãºt
Ġth Ãºng
Ġl áº£ng
Ġh uÃ¢n
Ġtr Æ°Æ¡
Ġnh Ã¡p
Ġs áºŃm
Ġn Ã¡
Ġn Æ°á»Ľu
Ġng á»Ľt
Ġd Æ°á»£ng
Ġd ia
ph á»¥
ph ao
Ġr áº¡c
Ġx iÃªu
ĠC anh
ĠC ah
ĠH art
ĠH iddink
ĠV áº¿t
ĠL et
ĠL oÃłi
ĠS ev
ĠS á»ĳt
ĠP otter
ĠCh á»Ŀ
ĠCh av
ĠCh Ãłm
ĠD im
ĠD ac
ĠG oran
Ġdo i
ÄĲ Ãło
ĠR Äĥng
ĠU SA
Ġlu áº©n
Tr á»Ŀi
ĠkhÃ³ m
as ek
ĠQu ay
ĠGi Ãªng
ĠF enerbahce
ĠW is
id es
os ito
ĠO K
Äĳ Ãª
amp ag
ir d
ie p
sen e
kh ail
ab in
ĠMan mohan
Qu áº§n
ep pe
ĠRob ot
Æ¯ u
ĠCal vin
let cher
ĠLin dsay
ĠCor una
ĠKy oto
ĠDom en
ĠGre g
ĠAbd el
ĠSor ensen
Ġ(! ?).
ĠAy ala
ĠJen as
ĠZh ang
ĠSom alia
arth y
Ro oney
ĠLen ovo
ĠJol ie
ĠTrin idad
ĠNal bandian
Ukrain a
ĠFig uer
rows er
ulth ard
, âĢ¦
D áº«n
H uyá»ģn
J ul
K iÃªn
M O
N Ã´ng
S ÄĲ
V i
V Ã¹ng
V ui
a ph
b Ã¬a
d anh
e a
h á»ĩ
j o
m ai
m Ã¡u
v Äĥn
v Ãµ
y r
Ġ Æ°Æ¡m
Ġt Ãłnh
Ġh un
Ġh áº»o
Ġb us
Ġnh Æ¡
Ġn áº·n
Ġg á»ķ
Ġg uá»ĳc
ĠT Æ°Æ¡i
Ġthá» ıi
ĠN áº¥m
ĠN DT
Ġhá» Ľ
ĠH TM
Ġchá» «a
á»± t
ay ev
ĠB un
ĠB ow
ĠM áº¡n
ĠM Äĥng
ĠM Ã³ng
ĠÄĲ áº»
ĠÄĲ TVN
ĠL Æ°á»Ľi
ĠS E
ĠS uy
ĠS uk
ĠS ÃŃp
Ġgiá» Ĺ
ĠA talanta
ĠNg oc
ĠCh oi
ĠNh á»ĭp
ĠG em
Ġ- &
ar is
el ka
as o
Ch áº¥n
ic t
at er
ĠE un
ĠHo c
ĠhÃ£ n
ĠAn ast
Ġ12 1
Ph illips
and ez
ie ng
Ġ14 8
ĠBar ghouti
ut an
ĠCar ter
ashi d
ath on
ĠEl izabeth
Giá» ¯
198 8
ĠCharl ie
Ġxá»ī a
omp son
ĠJul ie
ĠCA N
ĠPetro v
ĠMas ter
ĠQL TT
way s
ĠChal abi
ĠSof ia
ĠTaw an
ĠTTC K
ĠZin edine
Post ed
Pan athinaikos
ĠMey de
ĠZagor akis
Ġkhuá»· u
C ard
D i
I N
I raq
L o
L au
T uáº¥n
b es
c ium
g Ãł
r Æ¡
t em
v on
Ġ q
Ġc ocktail
Ġv Ã¡nh
Ġl uá»ĳng
Ġl Ã¢ng
Ġb áº½
Ġb áº±m
Ġm y
Ġs áº¯ng
Ġkh á»Ŀ
Ġng Æ°u
Ġph áº¿t
ĠT iago
qu Ãª
Ġgi Ã£i
ĠN á»Ńa
ĠN Ã¢ng
ĠN umancia
Ġx Ã³c
ĠC ud
Ġhá» Ŀi
ĠB ou
ĠM az
Ġngh ÃŃa
ĠL AN
ĠP av
in os
ĠCh áº¡y
ĠD at
ĠD ur
ĠG et
Ġ3 80
Ġy eu
al o
Ġngo Ã£n
200 8
as on
ic ill
ĠJ os
ĠJ oh
ĠJ oo
ĠJ ust
ĠX Ã¡
ĠIn st
Äĳ á»Ļ
tr á»¥
Ph áº£n
ĠAr n
ĠÄĲH QG
ĠMar s
ĠLe x
ros s
Le icester
ĠCol or
ast ian
ax o
ĠPr so
ens tein
ĠGr onk
ĠQuy nh
ĠMat th
uz zi
att le
ĠTom my
ĠHe id
Ġ195 6
ĠMac edon
ĠEsp osito
ĠFlor ent
ĠWil tord
ĠAv ram
ĠBos nia
ĠMus ab
ĠSec urity
ĠChar isteas
Ãļ c
NIC EF
ĠKid man
Ġres ort
ĠJes us
ĠChos un
ĠGronk jaer
! )
7 50
A G
B en
B ank
K iáº¿n
S ky
T ech
V o
W ashington
g áº·p
i esta
k iá»ĥm
s Ã¡ng
t á»«ng
w eb
y namo
Ġ it
Ġth Æ¡i
Ġl em
Ġh Ã¹m
Ġm Ã¡ng
Ġnh Ã¡c
Ġnh Ã©p
Ġg á»įng
Ġng áºŃy
Ġd en
Ġph Äĥng
Ġph ishing
ĠT Ã¡
ĠT áº¡ng
ĠT et
ĠT at
Ġqu áº·c
Ġr Äĥm
Ġtá» ģ
Ġthá» ī
ĠC in
ĠH is
ĠV DC
ĠV issan
ĠÄĲ Ã³n
ĠTh ompson
ĠP os
ĠP oe
ĠP JICO
ĠÄĳÃ³ a
en ia
Ġvi ol
ĠkhÃ³ e
us eppe
ad ze
ur ta
ĠAn n
Ġ11 9
Ġá» ļt
ob yl
Ġw in
ĠZ latan
ier re
ub e
ut ion
st en
ester n
ĠSch warz
Ġbá»ģ nh
198 5
ĠNa j
ĠAt lant
ust av
ĠKl ose
yc in
Ġtro jan
ĠSor in
Ġz oom
ĠBob by
ĠLuxem bourg
ĠMits ubishi
ĠrÃ¬ u
ĠHÄĲT T
lau tern
ĠLawren ce
ĠKov ac
Phon ak
Bul garia
! !
: âĢĿ
E rik
L Ã¢u
N e
N Ã¢ng
S KT
T ang
T á»Ľi
V P
V ÄĲV
b áº¯n
c Äĥn
m at
s ar
t rol
w i
áº ¾
ĠÄĳ uá»ĳc
Ġv ali
Ġth Å©ng
Ġth iá»ĥn
Ġl Ã¬a
Ġk iá»ĩu
Ġk il
Ġb allet
Ġm ÃŃch
Ġm Ãºi
Ġnh Ã¢m
ĠT i
ĠT ar
ĠT ogo
Ġr ub
Ġr á»£n
ĠcÃ³ p
ĠN ig
Ġx Ã¢u
ĠH á»Ļ
ĠV oi
ĠB iro
ĠM Ã¡t
ĠÄĲ áº£m
ĠTh áºŃn
ĠTh áº»
ĠTh at
ĠL Ã¡i
Ġ( -
ĠS tone
ĠTr á»ĳng
ĠD C
ĠG uy
ĠG ol
ĠG audio
ar ez
im b
ĠR á»«ng
el da
as co
ĠF letcher
ĠW T
ĠJ up
Ng Ã´
ĠY ok
ĠO ai
Ġmáº¹ o
un i
un k
ac etam
ac urta
Äĳ iá»ĩn
á»ĥ u
ap e
Kh á»§ng
re g
ĠMar garet
od ork
lo yd
ĠCon nect
ug an
ĠSe ong
ĠTT XH
ash in
CS KA
198 2
ĠÄĲA TP
ĠTM ÄĲT
ĠCo ulthard
ĠNor m
ĠBern ard
Ġpen cak
ĠMoham mad
Ġgu á»ĵng
ĠFr eder
ĠDon etsk
ĠWood gate
eop le
ĠSpir it
ĠMoh d
ĠCond oleez
odork ovsky
5 20
B u
C zech
M I
M od
P MU
R onald
S hi
S un
T un
V FF
b ack
b á»ĩu
d is
f ilm
h á»ĵi
l ov
l á»«a
s Æ¡
u art
nh áºŃp
Ġv Ã¡t
Ġv áº¹t
Ġch Æ°
Ġb ass
Ġm ar
Ġm Æ°á»Ľt
Ġs ty
Ġn Ã²i
Ġn ylon
Ġph Ãłng
ĠN ao
ĠN intendo
Ġx iÃªn
an os
Ġhá» ī
ĠV áº½
ch á»©
ĠM b
ĠM iá»ħn
ĠM ista
ĠTh iá»ĩt
ĠL iv
ĠS qu
ĠS á»£
ĠS ub
ĠTr Ã¹ng
ĠD á»ĭp
ĠG ua
ĠG ran
ĠR oc
ĠR iver
el et
ĠU td
Ġ4 80
Ġlu á»ĵn
Tr á»ĭnh
Ġtráº» o
ro e
ic ia
ĠE asy
is i
Ġ10 7
Ġ10 9
ĠJ P
ĠJ et
ĠX ong
ĠX áº¿p
Äĳ áº·t
tr áº£
se v
ĠHu go
ĠAr sene
eb ook
ĠDo ug
ĠInter pet
ĠBar ry
ik a
ĠSt and
ĠRom eo
Ġáº¤ y
gi ai
ham oni
ĠDav ies
ĠSch ro
ĠAd am
ĠSp orts
Ġo ai
ĠCN N
ĠEd die
ĠMor gan
ĠAir ways
ant an
ĠAng ulo
pp ing
Bar adei
ĠKy ung
ĠFrank furt
its u
Ġser ies
Ġ(? ).
ĠTol do
Cel ta
ĠSÄĲ NÄĲ
mit ry
Bec kham
ĠRov ers
ĠFiguer oa
acetam ol
1 30
6 20
9 10
? !
C om
D áº«u
E mail
I r
L Ãªn
L á»Ľp
R icardo
V inh
b Ãªn
c áº§m
d ate
g re
h Ã¡t
l á»Ľp
m b
m ith
r l
r or
s tr
u ja
v Å©
Â ®
ng á»±a
Ġc á»¯
Ġb ÃŃch
Ġm Æ°á»Ľp
Ġtr Ã¡m
Ġnh á»ĳi
Ġs Ã¡
Ġs áº¥p
Ġkh Æ°
Ġg Ã¹
Ġg áº«y
Ġng á»£
ph y
Ġph ung
ĠT á»ĩ
qu áº£
Ġr Ãªn
ĠC Ã¡m
ĠC ent
ĠH em
ĠH ann
ĠH ernan
ĠB at
ĠB is
ĠB oy
ĠM oun
ĠÄĲ á»ģn
ĠÄĲ á»ķng
Ġngh Ãªu
on o
ĠS ho
ĠS ou
ĠS Ã©c
au n
Ġbá»ĭ u
ĠK arl
ĠG ai
ĠG CN
ĠG TGT
es a
im a
ĠR alf
ĠI DC
ĠI yad
Th Ã©p
Tr uyá»ģn
Ch Äĥm
Ch áº·ng
is ion
om o
Ġca p
th ur
ag ate
ĠAn t
Ph e
Ġ11 7
Ġ11 8
av ia
á»ģ m
ul f
eb o
ob or
re ens
kh ai
Ġweb master
ail ly
og h
ĠBa e
ly n
if i
ĠSer ies
ĠCon ver
ow ell
ĠvÃŃ a
ĠSo e
An der
ĠSa ez
ĠHP HN
ĠSl im
ĠGer ard
ĠPro di
Al essandro
ĠCas mir
ĠÆ¯ ng
ĠPetro limex
shi re
AF P
ci olo
ĠMi khail
ĠFlor ence
ĠÄĳu Ã´ng
Fran c
ĠOle guer
Ġnháº½ o
ĠPoly tech
ĠRud i
Geor ge
ĠBru ce
ĠChristoph er
ĠSuz uki
Ġcoc aine
ĠMarsh all
Af ee
. )
A PEC
C at
D e
E S
M Ã´
T áº¿t
c áº¯t
e er
j amin
l Ã¡i
l ou
n al
o th
s á»Ńa
u te
v Æ°á»Ŀn
ĳ t
á» Ķ
Ġt Ã¡nh
Ġt ext
nh áº¡c
Ġl áº·t
Ġh Ãª
Ġh áº¡m
Ġch Ã³c
iá» ĳt
Ġm á»ĭ
Ġnh áº¡o
Ġs anh
Ġn ew
Ġg áº«u
Ġd Æ°á»£t
Ġph Å©
ĠT W
ĠT áºŃn
ĠÄĳá» Ĺi
Ġr áº£
Ġr á»Ļp
Ġtá» £n
ĠN elson
an ol
ĠV ers
ĠB G
ĠB Ã£o
ĠB AR
ĠB uck
in da
ĠA ug
ĠTr á»Ĺi
ĠK eo
Ġthu ong
ĠNh Ã¢m
ĠD O
ĠG T
ĠQ SDÄĲ
ĠR us
ĠR ivaldo
... ?
ĠI CT
ĠKh uáº¥t
ĠKh odorkovsky
ic er
ĠVN A
ĠJ oan
Ġ9 30
ur n
Äĳ áº¥t
Äĳ Ãło
iv u
ap p
Ġá» Ĳ
ĠHu t
ĠMar io
Ġ13 4
ĠHá»į a
oc c
ĠSh a
ĠSh ak
Qu á»¹
ws ki
ĠHA S
EC AF
Ġ196 1
Ġrá»§ a
any i
ĠLi u
ĠMu ham
we at
ĠKur anyi
ĠBell etti
ĠBell amy
ĠDes k
ĠWar ner
ĠDam ien
ĠMod el
ĠReg istry
ĠKas im
ĠPand iani
ĠBry an
Cro atia
ĠChern obyl
ĠDomen ech
B Ã£o
D áº¥u
H Æ°á»Ľng
I ÃĬ
J P
L Ãłng
M at
N umancia
V Ã¢n
V á»ĳn
V itamin
b á»ĳ
b ang
c áºŃu
h áº¡
h á»Ļ
h or
h Ã²a
l á»Ŀi
p l
s á»ĳc
v iá»ĩc
w er
w orld
Ġt en
nh Ã³m
Ġth Ã²
Ġl Ã¹a
Ġl á»ĳt
Ġl iáº¿c
Ġh Ã¡ng
Ġh áº¡c
Ġm ac
Ġkh áºŃp
Ġng Ã³c
ĠT p
ĠT ÃŃch
ĠT áº§m
Ġr eg
ĠN as
ĠN Ã©t
ĠN ich
ĠN iel
Ġx á»ĳc
ĠC rystal
ĠH B
ĠH iÃªn
ĠH anh
ĠH á»£i
Ġcho n
ĠB QL
ĠÄĲ o
ĠTh uy
ĠL iá»ģu
on ia
ĠS ic
ĠP eople
ĠTr áº£i
ĠTr eo
ĠNg Ãłi
ĠK a
ĠK um
ĠCh at
ĠNh an
ĠD Æ°á»¡ng
ĠD iaz
ÄĲ á»Ŀi
ĠI Q
ĠI SP
ĠI SS
Th á»ķ
Th áº¡c
Tr Ãł
Ġvi en
ic ini
us hi
ĠF X
ĠW an
ĠX D
ĠHo s
Nh á»Ľ
ĠAn elka
un ia
Äĳ en
Ġ12 2
ui z
ton ia
ig g
ĠAl pha
ĠDo film
ip p
Ġf lu
az u
og ne
ord e
Ġtrá»« u
ĠTN GT
vn n
ĠSp eed
ĠEl ite
de e
giá» ĳng
ĠSi han
HN T
Ãģ p
ĠVI II
ĠMo on
Ġ195 4
oham a
ĠMac au
lad bach
ĠCel eron
ĠAth lon
its ch
ĠCass et
ĠFir st
ĠJo on
ĠVid uka
ĠGP L
ĠBal ears
ĠBM I
ĠCost acurta
ĠLav rov
ĠSus an
ĠSus ilo
Cel tic
Ġgluc ose
ĠGor don
ĠCarac ciolo
Sec ure
ĠTrev iso
ĠMcE wen
ĠCah ill
ĠHTM L
ĠPolytech nic
! ?
) ".
5 50
A s
B or
M Ã¡
M Ã£i
S Ã´ng
T á»īnh
V Æ°á»Ŀn
b all
c u
c Å©
e nh
g ab
h en
k ing
l ip
m á»ĳi
m áº¯t
o int
r s
v ai
v ille
v irus
w alk
Ġ á»ĳi
Ġ oi
Ġv áº±n
Ġl áº¥m
Ġch Æ°á»Łng
Ġnh Ãºn
Ġn Ãłi
Ġn Ãºc
Ġd áº§y
ĠT L
ĠT Ã´ng
Ġgi Æ°Æ¡ng
Ġr Ã´n
Ġr áº©y
Ġtá» ĥ
Ġthá» ĩ
Ġx áº¹p
an ton
ĠC Q
ĠH ush
ĠH itz
ĠM D
ĠTh y
ĠTh un
ĠL áº¯c
ĠL ap
ĠS et
ĠS asser
au er
Ġlá» ķ
ĠA ce
ĠTr Ã´ng
ĠTr áº£ng
ĠTr á»Ļn
ĠK B
ĠCh Ãło
ĠCh iÃªu
Ġthu i
ĠNh anh
ĠD áº¡y
ĠD iana
en ter
Ġbá» īnh
ĠG A
ĠPh Äĥng
ÄĲ oáº¡n
em y
Ġkho i
ĠR as
ĠR ach
Ġ4 70
ĠKh áº¿
at ri
ĠX SKT
it el
ad or
ĠY e
ĠY eon
ĠIn c
ĠIn t
Äĳ á»ĭa
12 5
um b
Ġá» Ķ
Ġgh im
23 0
Ġ14 4
ĠMar á»ĳc
ĠLu Ã´ng
Ġtrá»¥ i
ub u
aw ati
NA SA
ud ent
op ol
ĠHy e
Ġu Ã½
ĠHam ann
ĠOlymp ia
ĠMc G
ĠWal t
Ġox i
Hu á»³nh
ĠDa ew
ĠEs tonia
ĠHD V
ĠBrun o
ĠMarc os
ĠDis k
ĠBur n
Rob ert
Rob erto
ĠLim a
ĠNi weat
ĠID ECAF
Ġnit Æ¡
ĠOliv ier
ĠNap oli
---- ----
ĠMits ustar
ĠEll en
Mart in
ĠHit ler
esk top
Sant ander
ĠRah man
ĠBes lan
Ġasp irin
Sad dam
Il les
ĠChav ez
ĠDac ourt
icill in
ĠAvram ovic
ĠSchro eder
3 16
5 16
6 13
C Ãº
C uá»ĳn
D ani
D ef
D iego
E mp
J on
J ar
M Ãły
M ur
P W
Q uyá»ģn
R au
T a
T áº¡m
T om
V ideo
X D
X Ã¡c
d á»ĭch
k á»³
o ol
p or
s ay
y ch
Ġ is
Ġl iáº¿m
Ġh Ãº
Ġch áº§m
Ġch ÃŃt
Ġch lor
Ġm etro
Ġkh Ãłn
Ġng á»Ĺng
Ġph Ã¹ng
ĠT w
ĠT Ã¡o
Ġqu Ãłng
Ġqu áº³ng
Ġgi áºŃm
ĠN á»ģn
ĠC áºŃn
ĠH Æ¡i
ĠH ind
ch iá»ģu
ch á»ĳng
ĠB á»ĥ
ĠB ud
ĠB iel
Ġ1 11
ĠM ÃŃnh
ĠTh uyÃªn
ĠL td
ĠS X
ĠS Ã´
ĠS á»©
ĠP i
ĠP ack
ĠP op
ĠTr á»¥
er re
ĠCh Ã¢ng
ĠNh á»±t
ĠD Å©i
Ġbá» ¡
ĠG Æ°Æ¡ng
ĠPh u
ĠPh Ã¡
ĠPh ar
ĠPh ot
Ġ3 30
ar s
ĠQ G
ĠQ U
im Äĥng
ĠR en
ĠR aus
el i
á»£ c
Ch áº¡y
ic ot
Nh áº¥t
ĠY am
th áºŃt
ĠAn ne
Ġ20 7
tr Æ°á»Ŀng
Ġ12 3
ap pan
do be
ĠAr iz
Ġnháº¹ t
Gi áº£m
ier a
ass ar
ut s
ĠBra vo
Æ¯ á»
Æ¯ á»Ľc
ĠSe ng
ĠSe attle
ĠPl at
ĠSi hamoni
ĠCo up
Ġhi u
ĠAz iz
ĠtrÄ© u
ĠDes ailly
ĠDick son
ĠCost inha
ĠSac ombank
ĠArj en
ĠlÃ³ e
Ros enborg
ĠAnast asia
ĠCud icini
ugan sk
reens aver
0 50
2 20
7 26
8 50
A th
C al
D E
G Hz
G Ã³p
H á»Ĺ
S a
S á»©t
T Æ°á»Łng
W orld
b Ã©
c á»ı
c á»±u
d Ãłi
d om
k at
m Ã¹a
p es
t am
t á»·
w all
y ev
Ġ Ã³ng
Ġ audio
Ġt áº¹c
Ġl áº£
Ġh Ã¡
Ġm ui
Ġn Ãºp
Ġng Ã¡p
Ġph Æ°á»£ng
ĠT on
ĠT Ãło
ĠT TT
ĠT áº§ng
Ġr á»ĭch
Ġr Æ°á»Ŀm
ĠN ol
ĠN á»ĳt
ĠN ext
Ġx iÃªm
ĠV isa
ch amp
ĠB P
ĠM á»Ŀi
ĠM ido
ĠÄĲ Ä©a
ĠTh á»ıa
ĠL ak
ĠL ine
on ex
on buk
ĠP osh
in as
ĠA udio
ĠNg á»±
ĠK ath
ĠNh Æ°á»£c
ĠR ene
el an
ĠKh uyÃªn
Th áº©m
200 9
). -
us sia
ĠGi useppe
ol m
ĠF ilip
Ġtrá»ĭ a
ĠJ ank
Ng á»ĵi
ĠY ul
ĠY ugansk
th á»ĥ
id as
id ur
os sa
le e
Äĳ á»ķ
tr uyá»ģn
Kh á»ĳi
ĠAl am
Ġhy dro
ĠCar l
ĠMan ager
ĠRom ario
ĠIs tan
Qu ick
uk et
ĠRob in
bur gh
ĠMon tr
ĠthÃ¹ y
ĠAs p
ĠUn ix
ĠEl ton
car lo
Ġvu á»Ļt
99 9
eh r
ĠOl sen
mer tin
Ġ195 7
ĠFranc is
Ġsc an
ĠArm enia
ngh á»ĩ
ĠWil son
ĠRub ella
RO M
ĠJa ap
Fran k
Sai gon
ĠUl tra
........ ........
ako poulos
ĠXi ao
ĠBlo om
ĠCle an
ĠFern andez
ĠCarol ina
ĠRol and
Ġdr iver
ĠFlorent ino
ustav o
ĠCondoleez za
ĠMuham mad
ĠIstan bul
% ...
1 12
7 10
B iá»ĩn
E T
F D
F ox
G hi
G ra
N á»ķi
O M
T or
U á»·
W F
W ol
b á»ĳc
f te
k im
r ick
r igo
s ang
s áº¡ch
t á»ĳt
ng á»ĵi
Ġv Ã¹
Ġv est
Ġth Ã¢
Ġl Ã²a
Ġh ien
Ġch Æ°á»Ŀm
Ġk ey
Ġm ao
Ġs Ãªn
Ġkh am
Ġg Ã¡p
Ġng Ã´ng
Ġng Ã¡t
Ġph ÃŃch
ĠT á»µ
Ġqu Ã¡ch
Ġr Æ¡
ĠN áº¯ng
ĠN oi
ĠC ienco
ĠH eld
ai de
ĠM es
ĠÄĲ Ã³ng
ĠL eo
ĠL áºŃy
ĠS H
ĠS treet
ĠS mertin
ĠP P
ĠA A
ĠNg á»Ļ
ĠNg ang
ĠK er
ĠK yo
ĠK ais
ĠNh á»ķn
ĠD em
ĠD á»¥c
ĠPh uket
Ġlo ve
ĠR ai
ĠKh Ã¢m
ĠF TA
ĠW ik
ĠW ei
ĠHo use
th á»£
Ġ20 15
ĠO h
ĠIn do
Äĳ au
av io
ĠHu b
ill on
ine a
ĠZ d
18 0
ne fte
ĠÄĲT LA
Ġláº» n
ĠAd u
ĠCl aude
ĠDel gado
ĠEl Baradei
ĠSo o
lin ois
ĠMc Afee
ĠBV TV
ĠSA WACO
ĠAng ola
att ie
ĠMay a
ĠFab iano
SP N
Ġchá»Ń a
ĠPas cal
ĠFr ings
Ġhorm on
Ġbl og
ĠÃĲ áº£ng
Ġcomp uter
Willi am
Sp arta
ĠStef an
ĠMcC arthy
Ġri u
Web site
ĠSum atra
ĠPis ico
ĠAmbros ini
ĠYak ubu
ĠRap id
ĠTob ago
ĠGabri el
ĠFav alli
ĠAct ive
Ġje ans
Ander lecht
ĠSihan ouk
ĠDaew oo
' :
3 15
C áº·p
C á»Ńa
D Ä©
D el
E IC
G M
L Ã£
L ao
L áºŃp
N á»¥
O P
P SG
R á»ĳi
R od
S ony
b Ã¡c
c os
c io
g et
g ov
h áº¿t
h iá»ĩu
j e
m Ã´i
n Ã¢ng
n elli
r esto
y áº¿u
Ġc Ã¹i
nh áº¡y
Ġv ÃŃt
Ġl áº¡t
Ġl áº¡y
Ġh Ã³m
Ġb en
Ġb illi
Ġm áº¡t
Ġtr á»ĵ
Ġtr á»ĵi
Ġnh Ã¨
Ġnh áº¯p
Ġnh oi
Ġs áº§n
Ġs áº¡m
Ġn á»Ļm
Ġn atri
Ġkh Ãªu
Ġng áº£i
Ġd Ã³
Ġd at
qu Ã¡i
ĠN y
ĠN ight
ĠC Ã¢n
ĠC Ã¡p
ĠC oca
Ġhá» £t
ĠB iá»ĩt
ĠB avar
ĠB asso
ĠM W
ĠÄĲ áº¥u
ĠÄĲ ÃŃch
Ġngh Ãª
ĠL ik
ĠA T
ĠNg Æ°
ĠNg oáº¡n
ĠK m
ĠK ÃŃch
ĠK el
ĠK won
ĠCh er
ĠPh illip
al y
ĠR ic
Ġ4 40
Ġvi Ãª
Ġkhu áº¿ch
as ka
ĠE ast
ol le
ĠF iel
ra g
ra gh
Ġtho ai
it ra
ad y
ag le
tr i
tr Ã¹m
Ġ15 2
av a
do wnload
ec tron
ov d
re x
ip edia
ell ig
ĠEm il
ĠSt ate
LÄĲ BÄĲ
16 0
ĠPar reira
ĠIs h
Le e
ĠRi ise
ach o
ĠSp ace
ĠSp acy
ĠDN TN
ei kh
ĠSc ience
ĠPer vez
Ġ36 5
33 9
ĠMor eno
Ġ33 8
ĠShar p
ĠRos icky
ĠMark us
ĠSim ao
Ġmod em
ĠWeb ber
ĠKH CN
aren ce
ĠTa e
ĠTa j
ves en
itz er
Ġcal cium
ĠAlb elda
gra de
ĠMass imo
ĠFre i
ĠJen sen
ĠOpen Office
Ġ(? !).
ĠFall uja
luc a
ĠMur phy
ĠBy r
inn ess
ĠRec oba
ĠCre ative
ĠKor all
ĠKod ak
cá»© u
ĠPed ro
ĠElectronic s
obor sky
Emp oli
ĠRaus ing
ĠFiel mann
0 10
A ng
B á»įn
C or
C ap
E I
G u
H áº¡n
L áº½
R P
S an
S oft
T á»ĳc
V áºŃn
V en
X L
X uÃ¢n
b iz
c áº·p
d ÃŃnh
d á»ħ
h el
l á»£i
n ess
s Ã©
t iá»ĥu
u h
w ong
w art
x á»ĭn
y er
y te
Ġ Ã´i
Ġ áº¯ng
Ġc Ã¡ng
Ġv Ã´ng
Ġth áº£nh
Ġl á»ĭ
Ġb á»ĳng
Ġm iáº¿n
Ġtr uÃ¢n
Ġtr ans
Ġnh Ã¡m
Ġnh Ã³i
Ġn á»ĭu
Ġkh iá»ħng
Ġg áº¡
Ġg Ã£i
Ġd Ãł
ph ane
Ġph osph
ĠT iá»ĩm
ĠT áº¯m
Ġgi áº§y
Ġr Ãºp
ĠN ag
ĠN av
ĠC L
Ġhá» īnh
ĠH K
ĠH inh
ĠH ak
ĠV áº»
ĠV or
ch kov
ĠB iáº¿n
ĠB ot
ĠB á»Ĺng
ĠM I
ĠM áºŃt
ĠÄĲ áº¿
ĠL á»į
ĠL uyá»ĩn
ĠL ah
ĠS as
ĠP od
ĠA K
ĠTr Ã¡ng
ĠTr io
ĠK P
ĠK ao
ĠK ent
ĠCh á»«ng
ĠCh ivu
ĠNh áº¥n
ĠD á»ĳc
ĠD uyá»ĩt
ĠG á»«ng
ÄĲ Ã¡
ÄĲ Ã¡m
ar on
ĠR á»ĳi
ĠR áº±ng
ĠR Ãºt
el ie
ĠU B
ĠU BC
ĠI SO
ĠKh e
Ġchá»ĭ t
Tr uy
Ch uyá»ĥn
ol in
ĠF ol
ĠX iáº¿c
ĠY emen
ĠY uri
Ġ20 2
ĠO ver
ĠIn iesta
Ġba ht
tr an
tr ang
do anh
ĠVÃł m
ĠAl aska
Ġ14 1
ĠLe icester
ĠZ aw
od om
Ġ17 8
ĠthÃŃ a
ĠSt udio
ok e
ĠCar ragh
ly cer
ĠVal eri
ĠVal ente
ĠHÄĲ BA
Ġsu Ã´ng
ers lautern
art ner
art sev
sk jaer
ĠJohn ny
ĠSe agate
ĠBer k
ĠMich igan
ĠBen jamin
TS KH
ĠAg ric
ann y
Ho áº·c
ĠGu inea
Ġ195 5
itt le
Inter net
ĠSu ha
ĠFor bes
ĠDom esco
ĠEs c
ks and
ĠnhÃŃ m
ĠWhi t
ĠDes champ
osh in
ĠDar ren
ĠNe il
ĠIl linois
NS Æ¯T
ĠCE PT
ĠVinc ent
ĠLit va
Ġnil on
ĠAdel aide
ĠCommun ic
ĠGeo ff
ĠChev anton
ĠGiann akopoulos
ĠVald ez
ĠNaj af
Tun es
ĠDoug las
ĠStand ard
ĠBG K
Ġflu or
orde aux
ĠRach el
ĠBavar ia
ĠCarragh er
& ,
B á»¯a
C á»Ļng
D uy
F enerbahce
H áº¡
I F
M ail
S e
S port
T inh
U N
b s
c áº§n
c ic
l ife
m on
n Ãªn
n áº·ng
n ien
n ock
r al
s ai
s á»©c
s ol
Ġh á»¯ng
Ġh ack
Ġtr áº¡c
Ġnh Ã¡
Ġn ot
Ġg Ã²n
Ġd iÃªm
Ġd esktop
Ġph am
Ġph áº£ng
ĠT Ã¡n
ĠT Ã³c
Ġgi o
Ġr ai
Ġr Ã²i
ĠH á»ĳ
ĠV il
ĠV Ã¢ng
ch et
ĠB A
ĠM á»ħ
ĠM IC
ĠÄĲ á»Ļt
ĠTh ink
ĠL ing
ĠL ok
am il
ĠP on
ĠP el
ĠP oborsky
Ġho t
ĠA ff
ĠA TB
ĠA pol
ĠD Æ°a
ĠD ata
ĠG ene
ĠPh ilani
ar at
ar rent
ĠQ i
ĠR id
ĠR á»ħ
ĠU Ã´ng
ĠKh iá»ĥn
us a
ĠE arth
ĠJ ob
ĠY artsev
th Ã¢n
ag ement
ĠO CI
Äĳ á»¥ng
Ġgh á»ģnh
ĠRe ese
Ġ14 7
io ches
Ġp las
Ġnghi Ãª
ĠSh akhtar
ut ra
ĠCol ogne
ĠPet ron
ib ril
ĠRo che
ĠchÃ³ p
EC C
ĠSo un
ĠAg nelli
ĠDe an
att an
Ho Ãł
ux erre
ĠAndre as
ĠKar achi
ĠBe attie
ĠWeb master
ĠAh n
ĠKH XH
ĠLi beria
ĠRam os
Sh akhtar
ĠSor os
ĠMass a
FF FF
ĠBrit ish
ĠNik opol
Ġcat walk
Ġst udio
nik ova
Ġel ectron
Na uy
ĠHarris on
ĠFont ana
ĠVass ell
ĠSett ings
ĠNorm andy
ĠYugansk nefte
ĠPetron as
ĠNikopol idis
% );
0 20
6 40
9 15
B á»ķ
D ynamo
F PT
G E
H Ã¹ng
H er
L an
M ex
P ak
P atr
R L
R ich
T iá»ĥu
U T
X u
c Ã¢u
c áº£nh
g á»Ńi
h n
n Ãłng
o z
t Ãłu
v el
w ushu
x Ã¢y
y le
z io
Ġ ),
Ġ us
Ġ ec
ħ u
Ġc oll
Ġc ode
ĠÄĳ Ã¬a
Ġth á»ĳ
Ġth Ã¬nh
Ġth at
Ġth áº·ng
Ġh Ã¹n
Ġk Ã¬a
Ġb á»±
Ġm em
Ġm il
Ġnh at
Ġnh Ã³t
Ġn á»¡
Ġn icot
Ġkh áº¥t
Ġg Ã³a
Ġd á»ĳt
ph o
Ġph iáº¿m
Ġph uc
qu Ãªn
Ġgi up
ĠN Ã©
ĠN ano
Ġx Ãºi
Ġx Ãºm
ĠC Ãºm
ĠH orno
ĠH LTT
á»± ng
ay e
ĠB Ãłu
ĠM ao
ĠM uá»ĳi
ĠM ini
ĠTh Ãł
ĠTh iá»ĩu
ĠTh Ãºc
ĠL ie
ĠL uiz
ĠS D
ĠS oi
ĠP SP
Ġra p
ĠG áº¥p
ĠG us
ĠG ov
ĠPh e
ÄĲ á»Ļ
em berg
im on
ĠR ashid
Ġvi ec
Ch ile
ĠF ound
is k
is ler
ĠW estern
á»Ŀ ng
it er
ĠY áº¿u
ĠY oo
th e
th iÃªn
Ġchi u
un ity
Ġ15 8
ND P
ton a
Ġ18 8
Ġnhu á»ĩ
ion al
ĠMar i
ĠLu ca
ab o
pr ise
co unt
ĠCar bon
our nikova
uch i
ko cha
ĠHy un
ĠVal eron
ĠPhilip pe
ĠÄĳá»± Æ¡c
ĠvÃŃ u
ĠHar iri
Ġj ean
Ġi Tunes
Ġ195 9
ĠNor odom
Ġti Ãª
Ġur ic
ĠNet o
ĠWil bur
ĠMak assar
ĠIvan ov
yn c
ĠTO EIC
ĠTR I
izar azu
ĠMarch ena
enb auer
ĠHill ary
ĠKol ev
Ser ie
ĠLeon ardo
uck ner
ĠSoph ia
ols tein
NHÄĲ A
ĠDra gon
HC V
ĠKÄĲT M
ĠAN ÄĲT
ather ine
Ġgall ery
ĠXH CN
ĠNao mi
Ġngá»£ m
ĠHush ovd
ĠCoup et
Ġlá»ĭ m
ĠApol lo
! âĢĿ,
" ).
B H
B iá»ĥn
C á»§
C áº¥m
C ole
E VN
H ung
H ar
J avier
L á»ĳi
L ance
L HQ
M áº«u
N CO
R Æ°á»£u
V alladolid
X Ã£
b iáº¿t
c et
g Ã³i
h áº¡t
m u
r and
s ell
w ick
Ã ĵ
Ġ um
Ġt er
Ġb áºŃp
Ġn Æ°Æ¡
Ġn Ã¨
ph ia
ĠT áº»
ĠT itan
qu Ã½
Ġr áº¯m
ĠN O
ĠN u
an ov
ĠC K
ĠC R
ĠH áº§m
ĠH iáº¿m
ĠB ey
ĠB ond
ĠM Ã¡ch
ĠL áº¡nh
ĠL PG
on se
ĠS K
ĠS ok
ĠS iss
Ġgiá» ħu
Ġho ac
ĠTr uy
ĠTr ump
ĠK amp
ĠK aw
ĠCh áº£
ĠD iÃªm
en que
ĠG á»Ĺ
ĠG enn
ĠPh Æ°á»Ŀng
em ba
Ġlo ang
el y
ĠU NICEF
ĠI mp
ĠKh á»ķng
Tr á»£
as ino
as nic
as tien
ĠQu eiro
ĠE idur
ĠE SPN
ĠW M
ĠHo Ãłnh
ĠHo áº±ng
Nh áºŃp
Ġchu ong
ĠO kocha
le ans
Ġ15 5
Ġngu á»Ŀi
Ġdi em
Ġdi eu
do wn
ev ich
Ġgh áº»
ul ovski
19 76
Ġ14 2
ĠZ ico
ĠZ arqawi
TT g
ou ch
Ġ22 5
14 0
ber son
ĠBr uckner
ĠIs mail
Qu áº£n
ri en
istan i
raf t
uc ation
Ġkhá»© u
ID V
eu x
198 1
ĠSte p
ĠGer emi
Ãģ nh
ĠVI I
ĠGu inness
ĠSal ossa
Al l
eron i
ĠEn rique
Ġtru áºŃt
ĠAll en
ĠKl asnic
ĠTho áº¡t
ĠÃª kÃŃp
ĠÄĳu á»£c
ÃĶ NG
olog y
ĠMart ine
ĠJam ie
ĠLeon id
ĠBay er
ĠRes earch
ĠSof itel
ĠMeg awati
ĠTechnolog y
ĠTechnolog ies
ĠKC Q
Crist iano
Ġmar athon
ĠHitz feld
ĠAce h
ĠMontr eal
ĠSiss oko
ĠQueiro z
& .
) âĢ¦
2 18
4 16
6 12
6 50
7 20
B Äĥng
C Ã¡n
H ong
H Ãºt
K á»ĭch
M Æ°á»Ŀi
S Ãłi
S Ã³ng
S ol
S Ã¡u
S á»ĳt
T im
U á»ĳng
V ai
g Ã£
l ong
r ine
s á»Ń
s uáº¥t
t x
t uá»ķi
v áº«n
v it
x áº¿p
z ic
Ġ áº£i
Ġ !".
Ġ oshin
Ġt Æ°Æ¡m
nh e
Ġv áº§n
Ġth Æ°á»£c
Ġl ien
Ġl Ãªnh
Ġl Ãµng
Ġk ang
Ġb Ã©t
Ġm á»¥
Ġtr Ã¡t
Ġtr á»įt
ph Ã¡
ĠT á»ĳn
ĠT ab
Ġvá» ĵng
Æ¡ ng
ĠN il
ĠN áº¯m
ĠN uÃ´i
ĠC oi
ĠC ou
ĠC lo
ĠC MS
ĠH á»ĵn
ĠH ash
ĠV ill
ch Ã¡y
ĠB á»ĵi
ĠB TA
ĠM iá»ĩn
ĠM oo
ĠÄĲ am
ĠÄĲ Ã¨n
ĠTh Ã¢m
ĠL ov
Ġlá» £
ĠP R
ĠP ant
ĠK V
ĠK ournikova
ĠD ia
ĠG Ã¢y
ÄĲ Ãłm
Ġ3 000
Ġy oga
al in
Ġlo anh
Ġká» īnh
ĠR h
ĠU ri
Tr á»©ng
ĠQu á»³
ĠtáºŃp TiÃªu
is ha
Ġ10 88
ĠX DC
ter on
th á»Ń
os se
un is
Äĳ á»ĩ
tr áº¯ng
tr eme
Ġ12 9
Kh áº£o
est e
Ġ16 5
TT P
Ġ13 2
Ġ13 7
of idis
oc co
Ġf rom
Ġkáº» o
ros a
Ġ27 5
amin i
ect in
ow ler
ĠTN CS
ĠAnd ers
ĠAd d
In tel
ĠMich elle
Giá» įng
rog ram
ĠCity phone
ĠMat s
giá» ¯
ĠNhu á»ĩ
ĠShev a
ĠCá»© u
ĠShi de
Ġac et
ĠSol ari
ĠSim one
him i
ĠMot ta
ĠGar ros
ĠBe at
ĠKy r
ĠKl aus
ĠBel grade
ĠÃª kip
AN N
ĠKen neth
ĠBlu es
ĠGra vesen
ĠNik ol
Rob bie
quy á»ģn
ĠFuj itsu
Olymp iakos
Ġmeth ane
ĠLÅ© y
tero id
ĠThong lao
ĠCentr ino
ĠRain er
tem ala
itsch ko
ĠHind u
ĠAriz ona
ĠJank ulovski
Ġplas ma
ĠSoun ess
A V
B áº¡o
B ill
C ar
G Ãł
L at
O wen
S al
S áº¯c
T iger
b iá»ĥu
b á»ĳt
c Ãº
d ong
d al
f ont
g iáº¿t
g ow
h ard
l Ã½
l Æ°u
p le
p rus
v ui
v ili
Ġ Ã¢y
á» ĺ
Ġth áº«m
Ġh Ã¡m
Ġch ong
Ġch Ã¹n
Ġch Ã²m
Ġb Ãºi
Ġnh Ã²a
Ġnh á»¡
Ġnh Ãºm
Ġs áº£i
Ġs up
Ġs teroid
Ġn Ã£y
Ġd áº±ng
Ġph á»ĵn
ĠT á»ģ
qu á»·
Ġqu áº¹t
Ġgi Å©
Ġr áº¡
Ġr Ã¡y
ĠN avar
Ġx áº»o
ĠC á»ĵn
ĠC ec
ĠC all
ĠV og
ĠB á»Ļi
ĠB ran
ĠB á»ıng
ĠB amb
ai re
Ġngh Ã©
ĠTh ung
ĠL oc
ĠL oa
ĠL izarazu
ĠP ena
in ic
ĠA dobe
ĠK Ã©o
ĠK Wh
ĠCh ip
ĠNh iáº¿p
ĠD S
ĠD in
ĠD ud
ĠD ahl
ĠG ut
ÄĲ C
ÄĲ N
ÄĲ áº·t
ÄĲ á»ĭnh
Ġlo ai
Ġlo Ã¡ng
ĠR F
ĠR ak
Ġngo a
et l
us uf
ĠE ver
ĠF e
is ol
ĠW ander
ĠJ al
om ot
om bo
Ġto áº¡i
ad ing
th Æ°á»Łng
ur ch
ev e
ÄĲT G
Ġp oster
ĠZ abel
ĠLu car
ĠKim i
ĠCÆ¡ m
ort unity
ub ar
ne ider
aw n
24 0
ĠCl arence
ĠSp am
ĠGr iff
ĠDe isler
pp ortunity
ĠCá»¥ m
ĠCP E
ĠHe ine
âĢĻ âĢĻ
van ced
ĠGu ard
Ġ195 3
Ġlá»į ai
ĠAngel ina
ĠVir enque
col n
ĠRichard son
ĠGre ens
ĠOr leans
over y
ĠMag n
Ġpoly p
ĠMarc us
197 4
Br ioches
ĠRy u
ĠnhÅ© n
ĠÄĳá»Ŀ n
ĠFre e
NE T
cht enstein
ĠCy prus
ht ml
ĠMur cia
VKS ND
ĠMetro pol
Ġnu Ã´ng
Ġfol ic
Ġprogester on
Sl ovakia
ĠFish er
Ġop era
ĠFid el
ĠLeg end
ĠKab ul
Mad rid
ĠSamp ras
ĠYas uk
ĠJust ine
Ath letic
ĠWik ipedia
Mex ico
ĠLucar elli
. ',
3 18
8 20
9 13
C R
C Ãºm
H Ã´n
L a
L i
L á»Ļ
M ang
M iá»ģn
M aster
Y ahoo
i Ãª
k u
l ish
m áº¡nh
m edia
m á»ģm
s ung
s is
s ak
t uy
t á»Ļi
t á»Ń
t im
y ce
z in
á» Ĵ
Ġc áº¡m
Ġc á»Ĺi
ĠÄĳ iáº¿m
Ġv áº§ng
Ġth Ã²ng
Ġl Ã²i
Ġk Wh
Ġb áº·t
Ġm at
Ġm obile
Ġn áº¥p
Ġn ÃŃt
Ġkh áº¥n
Ġg áº«m
Ġg out
Ġd áºŃt
ph Ã¢n
Ġgi Å©a
Ġr en
ĠN ational
Ġx Ã²e
an z
ĠC á»Ļt
ĠC áº¥u
ĠC ic
ĠH Ã´
ĠH Ã£n
ĠV Ã©
ĠV áº¯ng
ch an
ĠÄĲ áº¹p
ĠÄĲ iá»ģm
ĠL Ã´i
Ġmá» ģn
Ġ( +
ĠS M
ĠS áº¯t
ĠS ne
au r
ĠP re
ĠP rost
Ġho e
ĠA ward
ĠTr ip
ĠNg á»§
ĠCh Äĥn
ĠG ry
ĠPh á»Ł
ÄĲ áºŃu
Ġ3 70
em ier
im Ã©t
âĢĿ ),
ĠKh áº©u
il yn
Ġvi sc
Ch Ã¹a
ro om
ĠGi ven
ĠF ut
ĠF iles
ra da
Ġ8 32
ĠJ ason
Ġ19 30
ĠHo m
Nh á»ķn
ag es
ac in
ĠIn s
Äĳ Ã³
Ġdu á»ĩ
12 8
ing o
Ph Ã¡
Ph Ãºc
do ba
ĠHu ong
ĠHu ang
ill er
ob al
LB ÄĲ
net t
kh á»§ng
ep er
ĠCan tona
ĠSch neider
ĠAs coli
ank s
Ġhu á»ĩ
ĠLin coln
li u
ĠMor ris
ĠEx cel
ĠNor ton
ĠJe onbuk
ĠVi ent
ĠSol skjaer
red it
47 2
ĠTho Ã¡t
ade ur
ĠGen eral
ĠKr Ã´ng
Par aguay
Ġbo ong
ĠRaf f
ij der
ct ion
VT ÄĲB
Br it
ĠIP v
ĠTy son
ĠWat son
ĠMill wall
Ger olstein
ĠNetwork s
Per u
agn ol
acch inardi
ĠMarcel o
ĠGard en
ĠFort une
ĠTen et
ĠSeb astian
Ġvá»± a
Cur rent
ĠÄĥng ten
Ġhist amin
ĠMoun tain
ĠHut ton
ĠDesk top
ĠPlat ini
Ġbilli ards
ĠAgric ole
ĠCou to
ĠGreens pan
ĠYasuk uni
ĠSne ijder
Gerolstein er
" -
3 21
9 50
A rafat
B iÃªn
D om
D TT
H oÃłi
H á»įa
N ick
P ad
R obot
S u
S il
T áº§m
T áº¥m
U n
W al
c order
f orm
g ill
h á»į
j p
k á»¹
l it
m us
q t
s ong
t if
v iáº¿t
v est
x á»Ń
Ġ ;
Ġ are
Ġ Æł
Ł m
ng á»§
Ġt Ã¡p
Ġt ien
Ġc up
Ġc lin
Ġc Æ°á»Ŀm
ĠÄĳ anh
Ġl á»§ng
Ġh áº¹
Ġh it
Ġh Ã³i
Ġk iáº¿ng
Ġb Æ°Æ¡n
Ġnh e
Ġs axo
Ġg Ãłu
Ġg oi
ĠT ax
Ġr e
Ġr ia
ĠN C
ĠN ott
ĠN icky
Ġx imÄĥng
ĠC Ãłnh
ĠC and
ĠC á»§a
Ġhá» Ľn
ĠH O
ĠH au
ĠH ag
ĠH ector
Ġcho ai
ĠV T
ĠV ÄĲTG
ch um
ĠB áº¡o
ai m
ĠM iÃªn
ĠM ov
ĠM Ã¡u
ĠM assage
ĠTh er
ĠTh Ã¡o
ĠL or
Ġmá» ģ
ĠS Ãª
ĠS no
ĠS mart
ĠP ong
ĠP ip
ĠP ach
ĠP oll
ĠNg áº¡n
ĠK es
ĠCh anh
Ä© u
ĠD áº¡ng
ĠD á»ħ
en son
ĠG ogh
Ġlo Ã©
ĠR ao
ĠR oll
el o
el ain
ĠU p
Ġ5 20
Ġ5 70
ĠKh Ã¡t
Th áº±ng
Th áº»
Th ÃŃch
ĠÃ ī
Ch á»ĳng
ro bot
ĠE M
ĠE g
ĠE p
ĠE va
ol ution
ĠW ard
Ġtho áº¡t
Ġ19 18
Ġ19 38
ĠHo ull
ĠY M
th áº¥t
ag h
Ġtá»Ń u
le b
Äĳ áº¥u
10 5
ing a
á»ĩ p
19 70
ob e
ho u
ĠAl me
az i
Ġ21 7
af emi
ĠCar o
ĠBr and
ĠBl aster
ĠBl asi
ĠMy at
ĠAS EP
ĠCan c
ers in
Ġcu Ã´
ĠBer ry
ey eno
ĠSc udetto
Ġlá»¥ i
ĠMor ton
ĠBag le
car o
ĠCor doba
ĠSi u
ans as
ĠHar gre
ĠVin ci
ĠVin ashin
Lu Ã´n
ĠFab ien
ĠBe au
ĠSar ah
Ġ66 6
ĠAll ian
ĠVen ice
ĠSav imex
ngh á»ģ
ĠWat er
ĠIg n
ĠHot sp
ĠSto ckh
ĠAss oc
ĠEnter prise
Andre as
rav el
ĠMend es
ĠDomin ica
Hen ry
ĠAlv aro
Iá» Ĩ
ĠXD HK
udent ial
Wol ves
Ġcoll agen
ĠMartine z
ĠBamb ang
ĠHeine ken
ĠHoull ier
ĠAlme ida
eyeno ord
ĠHargre aves
) âĢĿ.
4 14
5 15
6 14
9 20
E X
G iáº¿t
K C
L ar
L ib
M M
M a
P GS
S Ã¡ch
S EA
S amsung
T ak
V Æ°Æ¡ng
X DC
b Ã³
d ung
h wa
k n
k Wh
l Ã£o
n Ã³
n ame
r ung
r ell
t Ã¡i
t oÃłn
v á»ĭ
v Æ°á»£t
Ġ ap
Ġ eth
ng uá»ĵn
Ġc Æ°u
Ġv áº¡i
Ġv Å©ng
Ġv Ãªnh
Ġth iáº¿c
Ġl Ã¡o
Ġl ac
Ġh uyÃªn
Ġk e
Ġk iáº¿t
Ġnh oÃłi
Ġnh Ã²m
Ġn Ãª
Ġg á»Ļp
Ġng Æ°á»Ľc
Ġd áº¹t
Ġph á»Ŀ
Ġph á»ī
ĠT Ã¡i
ĠT Æ°á»Ľng
ĠlÃł o
Ġr em
Ġr Æ°á»Ľi
Ġtá» µ
Ġx uyáº¿t
Ġx Ã©o
ĠH im
ĠH ap
ĠB Ãłnh
ĠB OT
ĠM anh
ĠM eh
Ġngh iá»ħm
ĠL Ã¡t
ĠL ig
ĠL ittle
ao h
ĠS r
ĠS áº§m
ĠP ich
ĠP age
ĠP isa
Ġho m
ĠA uxerre
ĠNg u
ĠNg oan
ĠK L
ĠK w
ĠCh á»Ĺ
ĠCh uc
ĠD D
ĠD Ãłnh
ĠG Ã£
ĠG at
ĠG aulo
Ġy ahoo
al is
ia d
es el
ĠKh obar
Tr Ã¡nh
Ch áº£
ĠQu ÃŃ
ĠGi Ã£
at ex
ĠF il
ĠF IA
ĠF owler
is m
ra h
Ġso fa
Ġ19 46
it age
Ġca che
ĠY our
ag l
id i
Äĳ á»ģ
11 3
ak er
Ġgh iá»ģn
re w
io d
ell an
Ġ17 1
Ġ17 6
Ġf ran
Ġf estival
az ar
ĠChi ang
ik ov
ĠtrÃ¬ u
ĠSt raw
ros lav
ĠMan agement
uk e
gi Ãł
st all
ĠPr esley
ĠViet ravel
ĠSp y
ĠSp iel
ĠLam y
ĠPer ugia
ĠTam il
ĠSA V
Ġ38 8
ĠSi kh
ĠPro v
ĠPrem ium
ĠVI SCO
ĠGu antan
Ġsp a
ĠPier ce
ĠOp teron
him a
ĠCap ital
ĠBrom wich
chi ro
ĠAll ah
ĠBÄĲ N
val ds
ngh Ä©a
Par is
Ġcal ci
ĠBuff et
ĠGP RS
ĠLuc io
ĠLuc iano
II I
Ġvo á»įc
ĠEv ans
mm Hg
ĠKat ie
Ad r
ĠAra bia
ĠMik ael
ĠMik ado
ĠKal adze
ĠRay mond
ĠKhal id
ĠSher aton
ĠDio uf
ĠBC VT
Ġoz one
Ġprogester one
ĠWir eless
Ġcaffe ine
ĠBeck enbauer
ĠErn st
ĠArn old
ĠMatth ew
ĠGua temala
ĠConver ter
ĠNiel sen
ĠSic ily
ĠDeschamp s
Rich ard
ĠHLTT QG
Lat via
etl ana
ĠHotsp ur
ĠGuantan amo
5 19
? ,
@ )
C áº¥u
C á»Ĺ
C ola
C ofidis
D B
F ED
H áº¿t
H Æ°ng
I BM
L Ãłn
L á»«a
N inh
P ark
P utin
S á»Ľm
S ign
T Æ°á»Ľng
V Ã¢ng
V ina
b Ã¡o
b as
c es
c áº¥m
g om
h Ãºt
j ani
k ey
m Ãª
m iá»ģn
m Ã³c
n uÃ´i
t ent
v ec
x it
Ġ áº¡ch
į ch
Ġc á»¯u
Ġc á»£t
ĠÄĳ Ãły
nh á»ı
Ġv áº§y
Ġv Ã¹n
Ġh áº¥n
Ġh á»§i
Ġh ieu
Ġk o
Ġb áº¥p
Ġm á»ĳng
Ġnh áº£n
Ġs Äĥm
Ġn Ã¡m
Ġn á»ĭnh
Ġg á»£n
ph áº£n
ph á»¥c
Ġph áº©y
ĠT Ãºc
ĠT á»¥i
Ġr á»įc
ĠN ike
Ġx Ã³
Ġx á»Ļc
an to
ĠC au
ĠC ip
ĠC CB
Ġhá» ¥c
ĠH on
Ġchá» ı
ĠV ong
ĠV era
ĠB K
ĠB Ã²
ĠB ros
ĠB ordeaux
ĠM Ã£o
ĠÄĲ Ãª
ĠÄĲ á»ķ
ĠÄĲ áº¡m
ĠL á»±u
ĠS á»Ľm
ĠS PT
ĠS epp
ĠP ay
ĠA mar
ĠA TI
ĠK Ã¨m
ĠCh áº¿t
ĠCh iáº¿u
ĠCh ild
Ġ" .
ÄĲ Äĥng
ar ay
al do
al ian
em b
Ġtu lip
Ġ4 10
ĠKh en
Ġ6 40
ĠGi rl
ĠF ah
Ġ7 80
ĠW u
ra p
ĠJ our
ĠJ ane
ĠX K
ĠX N
ĠX abi
Ġ19 1
Ġto t
ĠY un
ĠY ale
th an
th iáº¿t
ĠO d
Äĳ á»ĳt
Äĳ á»©a
Ġtá»ĭ nh
11 5
ot ny
ĠAr ist
ĠAr thur
est in
ĠZ von
TT O
od a
oc ol
Ġ17 7
ĠSh aun
âĢ¦ ,
Ġ21 3
af f
ĠMic ros
ĠTá»ķ n
ĠWin dow
ax y
ĠAd idas
ma el
ĠSe a
ĠSe itar
ĠSo und
ĠEd win
ert en
ĠGl en
ĠMor occo
ĠSi beria
ĠBo ok
Ġpro t
ck y
ĠPan caro
ĠAc cess
org io
ĠPark inson
ĠBro ad
Ġlá»į i
ĠEn d
ĠKy aw
ĠVie w
Ġcar ot
ĠKl ien
ĠKho ai
ĠMel inda
ĠBas il
ĠMotor s
ĠJer main
ĠMarc ello
ĠSG H
ĠJa e
ĠUnivers al
quin ta
ĠCy ber
ult im
Ġsho pping
usal ka
eop atra
Pr emier
ĠGard ner
ĠOb afemi
ĠSiri wong
ĠBrook lyn
ĠHop kins
ĠJoh ann
ĠHeid feld
ĠSeong nam
ĠNich olas
ĠPhot os
ĠClo oney
ĠStockh olm
ĠGaulo is
ĠSpiel berg
7 19
8 13
= '
A T
B o
C áº§m
C Æ¡m
E cuador
F el
F or
G ÄĲ
G áº¡ch
H T
H an
K Ã½
M ax
P et
R á»Ŀi
R AM
S am
T áº¥n
T uyáº¿n
V áºŃt
Y an
Y áº¿u
b iá»ĩt
c c
c áº£i
c ai
f ess
g n
g inho
g anda
l ist
m ang
m es
m Æ°á»£n
n áº¡n
s á»£
s our
t Æ°
t á»ĳi
t iáº¿t
t iáº¿n
t is
x on
x uá»ĳng
Ã ģn
Ġ Ã²a
Ġ un
Ġ ĠĠĊ
Ġ iá»ĳt
ng on
ng uyen
Ġc asino
ĠÄĳ Ã¡c
nh á»Ŀ
Ġv Ã¨o
Ġl Ã¨
Ġh Ãºc
Ġch Æ°á»Ŀng
Ġb rowser
Ġm Ã³
Ġm Ã³i
Ġm ake
Ġs á»ı
Ġs ui
Ġn á»©a
Ġng áº¥y
Ġd Ã´ng
Ġph áºŃp
ĠT iá»ĩn
ĠT ed
ĠT uan
ĠT acchinardi
uy a
ĠN B
ĠN Æ°Æ¡ng
ĠN em
ĠN áº«m
ĠN issan
ĠC ay
ĠC á»ĳc
ĠC ob
ĠC uf
ĠC atherine
ĠH ari
ĠV illar
ch uyáº¿n
ch á»ĭu
ĠB uc
ĠM áº§m
ĠM ore
ĠM ort
ĠM ega
ĠÄĲ Æ°á»Ľc
ĠL og
ĠL ino
ĠS ton
ĠS ul
ĠS agnol
Ġlá» īnh
Ġkhi Ãªng
ĠP f
ĠP elle
Ġho st
ĠNg Æ°u
ĠNg á»±a
ĠK all
ĠD Ãłn
ĠD ak
ĠD ut
ĠD NA
en os
ĠG add
ĠPh áº¡t
ÄĲ á»Ļc
ar eva
ĠQ T
ĠR at
ĠR un
ĠR abin
ĠR usalka
Ġkhu Ã¢y
as il
ro p
ĠQu áº¯c
ĠGi Ãłng
ĠGi gab
at ti
ĠF al
ĠF oot
ĠW ell
ĠX á»ķ
ĠX ÃŃch
ĠX Ã³m
Ġso Ã¡n
it our
it ude
om an
Ġcháº¿ ch
Ġca f
Ġ9 50
ad ept
Ġchá»į t
th áº»
ĠAn a
ĠAn is
ĠO uma
Äĳ Ä©a
tr á»±c
ent al
á»ĩ ch
Kh ung
Ġ18 2
ĠHu Ãª
ĠCup er
ĠDo wnload
Ġ16 2
Ġ16 6
Ġ14 9
ĠMar ek
ĠMar ilyn
ĠZ hi
Ġ13 3
Ġ13 6
Ġ13 8
âĢ¦ )
ier ra
ort a
rid e
af ari
BÄĲ S
ĠPar t
ĠRom ano
aw are
ĠSan yo
ĠMon ica
ari us
ĠSA P
giá» Ľi
ĠPl us
ix on
ĠBul l
gon es
ĠMex es
ĠCo ok
ĠLev itra
org an
ĠAF F
ĠTor valds
ĠÃĶ i
ale ed
eri al
ĠXe on
Kim i
ĠAlb ania
197 3
197 9
lam yd
ĠÄĲN Ãģ
ĠJa ask
ĠCy gan
ĠAra gones
ĠVis ay
ĠHor ie
ĠPic t
ĠAp tech
ĠHein z
asc us
TMN CSG
Ġte en
ĠGI L
ĠArj han
acch eroni
ĠAlexand ria
Ġform at
rip t
Ol iv
ĠVel appan
Ġbox ing
ĠLag os
ĠLenn on
ĠLed ley
ĠColor ado
ĠMacedon ia
Ġthá»ī u
ĠYok ohama
ĠShak es
Dani el
Mur cia
ĠNol an
Patr ick
ĠFound ation
ubar ak
qt ada
Ġsaxo phone
elain en
ĠZvon areva
ĠSeitar idis
ĠPelle gr
ĠJaask elainen
) ?
3 17
6 11
8 18
A z
A sh
B inh
C áº¥p
C á»ķng
C up
D Ãłnh
F er
F DI
J orge
K e
M i
M áº¡ng
N ic
N áº¯m
P L
R og
R ock
S uy
V áº¯ng
V iew
b iá»ĥn
b á»Łi
b Ã¹a
c á»¥
c ul
d iá»ĩn
f ur
i ph
k ara
l Ã¡
m Ã£
m á»ķ
m gart
r iÃªng
s á»ĳt
x anh
z ar
z ema
Ġ Ã¹a
Ġ Ã¡y
ng he
Ġt Ã²ng
Ġc á»Ļc
Ġl Ã¡n
Ġch áº±m
Ġch á»Ļp
Ġnh Ã¢
Ġnh áº©m
Ġn Ã´m
Ġn Ã¡y
Ġg áº£
ph Æ°Æ¡ng
ĠT ÃŃ
ĠT TO
Ġqu á»ĩt
Ġr uá»ĳc
Ġr Ã©o
Ġthá» įc
ĠN ang
ĠC oun
ĠH il
ĠH ab
ĠV iv
ĠV SA
ch Ã¡u
ch ard
ch eng
ĠB KS
ĠB JP
ĠM O
ĠM Ã¢u
ĠM Ã¨o
ĠM ick
ĠM orn
ĠM ost
ĠÄĲ Ãºc
ĠTh iá»ģn
ĠTh á»ĳt
ĠL Æ°
on ce
ĠS pr
ĠS BS
ĠS ierra
Ġlá» ³
ĠP ad
Ġhá»į at
ĠA o
ĠA st
ĠNg uyá»ĩn
ĠK ay
ĠK ad
ĠK rist
ĠK iss
er ing
eo bi
ĠCh ong
ĠCh áº©n
ĠCh iÃªm
Ġ" ...
ĠD á»¥
ĠD ang
ĠD áº¡o
ĠD ip
ĠD iet
en thal
ĠG oh
ĠPh ÃŃ
ÄĲ áº¥u
ar oo
Ġlo áº¹t
es ton
... );
ĠU BT
Ġ5 10
ĠI ker
ĠKh in
Ġthi u
Ch Ã¡nh
Ch áº©n
ro und
hi to
ol bar
ĠJ I
ĠJ azz
Ġtho Äĥn
ĠX oÃłi
Ġ19 00
Ġ19 36
ĠAn ti
os i
ed an
ĠO ng
le ck
tr á»įng
Ġ15 3
oi j
11 7
ot te
ap ol
Ġ18 7
ev chenko
ĠAr ch
ob ac
Ġw ith
ĠInter f
Ġ16 4
ess io
oc us
Ġ17 2
ou b
ah ar
Gi áº¥y
ĠSt oi
Ġmu á»ĵi
ĠCar avan
ĠIs land
ĠBra himi
eg ory
Ġu áº¿
ĠMon roe
ow ling
ĠAm elie
ashi r
ĠMich ele
ĠEd ucation
ĠGl as
ĠSil ver
ĠWest life
Ġ39 0
tor o
eder sen
ĠPan is
ĠCo oper
ĠRich ter
Ġac count
ĠMil ito
ĠKu erten
enz ano
ĠFl amini
áº¢ ráºŃp
Mar c
ĠJer sey
ĠInd iana
ĠNguyen To
ĠVit al
ĠGra ham
ĠHal ida
ĠBon o
ĠJen son
ĠDam ascus
quy áº¿t
eneg ger
ĠGian luca
ĠAsia d
ĠCard iff
ĠBy ung
ĠEng land
Kho áº£n
ĠKn ight
xx x
ĠSac chi
asc adeur
Ġmeth anol
ĠIa quinta
ĠStan ley
ystem s
Ġmag iÃª
ĠCarib be
ĠMcCl aren
ĠDir ect
izz oli
ĠGem adept
Ġrub ella
ĠRoc chi
Ġreg istry
ĠPhar ma
ĠYam aha
ĠPel izzoli
ĠKes uma
( )
3 13
4 20
4 15
4 18
5 21
7 24
7 70
B i
B ern
C áº£i
C Äĥng
C redit
D V
D ung
D á»ĭp
E L
G H
G ar
I m
J er
J enson
L am
L uc
L otto
M á»±c
N áº¥m
S T
b om
c g
c abi
f i
g Ã¡i
i em
l ight
m áºŃt
m á»¥c
t Ã¬m
v áºŃn
v áº¥n
v iÃªm
v iet
v ideo
Ġ ex
á» ¦
ng ay
Ġt uá»ĳt
Ġv Ã³
Ġv Ã¡i
Ġv Ã¨
Ġv Ã¢ng
Ġv oan
Ġl Ã¬nh
Ġh Ã¹
Ġh ÃŃch
Ġm ain
Ġm essenger
Ġnh á»ĳ
Ġnh áº¡i
Ġs Ãª
Ġs in
Ġkh Ãª
Ġg áº¡n
ĠT Ãły
ĠT ui
ĠT ig
Ġr uy
Ġr áº¯t
Ġr á»¥c
Ġr áº·n
ĠN on
ĠN BC
ĠC Æ°á»Ŀi
ĠH áº¯c
ĠH ua
ĠH á»Ľi
á»Ł m
ch Ãłng
ch at
ch á»¯a
ch ange
ĠB ian
ĠB oca
ĠM áºŃn
ĠM Ã¡i
ĠM ate
ĠÄĲ á»§
ĠÄĲ áº©y
ĠÄĲ Ã£ng
Ġngh iep
00 00
ĠL ens
ĠL ight
ĠL ake
Ġ2 15
am ura
ĠS how
ĠS SA
Ġlá» ĥ
ĠP us
ĠP ul
ĠA ut
ĠTr a
ĠTr Æ°á»£ng
ĠK il
ĠK ings
ĠCh áº£i
ĠCh ao
ĠCh ing
ĠCh aik
Ġthu c
ĠD anny
ĠG y
ĠG raf
ÄĲ á»ķi
Ġ3 10
Ġ3 99
im ura
ĠR iaz
Ġtu á»µ
ĠU ganda
or illa
ĠI z
ĠÃ ģn
Ġcá»© a
Ch á»©c
ĠQu al
ĠW as
ĠJ ess
ĠX o
ĠX avier
ad el
ĠY ersin
th y
th á»ĭt
Ġkháº£ m
ur as
ĠO pportunity
ac io
tr iá»ĩu
Ph á»ĳ
ap an
ap ag
do va
Ġgh áº¹o
eb er
ĠÃ´ liu
ho Ãł
Ġchá»Ŀ n
ĠRe x
ard yce
ĠZ accheroni
ell ite
od er
Ġf e
ĠSh eikh
ub le
og en
ĠPar a
ĠIs mael
Ġtuy en
ud or
ud din
ĠGiá» įt
Ġ29 0
ast ic
ĠPhilip p
ĠPr udential
uc inic
ĠUn ic
ĠHam id
27 0
ĠBen z
Do om
ĠSy mb
ĠOs lo
CN TT
ĠMor te
ĠDe ep
ĠCor re
ĠCor lou
ago unis
ĠChá»£ t
km en
ĠSal i
ĠSal v
lu áºŃt
ĠHay e
ĠKar agounis
ĠLat inh
ĠSol ana
ĠEsp ey
ĠTu á»³
Ġnan om
ĠRu á»ĩ
ĠHass oun
ĠKur nia
197 2
ĠInd ustr
cher ano
des k
ĠMus ta
ĠRoy al
tain ment
ĠHer tha
gr ass
ĠNN PTNT
ĠPo int
ĠXNK VTÄĲB
Ġnit rate
ĠTC CN
ĠMir ror
ĠNap ster
ĠTe am
ĠTe er
ER T
ĠKir k
ĠEst eban
ĠEst rada
ĠGe um
esk ey
ĠKle berson
Ġbá»£ m
ĠMed ic
ĠUS ITC
ĠSeb astien
Ġpar acetamol
gy z
ĠTF S
ĠMach imura
ĠSap a
ĠLot us
Ġami Äĳan
SÄĲ NÄĲ
ĠTet ra
ĠNig el
Mod ena
Ir eland
Franc isco
ĠGPL X
Jar no
ĠXDC TGT
ĠBeat les
Ġfran c
ultim edia
Fel ipe
ĠCuf re
lamyd ia
Oliv ier
ĠShakes pe
mgart ner
ĠKurnia wan
3 000
3 19
B rien
C Æ°á»Ľp
D onald
E N
F IFA
G C
G á»įi
H Ã¡t
L y
M edia
M oham
N á»Ĺ
N á»Ńa
P ort
S á»¯a
T Æ°á»Ŀng
T á»Ļi
V F
V ote
V ASEP
b á»©c
b or
b Ã¨o
c anh
c á»Ŀ
d at
g ang
h orn
j l
k á»·
l ang
l Ãłng
p ole
r á»Ńa
s Æ°
s oft
t áº¡o
t om
z on
z yn
¡ n
Ġ á»Ńng
á» Ĭ
á» Į
Ġc áº¡y
ĠÄĳ Ã¹m
nh Ã¬n
Ġv áº¡y
Ġth Äĥn
Ġl áº©m
Ġh Ãºp
Ġch Ã´m
Ġch ampag
Ġb áº£nh
Ġb oy
Ġm áº£y
Ġtr á»ĭch
Ġnh ac
Ġs iÃªng
Ġn Ã¡n
Ġkh áº¡c
Ġg áº¥c
Ġng áº§u
Ġd Ã¡t
Ġph Ãłm
ĠT as
ĠÄĳá» įa
qu Ã¢n
Ġr ing
Ġr á»ĩp
ĠN in
ĠN irut
Æ°á»£ i
ĠC ore
ĠC BC
ĠC IE
ĠH eskey
ĠV ASEP
ĠV HNT
ĠV ucinic
ch Æ°Æ¡ng
ĠB eh
ĠM Ã¡
ĠM á»±c
ĠM á»¥n
ĠL ung
ĠL áºŃt
ĠL uyáº¿n
ĠL á»įc
ĠL ily
am en
ĠS B
ĠS ex
ĠS FC
ĠP edersen
ĠA I
ĠK ang
ĠK Ã´n
ĠCh in
ĠCh ol
ĠCh uá»ĳi
ĠD M
ĠD á»ĭ
ĠD iÃªn
ĠD or
ĠD á»įc
en se
ĠG an
ĠG á»ĳm
ĠG Æ°Æ¡m
Ġká» ģm
es ca
ĠR ou
ĠR ico
ĠR ose
ĠU N
Ġ5 60
Ġ5 80
ĠKh Ã¡i
ĠKh Ã¢u
Th Ã¬
Th Ãº
Th á»§y
ua ge
et z
Ch ip
ro ft
ĠE L
ol ski
ra b
ĠJ r
ĠJ ur
ĠY ev
ĠchÃŃ p
id ar
ĠAn kara
Ġkáº¿ ch
ĠO L
ĠO mar
10 1
Ġdi ox
av en
um e
ev el
ov ina
19 69
ich y
ĠRe p
Ġp an
ĠMar ino
ell ini
ub lic
ĠSt ade
all y
ĠChá»ĭ u
man y
af lop
17 0
Qu ay
Ġxo Äĥn
our i
ud y
eg raph
Ġxu á»ĥ
ri zio
ast ing
FA O
st rom
ini que
ĠSch m
ers ion
ĠCl ar
ĠCl eopatra
sk a
Ġtang o
ĠRo then
EC O
ĠlÃ² e
Ngh Ä©a
eal th
ĠdÃ² m
ĠPC I
Ġshow biz
ĠMat ta
CN V
ĠMor ales
Ġtá»§ a
ost ao
An ton
An cona
ĠTM CP
iss a
ĠLev ski
ĠAndre ws
ĠMos s
ĠMas ako
ĠMas cherano
Ġpen icillin
Ġhi Ãª
ĠAll ardyce
Ġká»ģ u
ĠDom o
ĠKl itschko
Bl ue
ĠBrun i
ĠLau ra
ĠGal axy
Ġsil ic
ĠLj ub
ĠPo ul
Os car
IM F
ĠIC ANN
Ġtie ng
ĠBus an
ĠNT K
US ITC
ĠBack up
ĠKenn y
Ġup load
ĠTrai anos
ĠKle in
ĠMell berg
chu áº©n
ĠNur emberg
ĠSv etlana
ĠUt ah
ĠTod ay
ĠAlm unia
ĠMem ory
yp ia
Rub ens
lov ir
Ġsty le
Ven ezuela
ĠLah m
ĠPod olski
ĠSoi chiro
ĠWander ers
ĠSno op
ĠAssoc iat
Tak uma
ĠLig ue
ocol ate
Rog er
cheng ladbach
kmen istan
Ġchampag ne
) ),
0 12
0 16
3 40
5 14
5 22
? ?
C V
F ile
G TVT
H iá»ģn
H iá»ĥn
H Ã³a
J eux
L áº¡m
M e
M u
M Ã£
M en
M or
N ay
O NG
Q N
R ec
S y
X NK
Y asser
c le
c Ã²i
c ard
d r
f ect
f oot
h ua
h á»Ĺ
k á»ģn
k man
k ovic
l t
l á»ĭch
t ÃŃn
u ff
w aleed
z one
Ġ á»£
Ġt et
Ġc lo
Ġc ascadeur
ĠÄĳ Æ°á»£m
Ġv Ã³t
Ġl iÃªm
Ġl á»§i
Ġh Ãªn
Ġh Ã¬
Ġch Ã£i
Ġm áº£
Ġm áºŃn
Ġs ale
Ġn á»ĭch
Ġn á»ĭt
Ġkh Ã¡o
Ġg ar
Ġd iá»ĩp
ph ou
ĠT ung
ĠT áº·ng
ĠÄĳá» ī
qu ay
qu áº£n
qu áºŃy
Ġqu Æ¡
Ġgi áºŃp
Ġgi áº»
Ġr Ãºng
Ġr á»Ŀ
Ġr á»¯a
Ġr á»ĩu
ĠcÃ³ ng
ĠN Ã´m
ĠN oh
ĠN ile
ĠN eh
Ġx iá»ģng
an u
ĠC ir
ĠC ab
ĠC ial
ĠH ack
ĠH ant
ĠH ond
Ġchá» ħ
ĠV at
ĠV ert
ch ui
ĠB am
ĠB um
ĠM á»Ļ
ĠM á»¡
ĠM oney
ĠÄĲ ÃŃnh
ĠÄĲ iá»ĩu
ĠÄĲ Ä©nh
ĠTh ang
ĠTh Ã³i
ĠTh oan
ĠTh eron
ĠL A
ĠL aser
ao lo
ĠP ek
ĠÄĳá»ĥ u
ĠA ud
ĠTr ib
ĠTr end
er m
ĠCh au
ĠNh áº¯c
ĠNh áºŃm
ĠnhÃł u
ĠD Ã¡n
ĠD ol
ĠD um
ĠD ah
Ãªu t
ĠG áº¯n
ĠG od
ĠPh iáº¿u
ÄĲ Ã¬nh
ÄĲ Ã¨n
ÄĲ á»©a
Ġkho áº£i
ĠR Ã¡ng
ĠR uss
el io
or ation
Ġ5 40
Ġthi ch
Tr áº¡m
as at
ĠGi v
hi p
ĠE D
ĠE iff
CM S
ĠF oss
is ter
Ġ8 14
ĠX Æ°á»Łng
ĠX Ãªut
it le
om on
Ġca ve
ad an
ad es
ĠY en
th ong
th áº±ng
th Ã©p
ag on
ag ar
ĠO f
ĠO re
un ce
ac cio
Äĳ iÃªn
ĠLan e
tr ai
tr á»ĳn
ĠsÆ¡ mi
um ber
ec a
Kh á»ķ
and ar
eb e
ĠtÃ¹ m
Ġw ifi
ho áº¡t
ĠAl k
ĠAl waleed
Ġ16 1
Ġ14 3
ĠMar inos
Ġ13 9
te iger
kh Ã³a
od en
ew ay
Ġcam corder
Gi Ãºp
oh en
ok er
ĠCar r
Ġ26 2
ams ul
uch ova
ĠÄĲT LT
ĠHy ypia
ach t
ff ield
ĠSch we
ĠTN T
ĠFran z
Ġngá»¥ m
ĠUn ion
Ġo áº±n
ĠEl li
ha jl
ĠAg resto
ĠAir es
ĠTM S
ĠBu enos
ĠSte pan
ĠPro c
ĠPro ject
ĠPro duc
TH SCT
ĠUy á»ĥn
ĠMo qtada
lu áºŃn
ĠBern ardo
ĠLat itude
ĠÆ¯ á»Ľp
ĠMac cabi
ins teiger
ĠPV ECC
ĠAngel os
Mal d
ĠNet Sky
ĠMi ami
ĠFl avio
ĠJan et
tre am
ĠHel en
eri Sign
ĠHa as
Ġ09 8
ĠInd ira
Ġcac ao
ĠPha phou
Ġli u
ĠEv ra
ĠEle ad
amb le
ĠID P
ĠIl hwa
Ġsal ad
ht m
ĠSerge y
ĠVis ual
ĠIC Q
ĠRad io
ĠFuj im
ĠDj ibril
ĠMell or
ĠBrug ge
ĠKos in
Ġnil Ã´ng
ĠFire Fox
Ġvá»± ng
ĠDer lei
ĠMaj est
ĠAtlant ic
Bu Ã´n
Cat egory
oth ai
FD Jeux
ĠUBC K
ĠYugansknefte gas
ĠNavar ro
ĠCec illon
ĠTrip oli
ĠNott ingham
robot s
ĠArist ide
ĠGlas gow
ĠCIE NCO
ĠCial is
ĠHant uchova
ĠPek erman
, '',
. (
3 10
4 80
5 18
5 13
6 19
6 18
7 12
9 12
B e
B enz
D Æ°á»£c
E ric
G Æ°Æ¡ng
H V
J o
M ont
O n
P I
P eter
Q uyáº¿n
Q SDÄĲ
S Ã³c
S mith
T Ã¡m
T op
V iÃªn
W ayne
a hi
c Ãły
c ung
f al
f Category
h em
h Æ°á»Ľng
l Ã´
l itter
m el
m Ãłu
m ert
n ich
r Ã´
s Ãłnh
t á»ĳc
t á»ī
t ions
Ġv n
Ġh ong
Ġh á»Ļc
Ġh Ãłu
Ġb at
Ġb ida
Ġm áº¿u
Ġm cg
Ġnh áº·n
Ġnh áº¿ch
Ġs un
Ġs á»§i
Ġn Ãµ
Ġkh iÃªn
Ġkh á»©a
Ġg Æ°Æ¡m
Ġg orilla
Ġng á»į
Ġd áºŃm
ph iÃªn
ph Ã¡o
Ġph áº£
Ġph iá»ĩt
ĠT k
ĠT áº£i
ĠT ik
ĠT ostao
Ġtá» Łm
uy ff
ĠN á»Ł
ĠN iá»ĩm
ĠN ino
an is
ĠC I
ĠC Äĥng
ĠC ross
ĠH in
ĠH ien
ĠV e
ch áº¿
ch Ã¹a
ĠB Ãºt
ĠB ort
ĠB og
ĠB ug
ĠB ahn
ĠM á»ı
ĠM ubarak
ĠÄĲ Ãłnh
ĠÄĲ áº³ng
ĠÄĲ un
ĠTh or
ĠL X
ĠL Ã¡ch
Ġ2 23
am co
ĠS Æ¡
ĠS oc
ĠS abri
ĠP ur
Ġgiá» ¡n
ĠK iáº¿p
ĠK wang
ĠCh urch
ĠNh iá»ħm
en der
ĠG ustavo
ĠG artner
ĠPh am
ÄĲ á»ĵi
ÄĲ CL
ar es
ar co
ĠâĢ ĺ
im et
âĢĿ ).
ĠU AE
ĠU NDP
Ġ4 25
ĠKh ung
ĠKh Ã´n
ĠKh Ã³a
Th o
Th á»©c
Th oáº¡t
ĠÃ įch
Ch Ã³
ro f
ĠQu en
ĠGi b
ĠE A
ĠF u
ĠF un
ĠF of
Ġ7 20
ĠW MA
ĠX X
ĠX á»©
Ġchu c
Ġchu an
th Æ°
Ġnghá»ĭ t
Ġ20 5
ed ski
Ġcá»ĳ p
ac ombank
ĠIn n
Ġ15 6
Ġ12 4
ak sson
ĠThu áº¥n
Ġcá»¥ i
ĠHu th
ul ina
19 45
19 46
eb a
ĠNgh á»ī
ĠAl ph
Ġ50 2
ĠDo k
ĠRe id
ĠZ u
ĠZ eman
Ġ23 4
ou te
ah an
az ole
Gi Ãłnh
ĠEm an
ass a
Ġru á»ĵng
co o
man uel
lo x
ĠCar les
ber l
ĠHuy nh
ĠIs aksson
ĠChamp ion
ĠGiá» ĵng
ĠBl an
gi Ã¡o
ĠWin othai
ĠCon trol
mar s
ĠPr enn
ĠDu o
ĠCam eron
ĠCam acho
ĠSch ool
ĠAm or
ĠAm eobi
ĠAnd r
ma ar
iz er
da q
ĠRo ad
con cat
Ġhu Ã½t
Ġmá»ı m
ĠPer uzzi
ĠOlymp ique
ash a
ĠGl enn
ĠMor atti
CS ÄĲT
ĠBo uma
ĠHP V
ĠPaul a
pp er
ĠGer main
ĠGer hard
ĠBul y
ĠVin com
ĠKar imi
ont um
org os
ĠPier luigi
ĠSim ba
oe ing
ĠBe irut
Ġchá»Ń ng
AF TA
ci al
ĠYo on
ĠMi hajl
uj i
ĠBas ra
ĠBas inas
orm ack
ĠLad y
Bl air
Sh ar
Sh evchenko
Ġcal or
ĠKur t
197 1
197 8
ĠDani ele
ĠCrist ian
Cl ick
ĠHal o
ĠVol ler
ĠRoger io
ĠDar io
ĠDar win
Ġcomp act
ĠWood s
Sc otland
atch ai
ĠMod ena
ĠÄĳáº½ o
ĠCE O
Pr imera
ĠHit achi
ĠMol ina
Æł NG
ĠAG F
Vic tor
for ce
Ġoz on
Ġmet al
ĠOm ega
ĠSn ow
Add Vote
ĠAtt ila
Ronald inho
Ġá»Ĳ c
ĠFilip po
ĠClean er
Gra dy
ĠByr d
ĠAff leck
Ġter aflop
ĠKamp rad
ĠFIA T
ĠProv enzano
ĠMicros ystems
ĠUBT DTT
ĠStoi chkov
ĠRiaz or
eber ria
ĠSymb ian
gyz stan
)), '',
ĠÄĳá»ī a
ĠNeh ru
ĠHond uras
ĠSchwe insteiger
ĠFujim ori
,'', '
' t
) &
2 15
3 30
6 16
A h
B er
C r
C ung
C ty
C IA
E n
E uro
H iáº¿u
J ens
K erry
L á»¥c
L iÃªm
L á»ĩnh
L ondon
L ux
L ife
N áº¯ng
N hi
N XB
O D
R u
R ab
R EE
T W
T y
T ao
T Ã³c
T áº¯m
T á»ī
V Ã©
W erder
W ire
X ung
X Ã³a
c á»±c
d ev
f r
h r
h ar
k Ã½
l Ã´ng
l á»Ĺ
l Ã³t
l ah
l esia
l á»Ľn
l aing
m Ãłn
n á»ĳi
s y
t á»©
v á»ĩ
w y
x ÃŃt
z er
Ã ¥
Ġ ?".
Ġt Ãºp
Ġc áº·m
ĠÄĳ áº£nh
nh iá»ĩm
nh áº¯m
Ġl Ã¹m
Ġl evel
Ġch áºµn
Ġb áº¹
Ġb enz
Ġb allad
Ġm Ã©
Ġtr Ã¢m
Ġs á»Ľi
Ġn áº±ng
Ġn áº¥ng
Ġng Æ°á»Łng
ĠT á»¥
ĠT áº£n
ĠT amp
ĠT ower
ĠT ouch
ĠT udor
qu es
Ġr á»£p
Ġr Æ°á»£i
ĠN ixon
Ġx Ã´m
ĠC áº¥n
ĠC á»ķng
ĠC Æ°á»Ľp
ĠC ohen
Ġhá» Ń
ĠH H
ĠH Ãºt
ĠH ed
ĠH ir
ĠH áº³n
ĠH LBÄĲ
Ġchá» ĩ
ĠV es
ĠV od
ch Ãło
ch áº¯c
ĠB ÄĲVN
ĠB Æ°á»Ľu
ĠB ashir
ai da
ĠM it
ĠM ath
ĠÄĲ iá»ĥu
ĠÄĲ Ã©c
00 1
ĠL iver
ĠS L
au ro
ĠP K
ĠP U
ĠP aing
ĠP OP
ĠTr Ã¢u
ĠK Ãª
ĠK om
ĠK ui
ĠK any
ĠCh ul
ĠNh ÃŃ
ĠD w
ĠD as
ĠG oi
ĠPh iÃªu
ÄĲ D
Ġ3 25
Ġká» ĩch
ĠR est
el ia
el ey
Tr Ã´ng
Tr á»ĭ
as bourg
ĠQu Ãł
ĠQu ick
ĠGi o
ĠGi áº£n
ĠE qu
ĠVN N
ĠF ood
ĠW att
ĠJ erry
ĠX Ãł
Ġ19 2
Ġ19 40
Ġ19 48
ĠY ala
th Ã´n
ag les
ur s
ur u
ĠAn cona
Ġ20 1
Ġ20 11
Äĳ iá»ģn
tr Ã¬nh
tr ino
Ph Ã¡i
Ġdi ch
ig roup
ĠThu Ãª
and in
ul d
ob o
ho Ãłng
re i
ĠRe iz
Ġ14 6
ĠZ ola
TT C
to ck
ĠBar ic
ab ani
Ġf lav
ah ri
Ġ22 9
ĠSt ilian
BÄĲ N
ĠSer ginho
ri ed
ĠRi b
Æ¯ ÆłNG
ĠPet e
KS KH
ari jani
ĠAnd or
28 0
28 2
iz on
ĠUn der
ĠTT K
tin o
29 0
Ġo Äĥm
Ġo unce
HH S
ĠLin d
der os
ĠPl an
kho e
ear ce
ĠCP I
aza a
ĠJe ong
ĠSen deros
ĠKar en
ĠJul iet
ĠCA RE
ĠFab rizio
ĠPV C
Ġtru oc
ĠCos worth
ĠMoham ad
ĠKe ith
ĠSm icer
ĠSu arez
ĠMer c
Ġcar ton
St ar
St uart
Ġand rogen
ngh á»ī
Ġxáº» ng
ĠGen oa
Mar seille
QT G
ĠSat ellite
ĠMah al
ĠWe ah
ĠTech combank
ĠLuc as
ĠGal asek
ĠDy er
BV QTG
Ġtestoster on
ds ak
ĠNat ure
ĠDan ube
Ġcat alog
esc u
ĠNG UY
ĠEng ine
ulo use
Gian carlo
ĠĠ ĠĠ
yad h
ĠEnter tainment
Per ugia
ĠBau mgartner
ĠWol ver
ĠWol ves
ĠBach elet
ĠFried rich
ieg el
ĠNow otny
ĠFreder ick
Ang el
amil k
Ġnicot ine
Ġkang aroo
Ġlá»£ m
ĠFut ure
Ġcaf Ã©
ĠVSA TTP
Ġgar age
Ġchá»ħ m
ĠVat ican
ĠAlk maar
ĠnÃµ n
ĠBort olo
ĠBahn ar
ĠFof ana
lox acin
ĠMihajl ovic
ĠReiz iger
" ),
% ',
5 29
7 30
7 80
8 17
> <
A Z
B om
C á»Ń
C áº¯t
D j
D mitry
G DP
I U
J a
P H
P MA
P ts
R á»Ńa
R oy
S E
S Æ¡
S im
T am
T oi
T omas
V ladimir
c roft
d Ã¢y
h á»ĵ
i world
k á»ĭch
l á»Ļt
l iá»ģu
l is
m iá»ħn
m and
n ar
p Ãª
p Ã©
r au
s Ã³ng
s un
s how
t as
u is
Ġ en
ħ nh
á» °
Ġc á»±a
nh áº±m
Ġth em
Ġl ia
Ġh Ã¢u
Ġh em
Ġch au
Ġch uá»ĳc
Ġb ua
Ġb ac
Ġb Ã¢ng
Ġb áº¥c
Ġb eng
Ġb á»§a
Ġtr ig
Ġtr uc
Ġs l
Ġn ia
Ġkh á»īnh
Ġg ÃŃ
Ġg ara
Ġd iáº¿t
Ġph ar
ĠT áº¯c
Ġqu áº¡
Ġr Ã³c
Ġr iá»ģng
ĠN TT
ĠN KD
ĠC Æ°á»Ľc
ĠC er
ĠC ra
ĠH Ãłi
ĠH uyáº¿t
ĠV Ã¡n
ĠV ent
ch Ã¢u
ĠB áº¿p
ĠB oa
ai d
ĠM á»µ
ĠM á»ĩt
ĠÄĲ oáº¡t
ĠTh inh
ĠL ay
ĠL ua
ĠL ED
Ġ2 12
am dee
ĠS id
ĠS ide
ĠS ept
uá»ĳ m
ĠP or
ĠP it
ĠP ah
ĠP ern
ĠTr áº§m
ĠNg Ãłn
ĠK ot
ĠK ost
ĠK ÄĲCL
ĠCh Ã³
ĠCh áº·ng
ĠD Ã¢y
ĠG in
ÄĲ L
ÄĲ á»Ļt
ÄĲ Ã³ng
ÄĲ oáº¡t
ar el
ĠR ot
el in
ĠKh iÃªn
ĠKh áº£m
il Ãª
il is
il do
il ova
Ġvá»ĭ n
Ch á»¯
Ch eney
ro t
at as
ĠE pson
ĠE tx
ĠF lo
Ãµ a
Ġan ti
ĠW ay
ĠW WF
ĠJ ai
ĠX Æ°a
Ġso Ã¡i
Ġ19 44
ĠHo on
Ġto anh
Ġ9 99
ur ich
os ite
á»ī a
Äĳ o
Äĳ Ã¡ng
Äĳ á»ĭnh
10 4
tr á»Ŀi
Ġ15 1
ing way
iv an
se ys
Ġ18 3
Ġ18 9
ĠAr man
ill ac
19 54
19 67
eb ay
Ġp oint
ĠMar ty
ĠÄĳá»ı ng
kh Ã¡c
kh á»ķ
kh in
kh tar
Ġ23 5
ab ase
ian t
ian to
Ġf iles
Ġ24 9
ĠMal i
ĠEm re
ĠSt or
man ia
ĠMan n
Ġxu Ã½t
op e
ĠCol eman
ĠRi yadh
Ġthá»ķ n
ĠVal ley
ĠMon tero
ĠAm ri
ĠAd ams
Ġcu á»ĵn
sk is
ĠRo ch
ĠSp ice
ĠTT BVQTG
ĠBer t
ĠDel aware
ĠSy n
ash vili
Ġbi Ãªt
33 3
Ġ34 7
ĠEx change
ĠSte wart
ĠSte phane
Ġkhuy en
ĠPro p
ĠAlex ei
ĠLev el
ind ex
Al essio
ĠBet h
ĠKar zai
ĠShi k
ĠMac apag
ĠPetro vietnam
Ġtru á»µ
ĠMer seys
ĠRam adan
ĠÃĶ tÃ´
Ġmm Hg
edon do
ĠRaf ah
ĠBos nich
ĠJac ob
ĠFre y
vic es
Sch alke
stan tin
ĠZam bia
ÃĶ i
ĠIM G
ĠZe us
ĠPort man
ĠMcC ormack
ĠRes ort
add en
ĠFuj i
ĠMetro pole
ĠZen it
hy un
ĠSuper Sport
ĠMol dova
ĠGold en
Ġgluc id
ĠNak ata
ĠGas ton
ĠSab rosa
ĠFranco is
ĠTF T
Ham burg
Ġcaffe in
ĠBad awi
ĠEb ola
ĠLet ard
IÃĬ M
ĠNas daq
ĠLap orta
ĠBiel sa
ĠCommunic ations
Pak istan
ĠTitan ic
ĠPant ano
osse um
omot iv
ĠGuard ian
kn app
fess ional
ĠMate ja
ĠChaik amdee
Lux em
Ġphar aoh
ĠSept ember
ĠMacapag al
) /
) ",
2 10
2 14
3 25
4 21
6 17
7 15
: "
? ','#
A I
A NH
B F
B R
B Ã£i
B Ãºn
D H
D an
D á»ĭ
F O
H iá»ĥu
H á»¯u
H uáº¥n
L áºŃt
M áºŃt
M áº¡nh
M Ã¹i
M iss
N uno
P K
P ierre
R ene
S on
S af
T Æ°á»£ng
U C
c á»¥c
c chi
d á»įn
g or
g ian
h Ã³a
l áº¡i
l Ã²
l ia
l oma
m Ã¹i
m á»ĳt
n ur
n ers
p m
p ap
r t
s am
t Æ°á»Ľng
t áº·ng
w agen
z illa
¡ i
Ä Ĥ
Ġ Ãº
Ġ ay
Ġ au
Ġ iod
Ġ organ
á» ¨
áº ¬
ng uy
Ġt iá»ģu
Ġt Æ°á»Łi
Ġc ell
Ġc over
Ġc asting
ĠÄĳ Ã¢
ĠÄĳ Ãªn
ĠÄĳ Äĥm
ĠÄĳ Ãªnh
Ġv áº¡c
Ġth Æ°á»Ľt
Ġl Ãº
Ġl ist
Ġh Ä©nh
Ġch eck
Ġk nock
Ġb ot
Ġb iáº¿c
Ġb owling
Ġm áº©y
Ġnh á»Ń
Ġnh uá»ĳm
Ġs áº¿u
Ġs ur
Ġn anh
Ġn áº¡ng
Ġn Ã©p
Ġn Æ¡m
Ġd on
Ġd is
á»§ n
ĠT iÃªm
ĠT ext
ĠT add
Ġqu áº·n
Ġr Ã´ng
Ġr Ã¡m
Ġr áº·ng
Ġr áº¯p
ĠN w
ĠN Æ¡
ĠN á»įc
ĠN uro
ĠN ero
Ġx áºŃp
an ne
Ġhá» ¡i
ĠH Æ°á»Łng
ĠH Ã¨
ĠH ist
ĠH ard
Ġchá» ģ
ay ee
ĠV áº¡c
ch Ã¬m
ĠB ic
ĠB Ã¡u
ĠB our
ĠB occ
ĠM áº¿n
ĠÄĲ u
ĠÄĲ ak
ĠTh ien
ĠL uy
Ġ( "
ĠS iv
ĠS á»Ńa
ĠS ams
au rus
ĠP y
ĠP HHS
ĠA V
ĠA aron
ĠK us
ĠK ut
ĠK oran
ĠK ily
er ob
ĠCh ad
ĠD Ã¡ng
ĠD ali
ĠG ab
ĠG ros
ĠQ N
Ġy our
al ie
ĠcÆ¡ i
ĠR á»Ŀi
ĠR IT
âĢĿ âĢ¦
el ine
el ect
Ġngo áº¡c
ĠI F
á»ı e
Th áºŃn
Th á»īnh
as an
ĠGi Ã³ng
at is
ĠVN NIC
ĠF O
ĠF an
ĠF am
ĠF ull
Ġan alog
ĠJ ia
ĠJ ema
Ġtho ang
ĠX oa
Ġ19 49
ĠHo w
it ute
Ġmá»į t
ĠY i
th rom
Ġ20 50
ĠO E
ĠO o
ac ia
ĠIn aki
Äĳ á»§
Äĳ Ã¢m
Äĳ á»ķi
Ġ15 7
Ph á»¥c
Ġdi esel
and elli
Ġgh áº¹
Ġgh Ã¬m
ĠLong horn
Ġnam e
ob ank
ĠÄĲH HÄĲ
ĠDo w
ĠDo om
ĠRe ader
Ġp ole
Ġp ress
ĠZ ampag
ĠZ urich
Ġ17 9
Ġf air
ain t
ĠSh ell
âĢ¦ ).
ĠMal ta
ĠEm in
ĠSt ick
ĠCar gill
Ġ26 5
Qu Ã½
eg er
uk ov
ĠCol lins
ĠCon s
ĠCan io
st ad
ĠMon te
ow e
mar ia
ĠTN CN
ĠSp a
ath ep
con om
ĠSc an
ĠTam udo
ino chet
ĠOs set
ĠCH F
ĠÄĲK T
ille pin
ĠMob il
ram a
75 5
ck er
ĠGu en
Ġcá»į p
ĠVin amilk
Ġ195 1
Ġ195 2
ĠTel egraph
ĠCas ar
ĠCas io
ĠMP EG
ware e
ĠSol ano
ĠSim pson
Ġsc reensaver
ĠFab ian
ĠÄĲB QH
ĠChrist ina
lan ta
ĠJav i
ĠTor o
Ġmá»ī a
ĠMi roslav
ks wagen
ise nh
ĠWil hel
HP HN
wan waree
197 7
yc lovir
ĠAsh ton
ĠDis c
Ġspam mer
ĠBur ton
ĠTR UNG
ĠHew lett
err ero
ĠCop enh
ĠVol kswagen
Ġhat trick
ĠEv o
ĠStr asbourg
ĠIl ham
ĠZh eng
rat ilova
ĠVis ion
ĠFred rik
Gian maria
ĠMoy es
ĠBlo khin
ĠKhal ed
ĠDr ive
ĠCorp oration
Ste p
ĠPhil adel
ĠCit igroup
oit te
ĠPrin ce
ĠLyn n
Ġ00 7
ĠShe ffield
ĠMaxim ark
Fab io
ĠAqu ilani
ĠDeng ue
Ġami Äĥng
Ġviol on
ĠSchwarz er
ĠSchwarz enegger
ĠSqu are
ĠHem ingway
ipp on
ĠKais erslautern
ĠHub ble
ĠLik ud
ĠDin amo
jp ayee
ĠClar ke
ĠEiff el
ĠEman uel
ĠAndor ra
ĠEtx eberria
ĠMerseys ide
ĠTadd ei
ĠSams idar
ĠZampag na
ĠOsset ia
ĠPhiladel phia
4 11
4 19
4 40
? )
A pp
B N
B ang
B el
B IC
C anh
C áº©n
D O
D is
D á»įc
D eco
F TA
H Ã¹m
J ames
K Ãªnh
M Æ°a
N Ã³ng
N ame
O W
P D
P lay
P LO
R ui
R aul
S et
S up
S tress
T Ã¹ng
T áº¡p
V y
X K
Y Ãªn
c Æ°á»Ľp
d áº¥u
e us
g roup
j ak
k it
k Ã©o
m á»įi
n á»Ńa
r io
r ut
s burgh
u hito
x Ãłi
y Ãªn
z b
± t
Ġ inh
Ġ all
Ġ out
á» ®
áº ¦
ng Ã£
ng Ã¢m
Ġt el
Ġt áº±n
Ġt Ä©u
Ġv Ã£nh
Ġl áº¿t
Ġl ap
Ġh ÃŃ
Ġh iÃªu
Ġch áº¥u
Ġb Ã´n
Ġm Ã²i
Ġnh Äĥm
Ġn á»Ľp
Ġng á»ķ
Ġd ance
ph in
ph al
ph Ã³ng
ph at
ĠT Ãª
ĠT eo
ĠT ag
ĠT os
ĠT NLÄĲ
Ġvá» ĵ
ĠÄĳá» įt
qu et
Ġqu Ã¡nh
Ġr á»ģn
ĠN ir
Ġx á»ĭ
ĠC SC
ĠC ath
ĠH and
ĠH leb
ĠH laing
ĠV á»Ł
ĠV on
ĠV MS
ĠV alladolid
ĠV illepin
ch áº·t
ch Äĥm
ch áº¥m
ĠB á»ģ
ĠB á»īnh
ĠB iz
ĠM am
ĠM im
ĠM bps
ĠÄĲ NA
ĠÄĲ MN
ĠTh á»Ł
ĠTh om
ĠL ac
ĠL oi
ĠL up
ĠL á»©a
am on
ĠS áº¡n
ĠP Y
ĠP am
ĠP ok
Ġgiá» Ŀi
Ġgiá» ±t
in ch
in der
ĠA IA
ĠTr áº¥n
ĠK iá»ĩm
ĠK BS
ĠK ontum
ĠNh á»±a
ĠNh Ã£n
ĠD á»¥ng
ĠD mitry
ĠG ro
ĠG ag
ÄĲ áº¥y
ÄĲ Ã¢u
ar ag
al Ã´
Ġkho m
ĠâĢ ¢
ĠR B
ĠR Æ¡
ĠR ivers
ĠR SS
ĠR edondo
Ġ4 60
ĠI f
ĠKh Ã¡
il en
Ġ6 30
Ch Ã¨
Ch Ãºa
at ed
ĠE isenh
ĠF loyd
is evic
ĠJ ude
ĠJ apan
ĠX inh
Ġ19 47
Ng á»§
Ng Ãłi
Ġphá»¥ t
ĠHo ff
ĠHo mer
it hi
Ġdá» ģ
ĠY áº¿t
ĠY ass
ĠY á»ĥu
ur eta
id t
id in
Ġ20 8
Ġ20 14
ĠO man
un n
Äĳ Ã´ng
Äĳ oÃłn
Äĳ á»ı
Äĳ á»Ŀi
tr á»¥c
Ġ15 4
iv in
Ph áº«u
11 4
ak ashvili
ev en
Ġá» ¦
ov i
ill es
Ġp H
Ġp er
ĠMar id
to k
te k
kh á»Łi
ĠLu d
ew ood
ĠvÃ© o
ĠBar r
oa h
Ġ22 7
Gi Ãły
ĠSh awn
âĢ¦ âĢĿ
ĠSt el
Ġmu c
ĠBr ig
if orm
eg an
á»ħ u
ĠCol d
ĠSan to
ĠSan toro
ĠPr andelli
ene k
ĠAi boy
ĠHen ri
SG D
ĠCl ichy
ĠTD DC
iz u
iz za
sk aya
enn es
ashi on
ĠBer ez
ĠDel oitte
ĠCal i
ĠCr uyff
ĠTo ulouse
ĠEd in
ĠMc F
ĠMc K
33 5
ĠPak sÃ©
Ġmi x
ĠGl obal
ĠHar ewood
ĠEx treme
ĠPro fessional
ĠOl mert
ĠHe it
ĠPan ama
ĠGu us
end ra
ĠNor man
Ġcl ub
ont rol
ĠTV B
bon ne
ĠJul y
ĠAt lanta
ĠGar eth
ĠBe agle
ĠCap e
ria ti
ĠBor ussia
ĠRa e
ĠKl oden
cho z
ĠBas que
ĠJack ie
ĠTur kmenistan
ĠVA MA
ĠNou vo
ĠSG K
ĠGP Q
ĠBal tic
ĠMax i
ĠRed knapp
ĠHal le
ĠChal le
ĠVa jpayee
ĠWolf gang
ĠAB TC
ĠEng lish
ĠDal ena
ĠHi ros
RE W
Ġnick name
ĠDra g
thi op
ĠKore a
Ġenzy m
ĠJeff rey
ĠCru is
Ex imbank
Viet tel
ĠAlexand ra
ĠMatt eo
ĠJar os
ĠStan ford
ĠKC X
ĠBj elan
ĠSiri wanwaree
Crist ian
ĠHav ana
ĠTod d
ĠDown ing
ĠNot ebook
ĠRaj iv
ĠLex mark
Ne ill
unk ett
ĠRus edski
uts al
Æ¯á» ľ
ĠYul ianto
ksand r
ĠLie chtenstein
Hung ary
ĠBran do
Brit ney
ĠTher dsak
ĠGat eway
ĠOd do
Ġprot id
ĠDut ch
ĠTeer athep
ĠShakespe are
ĠTas mania
ĠPoul sen
ĠVert u
mand u
Ġtrig lycer
atas aray
ĠBocc accio
ĠJema ah
Ġpress ing
ĠBjelan ovic
% :
4 90
7 14
8 16
9 11
B os
B est
B ook
C Ã¡t
D S
G V
G Ã¢y
G ary
H i
J ak
K EA
L Ã£o
L ive
L oáº¡t
M Ãł
M Ã¡i
M er
M Ã´n
N Ã©t
N okia
P ack
R A
S Ã¡t
T ÄĲ
T Ã´n
T á»©
T ui
T ÃŃn
T á»¥i
V áº»
W igan
Z sol
b Ã´i
b il
b ane
c ebo
f K
f am
h Æ¡i
h ud
k an
k ei
l inh
l áº¡nh
l ac
l á»Ńa
m ay
n á»ķ
n ot
n ier
s á»Ŀ
s tein
t Æ¡
t uyá»ĥn
t áº¥m
v s
v ent
v ana
x Æ°Æ¡ng
z ieri
Ã Į
Ã ©ng
Ġt Ã³
Ġc ass
ĠÄĳ áº§n
ĠÄĳ Æ°á»Ľc
ĠÄĳ áº£n
nh Ãºng
Ġv Ã¢
Ġth áº£ng
Ġl Ã¢
Ġl á»¯ng
Ġl áº¡p
Ġh ard
Ġh Ã©c
Ġch Ã¬nh
Ġch lamydia
Ġk et
Ġb Ã²n
Ġb Ãµ
Ġb ill
Ġm Ãº
Ġm Æ¡n
Ġm eo
Ġtr Ãª
Ġtr á»įi
Ġtr áº±n
Ġnh á»ĳn
Ġnh Ã£ng
Ġs and
Ġkh em
Ġg l
Ġg á»ĵ
Ġg ly
Ġng á»įng
Ġng Äĥm
Ġd em
Ġd áº·c
Ġd iá»ħm
Ġd á»Ńng
ph á»ĳ
ĠT á»§
ĠT Ã¡nh
ĠT ia
ĠT ake
qu i
Ġr ÃŃch
Ġr Æ°Æ¡i
Ġthá» Ľ
ĠN á»ĳi
Ġx oan
an cial
ĠC es
ĠC ua
ĠC ac
ĠC ot
ĠC av
ĠC BS
ĠC IT
ĠH áº¥p
ĠH ÃŃt
ĠH az
ĠH á»Ļp
ĠH anks
Ġcho áº¡ng
ĠV ib
ĠV eriSign
ch Ãª
ĠB re
ĠB REW
ĠM T
ĠM áºŃp
ĠM is
ĠM BC
ĠÄĲ Ã¡n
Ġngh Ã©t
ĠTh Ãły
ĠL áº¯m
ĠL ohan
ĠS F
ĠS Ãºc
ĠS eg
Ġlá» «
Ġlá» įng
ĠP ia
ĠP ot
ĠP ass
ĠP assword
ĠP inochet
ĠA E
ĠTr iá»ĩt
ĠTr ap
ĠTr ust
ĠK iÃªu
ĠK ed
ĠK asp
er ation
ĠCh ua
ĠCh Ã¨
ĠCh uyá»ģn
ĠCh á»¥p
ĠD ado
ĠD erby
ĠG Ã¡nh
ĠG ur
ĠG yan
Ġdo c
ÄĲ ua
Ġ3 22
ar an
Ġy á»ĥu
em ing
im in
ĠR V
ĠR áº¯c
ĠR el
ĠR and
ĠR á»ĳt
ĠU RL
or io
Ġ4 90
ĠI lan
ĠI KEA
ĠKh ui
Th ai
Th Æ°á»Łng
Th Ãºy
il in
Ġvi et
Ġvi rÃºt
et o
et s
as nie
Ch áº¥p
ĠE ff
ĠF ad
ĠF ur
ĠF uk
Ġ7 70
ĠW es
ĠW ushu
ĠW MD
ĠW AV
Ġ8 282
ĠJ VC
ĠX VI
Ġso ft
Ġ19 4
ĠHo k
it ies
om er
Nh a
Nh áº¯c
Nh á»ĭp
ad ow
ĠY us
th ÃŃ
id ia
id ent
Ġ20 6
Äĳ Ãºng
Ġdu ong
tr l
tr á»Ł
12 3
Ġ15 00
do g
ev edo
ill y
ir on
Ġw indows
ich i
Ġp od
ĠMar wan
ĠZ otti
Ġ13 1
Ġ17 3
Ġ17 4
Ġ23 9
ĠBar ros
az ol
ik ini
ĠEm ma
ĠSt uart
ile y
ĠGia com
Ġe Office
af one
Ġxo Ãłng
ĠMic oud
op ro
ox if
ĠCol osseum
ach uk
ĠDav e
ĠDu áºŃt
ĠAb bon
ĠCam illa
ĠHen d
ĠTN K
ers ky
Ġcu á»Ļi
Ġnhi Ãª
Ġngá»¥ p
ib le
sk ei
ens or
ek a
ĠJohn s
con sin
ĠSc andin
ĠCN VC
ĠTo olbar
ĠTim berl
ĠChu á»Ļt
de en
ĠÄĳá»¥ n
idd le
ala j
dor os
IC A
van in
ĠGu errero
ĠWal ker
ĠWal kman
ĠHol mes
ĠAndre i
red o
ĠIr ureta
ĠBe er
ĠPetro va
ond hi
ĠAngel a
sh er
ĠIb arra
ĠGM C
ĠJan eiro
akh et
ĠKr ung
ĠtÃ² an
ĠAz evedo
ĠVo ice
ĠMak er
Ġbo ot
ĠNic ola
eck ner
ĠGall ery
ĠSP F
EU TE
Ġz ona
Cá»© u
ĠPost iga
Ġ(? !)
ĠChan vit
AR A
ĠIm age
ĠDub lin
And res
ĠOle g
ĠHá»Ĺ n
ĠVP Bank
ĠBab y
ĠKn ow
ĠArt media
dan zieri
ĠPitt sburgh
lant ic
ĠGI F
ĠIt imi
Ġoff line
ĠBru eckner
ĠAgu il
ĠDen is
ĠAuto desk
ĠKap sis
Nghi Ãªm
ĠDev el
ÄĲK VÄĲ
ĠCarac as
ĠCorn ell
Alex ander
ĠSah ara
ĠAR V
ĠCarib e
Rom ania
ĠInf orm
ĠSylv ain
ĠNab il
ĠMaz da
ĠPav on
ierre z
ĠGran t
ĠHann over
umb ai
Jon es
ĠOver mars
ĠJob s
Ġec zema
ĠCarbon i
ĠFil ho
ĠJour nal
itour ist
ĠPict ures
ĠDip loma
ĠAssociat es
ĠRuss ell
ĠPhaphou vanin
ĠZu ellig
Rab obank
Ġhá»Ń ng
ĠVod afone
ĠRib eiro
ĠWilhel m
ĠCopenh agen
ĠRivers ide
ĠEisenh ower
Zsol t
ĠAbbon danzieri
ĠTimberl ake
EUTE RS
+ ,
0 24
3 80
4 30
4 17
4 22
5 30
9 17
B áº¡c
B ro
B ox
D r
F M
F red
H D
L ÃŃnh
L Ã²ng
M b
M Ã¡u
M SN
N o
P owell
R um
S ung
T u
T áºŃn
T iáº¿t
U K
V oi
W ork
b Äĥng
b ish
c á»Ļng
c ase
c raft
d ing
f ood
f lu
f pt
g áº¥p
g it
h ampton
j et
l ai
l Äĥng
l á»±c
m áº«u
m od
m ade
m aine
m bie
r ton
s w
s Ãª
s á»Ł
s Ä©
s or
v ar
v eg
x ton
y u
y ong
z ig
Ġ ÃŃ
Ġ á»Ľn
Ħ N
Ġt Ãły
Ġc Ãµng
ĠÄĳ áº·ng
Ġv al
Ġv iá»ĥn
Ġl Ã©t
Ġh Ã³ng
Ġch áº¡
Ġb ack
Ġtr ui
Ġnh áº£nh
Ġs ec
Ġs ize
Ġkh Æ°Æ¡ng
Ġkh áº¥m
Ġng Ã¡o
Ġd B
Ġd ec
ĠT ong
ĠT á»³
qu áº§n
qu ba
Ġqu áº¿t
Ġr á»§ng
Ġr Ã¢t
uy nh
Ġx á»ĳi
ĠC V
ĠC Ã¡o
ĠC raw
ĠC trl
ĠH áº¡c
ĠH ui
ĠH amp
Ġchá» £p
ĠV asco
ĠV XL
ch áº¥p
ch áº£y
ch á»Ĺ
ĠB ung
ĠB Ãºp
ĠB ox
ĠB org
ĠB IDV
ai c
ĠM á»ķ
ĠÄĲ L
ĠÄĲ em
ĠTh Ã¡ch
ĠL Å©ng
ĠL á»±a
ĠL ock
ĠL iz
ĠL ost
ĠL aptop
ĠL arijani
ao urt
on in
ĠS ob
ĠS áºµn
ĠS tein
ĠS ondhi
au gh
ĠP u
ĠP ath
ĠP omp
ĠTr Ãłm
ĠTr uong
ĠNg Ã¢m
ĠK ah
ĠK olo
ĠCh áºŃm
ĠCh eng
ĠD Æ¡i
ĠD uma
ĠG Ãłnh
ĠG au
ĠG ale
ĠPh Ã¡n
ÄĲ áº·ng
ÄĲ áº¹p
ĠR ho
ĠR iegel
el eman
ĠI w
ĠKh am
Th an
Th or
Ġthi et
ĠTP M
Tr an
Tr áº£i
Ġkhu i
Ch á»Ŀ
Ch Ã¹m
Ch á»¥p
us i
ĠQu anh
ĠGi Ãł
at ic
Ġtra ck
ĠE re
ĠE ka
ĠF TP
Ġ7 37
ĠW ong
ĠW EF
ĠJ aya
Ġso und
ĠHo tel
Nh Ã£n
Ġ9 15
ĠÄĳá»§ i
th áº¥p
id on
ĠAn tar
ĠAn sar
ĠIn vest
Äĳ Ã´
Äĳ áº¹p
tr ÃŃch
12 1
11 8
ot ta
ap a
ev iew
19 60
19 68
ĠÄĲH SP
Ġw orm
Ġw orld
Ġ16 7
Ġp izza
ard en
ĠZ ell
Ġváº» n
to cin
kh Ã¡t
Ġcan Ã´
oc cini
ĠcÅ© i
Ġ23 3
ab y
30 18
ry z
Ġ24 5
14 1
ĠSh am
âĢ¦ .
ier e
ier o
13 5
af il
ĠCar ey
ĠBr ain
if a
aw son
ti had
ĠAC E
ĠCol a
Ġu áº©n
ĠRob redo
ach enko
ug g
ĠPr esar
ĠPet it
ĠCam ara
ĠHen choz
ens el
EC D
Ġhu ong
ĠBen ed
ĠBen nett
ĠSo on
ĠPer cy
ĠEr win
ant es
car do
ans a
kho a
ann el
ĠSil icon
ĠGer ald
Ãģ CH
Ġi CMS
ĠFA O
km ode
ĠAc yclovir
ind elli
ĠCA D
ĠBill board
lan do
ĠEto o
Ġur e
Ġtru á»ĵng
chi ot
ĠLar s
ris k
ĠFerr aris
ĠApp iah
Bol ivia
ĠFl eming
ĠBas ic
ĠOr ig
Ġinch es
ĠRu f
bl ock
ĠInd ian
yc line
ĠLau r
oll ah
ĠSor bonne
ĠGal atasaray
ĠAy rton
ĠTy ler
ĠBD D
ĠWat ch
ĠPost ed
ĠMary land
unt O
ĠZe itz
ĠPort able
ys s
ĠCur ro
ĠDal ian
ĠngÃ² ai
lic ation
ĠKan u
ĠKan oute
ĠAnder sen
Olymp ique
zh aria
ĠBrug ada
ĠJar no
Ġxá»ĩ ch
ĠBai a
ĠAmbros io
buk tu
____ ____
ĠMain z
ĠCommun ity
ĠSah dan
ĠÃĬ ÄĳÃª
ĠMul ler
ĠMcCl ellan
tho Ã¡t
ĠWis consin
aph arco
ĠInst itute
ĠAtlant is
ĠThat cher
ĠJup pÃ©
str uc
ĠSou za
ĠAug ust
ĠSha ath
ĠBloom berg
ĠBerk eley
Her tha
Ġmil imÃ©t
ĠBey once
ĠKyr gyzstan
ĠDud ek
ĠVient iane
ĠAllian z
ĠManh attan
Adr iano
gom ery
ĠVillar eal
ĠMort en
ĠQT KD
ĠFoot ball
Ġfe et
ĠDok ic
ĠDw ight
Ġcatalog ue
ebay or
ĠMarty n
erob ic
ĠÄĲKT QT
ĠGag arin
ĠYass in
ĠHeit inga
thiop ia
ĠKed iri
ĠEka phan
ĠPresar io
3 14
4 60
6 15
6 25
6 80
8 12
8 40
: \
A c
A le
A NG
B Ã²
C Ãºp
C le
C oi
D áº¡o
E r
F ol
F ederer
G TCC
G litter
H e
J A
J ean
K em
K ÃŃch
L áº¡c
L Å©
L Ä©nh
L HP
M Ãª
M á»Ŀi
M á»«ng
M ate
M Hz
N á»ĳi
O A
O r
O pen
R T
R ed
R alf
S andy
T e
T Ãº
T Ã¡i
T á»Ń
T uyá»ĩt
V iáº¿t
V TC
W olf
c z
c uá»ĳi
f ig
f ried
g áº¡o
g era
h ang
h iá»ĩp
k iá»ģu
k iá»ĥu
l áº¡
l áº¡c
l á»įt
l Ã£nh
m áº¡ng
m á»¹
m á»ĩnh
m ers
o on
p as
q sa
r ao
r ice
s uy
t v
t uyÃªn
t ia
t á»Ľi
u o
v Æ°Æ¡ng
v ain
w eger
x Ã©
Ġ Ã¡ng
Ġ as
Ġ á»©a
ng ang
Ġc Ã²m
ĠÄĳ áºµng
nh Ã¡i
nh áº¹
Ġl Ã¹
Ġl Ã³a
Ġl Å©i
Ġh Ã²i
Ġch Æ¡
Ġch eo
Ġch iá»ģn
Ġb Ãºng
Ġm p
Ġm Ãµm
Ġtr áº¡ch
Ġnh Ã³
Ġnh iáº¿c
Ġs Ã¬nh
Ġs áº©n
Ġs ulf
Ġn á»¥c
Ġkh eo
Ġg al
Ġg áº¥m
Ġg áº·ng
Ġg ran
Ġng áº¡nh
Ġng á»Ļp
Ġd áº£
Ġd es
Ġd Ã¬m
ph et
ĠT I
ĠT áº£
ĠT iá»ĩc
ĠÄĳá» ħnh
Ġqu áº«n
Ġqu áº¡nh
Ġr áº§n
Ġr áº¡o
Ġr á»ıi
Ġr á»©a
ĠN Ãł
ĠN Ãły
ĠN á»ĵi
ĠN á»ĵng
ĠN áºŃm
ĠN á»Ļp
ĠN ash
ĠN ation
Ġx Ã¡ng
Ġx áº©u
ĠC e
ĠC á»±
ĠC Æ°á»Ľi
ĠC CH
ĠC ourt
ĠH áº¡o
ĠH á»ħ
ĠH ani
ĠV M
ĠV ne
ĠV iera
ĠV ryz
ch á»įn
ch uk
ĠB L
ĠB eng
ai ca
ĠM E
ĠM r
á»¥ a
ĠTh a
ĠL es
ĠP az
ĠP TV
ĠP eng
ĠP yo
ĠP rog
ĠP uma
ĠA BA
ĠNg Ã²
ĠK un
Ġthu at
ĠNh at
ĠD R
ĠD á»¯
ĠD ÄĲT
ĠD eg
ĠD epp
ĠG E
ĠG n
ĠG fK
Ġdo main
ÄĲ inh
ÄĲ á»ĳng
ÄĲ Ã³n
Ġquy á»ĩt
Ġlo Ã¡t
ia gra
ĠR EUTERS
or r
Ġ5 000
Ġ5 30
Ġngo áº£nh
ĠÃ Ģ
il ever
Ġta c
Ġ6 20
Ġ6 80
Ġ6 36
Tr ÃŃch
Tr Ã¡ch
et y
as te
ro tt
ic ic
ic ut
us ic
at us
ĠE z
ĠE do
ĠE agles
ĠF oster
ĠF eyenoord
ĠF yss
is ner
ĠW eng
ĠW AP
ĠW PMA
Ġ8 23
ĠJ ura
ĠX Ã³a
ĠX oan
Ġso da
ĠHo i
ĠHo mo
om i
Ġchu m
ad in
ĠY H
th áº£
th ÃŃch
th á»©c
th ers
ĠdÃ¹ m
ag g
ag ic
ag ing
ag land
ag ner
Äĳ á»Ļt
Äĳ áº¡t
12 7
ĠkhÃ¡ u
ent in
Ġngu on
11 1
ev es
ir eless
ul ar
ul as
19 0
ho ff
Ġ25 2
Ġ16 8
Ġp ap
ĠMar ko
ĠMar let
ĠMar esca
ĠLe one
ĠZ ah
ĠZ oom
ell es
te x
kh Ã¡
kh áº©u
ĠBar t
ab a
ĠphÃ¹ n
Ġ24 3
Ġin tif
Gi orgio
ĠEm manuel
ass am
ut am
13 1
ta wi
ne ft
pr on
ĠPal t
ĠCar ri
ĠBr ist
ĠBr amble
ĠBa ath
ĠBa quba
com m
ĠBl ake
ĠBl unkett
Ġ29 9
ĠCol occini
gi áº£
ĠCon n
ĠCon tin
st ant
ĠPr esc
ĠEU R
ĠCam era
ĠAm iro
ĠAd vanced
ĠAd zharia
ĠSp itzer
ĠUn ilever
ĠHam ilton
ĠTT YT
ĠCal apharco
ĠDN S
ĠEl en
ĠMc L
ĠLin da
ĠHS V
Ġlá»¥ ng
ĠSA T
der rama
ĠOlympic s
ĠBo ul
ĠSa akashvili
yl ch
idd h
ĠSam mer
ĠEx xon
ĠTom m
ĠBern d
ĠRich ie
65 9
ĠShi eld
ĠFranc es
ĠIr ina
ĠCap riati
he at
ĠUr zai
Ġ77 7
AF C
ĠStev ens
ĠMa hid
ĠRam adi
DI S
ĠLÃ£ m
ĠMel chiot
ĠHD D
ĠSav e
ĠTa ekwondo
ĠGre at
áº¢ NH
ulin um
rik a
yc lo
ĠSG P
ĠLau rent
ĠBur k
osh enko
ru á»Ļt
ĠWat ford
tamsu Subject
Mich el
work s
ĠMir za
ult an
Ġá»ī m
Gh áº¿
Gh en
Ġhe ad
dar ic
ĠDisney land
ÃĬ N
ĠAdv ent
Ġnu oc
ĠBak ar
TR UNG
cl air
Ġamin o
ĠBir indelli
Ġup date
Ab d
arn ing
ĠMand elson
otter dam
Vic arrent
ĠChristoph e
ĠYak in
Ġsam ba
ĠBarb ara
á»Ĳ c
Re agan
ĠPho en
ĠHad ley
ides how
ĠHis lop
ĠPos tel
ĠTi Vo
ĠSqu illac
ĠBurn s
ĠGus ev
ĠNikol ai
ĠMetropol itan
Dom esco
Wal ter
ĠHag ia
Lar sson
ĠKw asnie
emb ley
enthal er
ĠJess ica
ĠOL ED
Ġtet rac
ĠAlph onse
pap er
ĠNw achuk
ĠEmin em
ĠGuen ther
Pack ard
Ġcass ette
Ġsand wich
ĠCes are
ĠGyan endra
bish ley
ĠCraw ford
ĠVryz as
ĠFyss as
ĠUrzai z
ĠMahid ol
& )
' ?
0 19
0 15
2 17
3 60
4 99
7 21
8 25
8 80
8 90
A li
A mer
B B
C u
C áº©m
C are
C ost
F S
G r
G áº¡o
H á»ĳ
H áº¡ng
J i
J uve
K iatis
K rung
L EM
M as
M iguel
N uÃ´i
N Ãºi
N SND
O f
O racle
P ir
R af
S Æ°
S aw
S oftware
T L
T iáº¿c
T okyo
U EFA
V f
V ie
V CB
W e
X ÃŃ
b áº¿n
b et
b á»¯a
b eni
c Ãł
c Æ°a
c Ã¡nh
c im
d d
f ul
h er
h iá»ģn
h us
h á»ıi
i i
j s
j ia
j andro
k iáº¿m
k Ã¨m
m s
m ing
n Äĥng
n os
n ld
p amine
r Ãª
r ec
r Æ°á»£u
s berg
t Ã²a
u ley
x o
y ama
z ip
Ġ Â
Ġ Ã©m
ĥ nh
á» ļ
Ġt áº¹o
Ġc Ã¹n
Ġv eo
Ġth inh
Ġth áº«n
Ġth Ãªnh
Ġl ep
Ġb Ä©nh
Ġb áº¹t
Ġb áº½n
Ġb á»§n
Ġm Æ°á»Ŀng
Ġm áº¡p
Ġm Ã³t
Ġtr Æ°á»£ng
Ġnh á»Ļng
Ġs áº¿n
Ġs Æ°á»£ng
Ġs á»ĵn
Ġs ter
Ġkh Ã²
Ġkh anh
Ġkh Ã¨n
Ġg Ã¹i
Ġg lu
ph er
ph ine
Ġph ay
Ġph at
Ã¬ u
qu en
Ġqu ÃŃt
Ġqu áº±n
Ġgi áº¡t
Ġr ec
Ġr á»Łm
ĠcÃ³ t
ĠN Ã³ng
ĠN eb
ĠN ina
Æ°á»£ p
ĠC á»ĵ
ĠC eb
ĠH id
ĠH iro
ĠH unt
Ġchá» ĵ
ĠV n
ĠV Ãº
Æ°á»Ľ m
ch am
ch iáº¿u
ch ers
ch á»¥p
ĠB Ã¹ng
ĠB á»Ļc
ĠB od
ĠB ever
ĠM M
ĠM áº£i
ĠM á»«ng
ĠM uk
ĠM ID
ĠM umbai
ĠTh iá»ĥm
ĠTh á»£
ĠTh áº£m
ĠTh ames
ĠL und
ĠL ith
ĠL iew
Ġ2 14
on line
ĠS á»©t
ĠS ax
ĠS á»ıi
ĠS ib
ĠP E
ĠP un
ĠP ew
ĠP Ãªnh
ĠP uer
ĠP DE
Ġho en
ĠA Z
ĠA AC
ĠA TA
ĠTr u
ĠTr á»Ľ
ĠTr istan
Ġcáº£ o
ĠK up
ĠK oh
ĠK azaa
er ton
ĠCh áº£y
ĠCh id
ĠD iÃªu
ĠD iá»ĩm
ĠD all
ĠD á»©a
ĠG ang
ĠG ore
ĠG aul
ĠG he
ĠG ull
ĠG Ã³p
Ġdo cument
ĠPh á»ĳi
Ġ3 45
Ġ3 33
ar u
ar ine
ar iddh
ĠQ aeda
Ġthá»§ i
im ov
ĠR al
ĠR áº¡p
ĠR Ã¨n
ĠR OM
ĠR otterdam
... âĢĿ,
ĠU sher
or ial
ĠKh ar
ĠKh Ã³i
Th uyá»ģn
Th ierry
Ġta b
Tr ai
ro d
ic in
ĠQu Ä©
ĠQu oc
ĠGi orgos
at lantic
hi r
ĠE ther
ĠE isner
ĠVN SA
ĠF ant
ĠF ilm
ĠF aso
Ġ7 10
Ġ7 75
ĠW embley
Ġ8 30
ĠJ aw
ĠX Y
ĠHo en
ĠHo pe
it as
Ġbu á»Ļt
Ġban d
ĠY ah
th Ã¡nh
th áºŃm
Ġphá»ĳ t
Ġnghá»ĭ u
Ġ20 4
ĠO tt
Äĳ inh
tr Ãºng
tr á»£
Ġngu á»ĩch
Ph áº¥n
ap ter
ig ang
ĠThu ong
ĠThu á»Ł
av ong
Kh uyáº¿n
ov in
ĠAr k
ĠAr ne
Ġgh Ã©m
ul i
19 5
Ġláº½ n
ĠAl en
ĠAl ice
ĠAl ps
ion eer
Ġ16 3
ess y
Ġp art
Ġp ost
ĠMar ina
ĠLe win
ĠZ one
ĠLu cky
Ġ23 1
ou ver
Ġf utsal
ah ara
az ir
Ġ22 8
Ġtá»¥ m
Ġ24 2
14 5
ĠSh uk
ĠSh imb
ĠChi esa
ut ing
ut ton
ut to
og lob
ta f
Ġ28 5
ber ra
ĠBr daric
ĠPM S
ĠIs a
iet o
eg beni
ĠÄĲT ÄĲ
op ko
ko zy
Le on
ĠWin s
ien s
Chá»ĭ u
ĠPr Ã´ng
ver s
ĠCl uley
ĠtÃŃ u
ens son
Con n
ĠCÄĲ BT
ei j
BC H
ĠTo ols
eng e
Do S
ĠTim buktu
ID E
ĠMc Donald
Ġbi Ãª
ĠBol lywood
sp ot
ĠSA TA
Ġrock er
ĠCor r
ĠCor all
ĠBo er
ĠBo chum
ĠCharl otte
Ġ37 5
erb ird
ĠPro t
Ho Ã£n
ĠFA RC
ck et
ĠMark ov
ĠSal am
ĠBet a
ĠTV QH
ĠShi z
ĠAngel o
ĠMil ton
Ġoxy tocin
ĠFor s
ĠFor ever
ĠMer ck
ĠMont gomery
ĠDom inique
ĠKho áº£nh
St uttgart
St eve
ĠLang uage
gu le
ĠRaf a
ĠIvan isevic
ron ic
ĠJo chen
ĠJo iner
edo or
ston e
ĠBur dis
ĠBell s
ĠCM DB
ĠCen tre
ĠLuc y
ĠGra eme
ĠHer itage
ĠJacqu et
ĠWar ren
ĠOpen View
Ġnit ric
ĠNar uhito
ĠSouth ern
ĠVer p
ĠMiss ouri
Pal estine
ĠAlfred o
ĠCur bishley
ĠBig foot
ĠBak er
hy p
Christ oph
ĠFri end
Ab bas
ĠBau mann
ĠPap ua
ĠElectr ic
ĠKam eni
ĠSport ing
ĠAlexand re
kar atedo
oit re
ĠCentr al
nghi Ãªm
ĠId ol
ĠWir anto
ĠSv ensson
ĠJunior s
ĠAlv arez
ĠSylv ie
ĠVinac ontrol
ĠSev ille
ĠDim itar
ĠBow yer
Ġviol et
ĠMÃ¡t xcÆ¡va
ĠFreder ic
Sun na
ĠLiv edoor
ĠCent ury
ono id
igg s
ĠActive X
ĠNav ratilova
FFFF FF
Ġus er
ĠGenn aro
nhe it
ĠRF ID
ĠAward s
ĠRaff arin
aim ler
vec i
ĠMore ira
ĠPellegr ini
dev ila
lesia s
group s
á»® U
arag ua
ĠKah veci
ĠRuf ete
ĠPresc ott
ĠSquillac i
Vie ira
ĠPuer ta
ĠShimb un
ĠBurdis so
' m
) !
0 80
2 12
4 23
5 65
6 21
8 30
9 60
; -
> =
B áº¡ch
B rowser
C Ã²
C Ã¡o
C ad
C á»§a
C rystal
C ache
D ortmund
F assa
G en
G á»ıi
G abri
J D
K u
K ing
L ab
M iá»ħn
M NÄĲ
N P
P F
P ablo
R am
S eb
S und
T ext
W il
W enger
b ai
b Ãło
b á»ĵ
b áº¡o
b áº¯c
b iáº¿u
c Ã¢n
c áº¯m
c ent
c oi
f o
g á»ĳc
g ers
h Æ°Æ¡ng
j fal
k ÃŃch
k font
l á»¡
m Ã¹ng
m áº·n
n Ã´
n on
n á»Ĺi
p u
r ong
r ams
s il
s oi
s te
t áº¯t
t ual
t ime
u ang
v anh
v á»¡
x Ã¡c
x Ã³a
x Ã³m
y i
Ġ #
Ġ ir
á» ĦN
ng o
Ġt á»Ļ
Ġt uá»ĳc
Ġt uyá»ģn
Ġt itan
ĠÄĳ Æ¡
nh an
nh anh
Ġth Ã¢y
Ġth áº©n
Ġh er
Ġh iá»ģm
Ġh GH
Ġch Ã¢
Ġch áºŃn
Ġch áº£nh
Ġch áº¹t
Ġb y
Ġb áº¿t
Ġb áº«m
Ġtr á»ĳ
Ġtr Ã¡c
Ġtr an
Ġnh á»ħ
Ġnh Ã¢t
Ġs Å©ng
Ġn Ãºng
Ġng Ã¡ng
Ġng á»Ĺ
Ġng á»Ļn
Ġd Ã´i
Ġd am
Ġd á»Ļng
Ġd Ãºi
Ġd ÃŃu
ph p
Ġph in
ĠT áº£o
ĠT us
ĠT it
Ġqu áº¹o
Ġgi Ã³ng
Ġgi Ã£y
Ġr Æ°á»Ŀng
Ġr Ä©
Ġr á»±a
Ġr Æ°á»Łi
uy Ãª
ĠN ia
ĠN ut
ĠN áº¥c
ĠN ippon
Ġx áº©m
Ġx áº¹t
Ġx á»¥p
an ze
ĠC áº¡n
ĠH R
ĠH V
ĠH áºŃn
ĠH ao
ĠV S
ĠV as
ĠV ad
ĠV GA
ch io
ch aux
ĠB Ã´i
ĠB á»ĳi
ĠB á»į
ĠB á»ģn
ĠB ing
ĠB LÄĲ
ĠB rid
ĠB TV
ĠB aik
ĠM áº¡i
ĠM Ãłng
ĠM iáº¿ng
ĠM ÃŃa
ĠÄĲ á»Ľi
ĠÄĲ SCT
ĠL Ã£i
ĠL DL
ĠL TD
on ica
ĠS uch
ĠS tress
áº½ m
ĠP Ã´
ĠP ang
ĠÄĳÃ³ m
ĠA er
ĠA ustr
ĠA ilton
ĠA xa
ĠTr áºŃt
ĠTr á»©
ĠK ia
ĠK ac
ĠK ier
ĠK art
er en
er as
ĠCh áº¥m
ĠCh ail
ĠCh eck
ĠD os
ĠD uÃ¢n
en da
ĠG ao
ĠG azz
ĠG oss
ĠPh Ã¨o
ÄĲ áº¡t
ÄĲ áº©y
ÄĲ á»īnh
em io
em ian
Ġthá»§ a
Ġlo ad
ĠR ams
ĠR over
ĠR iley
... -
el is
el ena
ĠU ma
ĠU TS
Ġ4 99
Ġ5 33
Ġngo Ã¡y
ĠI U
ĠI ow
ĠKh Æ¡m
Th áºŃp
Th á»ıa
Ġ6 21
Tr inh
as is
Ch ao
Ch áºŃp
hi ng
ĠE u
ĠE conom
ol igan
ĠF rom
Ġ7 200
ĠW esley
Ġ8 70
ĠJ ian
ĠX ay
ĠX á»©ng
Ġso cket
Ġ19 20
SD A
Nh iá»ħm
Ġto Ã¡ng
ter ia
ĠY in
ĠY os
Ġmang a
ĠThanh nien
ur ance
ĠAn war
Ġ20 12
ed it
ĠO v
Ġtrá»£ t
Äĳ áºŃu
Äĳ á»īnh
tr Ã¡nh
Ġ15 9
ing en
iv en
ak wondo
av in
av ik
se x
Kh áº©u
Ġ18 4
Ġá» Ĵ
ĠAr g
and ji
19 62
ĠchÃº i
ob od
ho ang
re nheit
ĠAl c
ĠAl ves
ess a
ĠMar lon
ĠZ eta
ĠZ hou
kh áº£
Ġtim e
Ġ23 2
don k
Ġ22 1
Ġly m
Gi Ã¡ng
ce an
lo ur
af ilm
Ġco ok
com p
Qu Ãª
our ce
Ġchá»¥ m
ĠSer vices
uk andji
ĠCol chester
ast ar
ĠRi zal
ĠVal derrama
st ar
ĠAnd res
ĠAd nan
ĠAd ebayor
ĠCl ass
ĠAs k
ib ol
ĠRo que
und erbird
26 9
ĠCÄĲ SP
ey ev
ĠDN NN
29 9
ĠSc reensaver
ĠBen oit
lin z
ĠPer eira
ĠmÃ¹ n
ĠGr ay
ĠOs i
Ġlá»¥ p
ĠhÃ² e
car one
Ġ34 9
An dy
yl l
.... ..
ĠSl obod
ĠSte el
Ġ39 5
Ġkhuy áº¿ch
ĠPro ton
Ġro om
IC T
Ġthá»į ai
Ġlá»ģ nh
ĠGu ide
ĠBaghd atis
ĠVin atex
ĠVin asat
ĠSal on
end ran
ĠVic arrent
olf o
ĠOp tions
ĠSim o
ĠTin na
AS EAN
ĠLib by
ĠAF TA
sh are
ĠBCH T
ĠÄĳÃ² an
') >=
ĠKho Ã¡i
ĠHD TV
ĠSav o
ĠOr lando
ĠHel veg
act ion
Khu Ã´n
edon ia
ĠRu th
we ek
ron id
ĠMag ic
ĠJer maine
ohan oi
ĠWe igang
tar com
ĠBal d
ĠPlay boy
ĠBell ion
ĠCM T
Ġgr and
ĠMe ier
ĠGra ph
(' /
ĠJen kins
ĠNe eleman
ĠStr ait
Ser ver
ĠID G
Ġfor um
Fran ce
itch ai
ĠSouth gate
ĠWood ward
ĠMir ko
ĠSec ure
ĠGian luigi
sc ape
Ġnháº£ u
Gh z
ĠOk lah
ĠEll ison
ĠVP N
ĠVP CP
ĠPers ik
Ġtie p
ĠDig iworld
ÃĤ N
ĠDj emba
ĠArt uro
nik ov
ĠPS M
rys ler
ĠTrans l
ĠFin ancial
agn ar
ĠSpir ulina
ĠChap man
ĠSw itch
Cur ve
Ġsh ort
ĠIv ica
ĠGam ba
akov skis
ĠVac anze
Ġkil om
ĠJup iter
ĠConnect icut
ĠHann ah
ĠBoy s
ĠKeo many
bÃ© ar
ĠIsh ak
Ġtrans itor
Ġnot ebook
ĠGov ou
ĠGriff in
ĠGry gera
Current Fol
Ġclin ker
ĠPong olle
ĠPip at
ĠRoll ing
ĠCanc un
ĠPhotos hop
Yan ukovich
ĠWell s
ĠPul itzer
ĠUnic ode
ĠSalv ador
Ġnanom et
ĠOre gon
Mald ives
ĠGib son
ĠBuly kin
wy neth
ĠWatt s
index Of
ĠBic skei
ĠNir vana
ĠStel ios
ĠEdin burgh
ĠMcF adden
ĠChalle nger
ĠAE K
oxif en
ĠScandin avia
ĠZell weger
Ġintif ada
ĠPalt row
ĠBrist ol
ĠKwasnie wski
Kiatis uk
Saw aco
Ġglu co
ĠGaul le
ĠLewin sky
ĠVerp akovskis
hyp ko
jfal usi
ĠIow a
CurrentFol der
! ),
2 11
2 13
4 13
4 26
5 23
7 11
7 13
7 90
8 15
8 14
A L
B áº¿
B on
B áº£y
B ack
B uá»ĵn
B ride
C Æ°á»Ŀng
D inh
D ell
D omina
D ario
H B
H áº¯n
H ann
J oe
K B
K L
K en
K ar
L iá»ģu
L á»Ĺ
L ink
M G
M ah
M ik
M á»¥n
M assage
N ot
N eu
P oint
P aolo
S SA
T á»§
T áº§ng
U SA
W hi
b ow
c á»©ng
c ing
d Ä©
d áº«n
e ada
f ast
g Ã³p
h á»ĵn
h ak
h yd
k iáº¿n
k ul
l Ã¬
l Æ¡
l áº¥p
l io
m Ã¬nh
m as
n Ãºi
p al
r ar
r á»«ng
r eb
s áº¯c
s ing
s tress
t Ã¢n
t ure
w ig
w ings
x áº¥u
y ed
z en
ï ĥ
Ġ $
Ġ áº¯c
Ġ ab
Ġ one
ng Ã¢n
Ġt Ãło
Ġt áº¯p
Ġc c
Ġc ol
ĠÄĳ Æ¡m
Ġv Æ°
Ġv in
Ġv áº£ng
Ġth ÃŃt
Ġl Ãªu
Ġl Ãºp
Ġl Ã¡u
Ġl ine
Ġch á»Ļt
Ġb Ãªu
Ġb áº¥u
Ġb á»įng
Ġm áº¥p
Ġnh Ãły
Ġnh ÃŃp
Ã´ c
Ġs ua
Ġs á»ĵi
Ġs á»ģn
Ġs Æ°á»£t
Ġs ensor
Ġn m
Ġn uy
Ġn ÃŃch
Ġn áº¡m
Ġkh Ãº
Ġkh áº¥p
Ġg á»Ł
Ġng áº¥u
Ġng á»ĵn
Ġd im
Ġph á»īnh
Ġph á»ħu
ĠT Ãłng
ĠT á»±a
ĠT est
qu er
Ġqu áº¡i
Ġqu áº·t
Ġgi ong
Ġr inh
Ġr á»īnh
ĠN M
ĠN áº·ng
ĠN iro
ĠC ang
ĠC Ãłn
ĠC áº©y
ĠC NLÄĲ
ĠC our
ĠH áº¹n
ĠH rist
ĠH acker
Ġchá» ĵi
ĠV B
ĠV SC
ch á»īnh
ĠB Ãª
ĠB áº£nh
ĠB enn
ĠB ild
ĠM A
ĠM Ãºa
ĠM MS
ĠM DIS
ĠÄĲ áºŃp
ĠÄĲ oa
Ġngh áº¿ch
ĠTh áº£
ĠTh uá»Ļc
ĠTh iÃªu
ĠTh Äĥm
ang o
ĠL áº¡
ĠL om
ĠL ow
ĠL Æ°á»Ľt
ĠL iveshow
ĠL ilian
ĠS Ãºp
ĠS le
ĠS oft
ĠS oy
ĠS ign
ĠS uez
ĠS QL
ĠS ieg
ĠS istani
ĠP ou
in stall
Ġho oligan
ĠA ulas
ĠTr Ã¹
ĠTr ek
ĠNg Ã³n
ĠK ill
ĠK and
ĠK ass
ĠK ok
ĠK á»µ
ĠK DC
ĠK eller
ĠCh á»§ng
ĠCh and
ĠCh ronic
ĠCh itchai
Ġchá»ī n
ĠNh á»¯
ĠNh ai
ĠD W
ĠD á»įn
ĠD oro
ĠG b
ĠG KS
Ġdo pamine
ÄĲ iá»ĥn
ĠQ uyá»ĥn
Ġquy et
Ġy aourt
al aya
em is
es o
es is
im ana
ĠR Ã¹a
ĠR iv
ĠR az
ĠR ick
ĠR ennes
ĠR agnar
Ġtu ong
ĠU m
ĠU jfalusi
or es
Ġlu c
Ġngo áº±n
ĠI TS
ĠI FC
ĠKh Äĥm
ĠKh air
Th áº£m
Th Ã¹y
ĠÃ ¨
il io
Tr á»Ļn
as im
as oo
as aki
Ch Ã¡o
Ch amp
ĠGi áº½
at s
ĠE k
ĠE hud
ĠE thiopia
ĠF ay
ĠF eng
ĠF air
ĠF SB
Ġ7 000
Ġ7 30
Ġ7 60
ĠW ant
ĠW AN
ĠW hat
ra do
Ġ8 20
ĠJ ab
ĠJ ud
ĠJ udo
ĠJ usuf
ĠX L
Ġ19 33
Ng á»įn
om en
Ġca bin
ad em
ĠNá»Ļi ÄĲT
ĠY a
th on
th Ã¢m
th á»«a
ĠAn at
Ġ20 30
os o
ed es
ĠO B
ĠIn ca
Äĳ Æ°Æ¡ng
Äĳ Äĥng
Äĳ á»įc
Äĳ Ã²i
10 8
tr Ã²
tr ia
Ġ30 1
iv ate
Ġngu á»µ
ĠÄĳá»ĵ m
ig l
ill us
19 30
19 66
ĠAl phan
Ġp ic
Ġp ort
ĠMar iano
ip o
ip ong
ĠZ o
ĠZ al
ĠZ ak
ĠZ ain
ĠZ PV
Ġhy d
kh ÃŃ
ĠLu ang
ew all
ab we
ry p
Ġ24 1
Ġ24 4
Ġ24 8
Gi Ã³
ĠSh un
Ġ21 00
oh cm
ik tas
ut ions
ut down
po on
ail and
Ġ28 9
TC TC
ĠPar ad
ĠPM Posted
if ish
aw att
gi áº£ng
ĠRi os
ham ala
ĠCan berra
st ra
ow ek
ow itz
ug o
ĠDá»± ng
ĠPr ieto
ĠDu al
ĠDu xton
22 2
ĠAnd es
uc ky
ĠUn nur
Ġhu á»ģ
Ġo ang
Ġo Ã¡i
ĠSo áº¡n
ĠMau ng
gh lin
land s
AC AF
Ġxáº¿ ch
Ġshow room
ĠCity Phone
ira c
ĠBo as
ĠHar per
uan ia
wen imana
ĠEx po
tor y
eh ler
res h
ĠHe ath
ĠRod rigo
ander thal
ĠCo ol
ĠAc ro
ĠAc tion
ĠMo e
azz oli
BM I
ĠxÃ¬ u
bo ok
ĠEn c
ĠAnton is
ĠBor chers
ĠKe egan
ĠApp lication
ĠSu ite
ĠGM P
nes ota
56 8
Thu áº¿
ngh iá»ĩn
ĠFlor es
ĠKr zyn
ÄĲH QG
ĠNV H
ĠMin sk
ĠMin nesota
ĠLHP N
no oker
ĠVid amco
ston ia
ĠMaria h
ĠGP S
ĠBur g
des h
ĠTR T
ĠTrao re
ĠRub ens
ĠFar ia
ĠTy m
ĠPra desh
ĠWar s
Ġz om
ĠBon azzoli
ĠDick ov
ĠNob ut
ĠNe anderthal
ĠDam on
ĠEle ct
ĠLouis iana
ĠPenn ant
egg y
kov sky
ĠKat sour
ĠTB DH
ĠAra b
ĠIm ola
ument s
Sc ience
ĠPhn Ã´m
ĠEll is
ĠNG O
ĠWill y
Kho ai
ĠGÄĲ KT
ĠJoa chim
cess or
ĠJeff erson
Ġmicro phone
ĠIt tihad
ĠNak amura
ĠRah ul
Vic ente
Ġad ren
thanh nien
ĠKos ovo
Æ¡c anh
ĠBj orn
ĠPand ev
ĠPrin cet
NC ACAF
ĠFid itourist
Ġpl ug
ĠMerk el
Mac edonia
ĠPL DD
ĠWo ern
ĠVinac onex
ĠWis eman
ĠGreg ory
Ġhá»Ľ p
ĠDat abase
ĠGol kar
ĠBarry more
hor asoo
Bor ussia
ĠRas mus
................ ................
ĠZd enek
ĠIsh tawi
ĠLok omotiv
ĠGenn ady
ĠGut ierrez
Ġvisc ohanoi
Lib Äĥng
ĠBK IS
ĠCob ain
ĠAnis ensel
oij donk
ĠInterf ax
ĠCBC C
Anton io
Mor ientes
ĠGiv et
acht un
ĠElli ott
ĠTk achenko
Ġflav onoid
ĠPam ela
ĠtÃ³ e
Ġsoft ware
ĠBarros o
opro tein
ĠWilhelm sson
ĠHamp shire
ĠInvest ment
ĠBened ict
ĠElen ildo
Raf ael
Ġlep tin
oglob in
ĠFors sell
ĠKhÆ¡m e
linz wenimana
ĠSlobod an
ïĥ ĺ
ĠSoy uz
ĠITS M
ĠKrzyn owek
ĠKatsour anis
ĠPrincet on
! ,
! ...
/ .
2 25
3 28
5 17
6 48
7 16
7 60
8 11
8 22
9 19
A qsa
B as
B ad
B áº¿p
C E
C Q
C LC
C esar
D áº¡y
D aily
D alian
E ye
E stonia
F lash
G F
G ear
H CB
I SA
J os
K l
K ais
L ua
L Æ°á»Ľi
L IÃĬM
M ob
P ers
Q eada
S á»©
S py
S acombank
T ÃŃch
T á»ıi
T oshiba
V á»ĩ
X GA
Y áº¿n
Y uk
Z aw
b iÃªn
b á»ķ
b ran
b ull
b á»¥i
c ouver
d áº§u
d Ã¢m
d Ã¡m
d áº¡y
f un
f ran
f onso
g az
h z
h áº§u
h Ã£ng
h Ã¹m
i u
i ot
k Ã©t
k Ãªnh
k ash
k ata
l ÃŃnh
l uyá»ĩn
l ed
l á»«ng
l á»ĩnh
m ack
n Ã´ng
p ell
r Ã´m
r ala
r etti
s Ã´
s ync
t áº¿
t áºŃn
t Ãºi
v ik
v itamin
x áº£
x ung
y x
y uki
z Ã´
Ġ á»«
Ġ á»Ľi
Ġ á»³
Ġt Ã¢
Ġt au
Ġt elet
Ġc y
Ġc ui
ĠÄĳ ung
ĠÄĳ Ã¹n
nh u
nh iá»ĩt
nh ap
Ġv áº¥y
Ġv áº¡m
Ġth Ã³p
Ġl áº¥t
Ġl áº±ng
Ġh Ã¡ch
Ġb Äĥ
Ġb á»±a
Ġm áº«m
Ġtr Æ°á»Ŀn
Ġnh in
Ġnh Ã¹ng
Ġnh Ã²e
Ġs ol
Ġs ap
Ġs Ãłm
Ġs elen
Ġs ushi
Ġn áº¹p
Ġn áº¹t
Ġn Æ°á»Ŀm
Ġn á»±ng
Ġn Æ°á»£p
Ġng áº¡n
Ġph ang
Ġph áº¯t
Ġph á»Ľi
Ġph ap
ĠT á»ı
ĠT oy
ĠT utan
Ġqu eo
ĠlÃł u
Ġr Ã¢y
Ġr áº£o
Ġr up
Ġr á»Ľm
Ġr ou
Ġr Ã¹m
ĠN á»ķ
ĠN Ãªm
ĠN es
ĠN az
Ġx Ã²a
ĠC i
ĠC ed
ĠC á»Ĺ
ĠC od
ĠH ep
ĠH á»Ľn
ĠH wa
ĠH uman
ĠV ay
ĠV ig
ch á»©a
ĠB Æ¡
ĠB ib
ĠB OD
ĠM Ã¢m
ĠM á»ĳc
ĠM áº£nh
ĠM áº¯m
ĠM ei
ĠM ira
ĠM edved
ĠM IT
ĠM andy
ĠÄĲ Q
ĠÄĲ ÃĢ
ĠTh áº¥p
ĠL er
ĠL ob
am ath
ĠS Ã¹ng
ĠS ua
ĠS ig
ĠS ach
ĠS oder
ĠS ultan
au m
Ġlá» £t
ĠP ana
ĠP ARA
in in
in ol
ĠA X
ĠA j
ĠA ur
ĠA id
ĠA ilen
ĠTr Ã¡c
ĠNg ao
ĠK ra
ĠK iá»ĥng
ĠD F
ĠD á»«ng
ĠD ance
en c
ĠG el
ĠG ad
ĠG Ã³i
ĠPh Ãª
ÄĲ Ã´
ÄĲ áº±ng
ÄĲ em
Ġ3 12
al ines
em ann
Ġcon tact
Ġcon trol
es hi
ĠR S
ĠR ong
ĠR itch
Ġtu c
ĠU linzwenimana
Ġ4 35
ĠI S
Th Ãł
Tr á»«
Tr á»Ļm
Tr ust
Ã¨ re
Ch en
Ch á»įi
Ch á»«ng
ro u
ĠQu Ã¡t
ĠQu Ã£ng
ĠGi amp
at an
ĠE bo
ĠF au
ĠF ul
ĠF risk
ĠF afilm
Ġ7 40
ĠW ook
Ġ10 80
Ġ8 22
Ġ8 40
ĠJ ing
ĠJ ub
ĠJ SC
ĠJ iri
Ġso c
Ġ19 29
Ġ19 43
ĠHo oijdonk
it i
it is
om oto
om izu
Nh iá»ĩt
Ġ9 90
ad ine
ĠY oshi
th á»ĳng
ag ame
id ong
Ġkhá»ı an
un th
le ct
Äĳ áº»
Äĳ áº¯t
Äĳ á»£t
ĠTheo doros
10 9
tr uy
tr anh
tr áº§n
tr id
á»ĥ m
Ġ30 4
Ph á»Ł
ĠBan dar
Ġdi al
do or
se ng
se ido
um in
um song
um ibol
Kh Ã¡
ĠAr ts
19 65
19 59
19 64
ob oy
ie h
ho c
ho use
Ġ25 5
ĠAl ab
ĠRe is
ĠRe ading
ess otto
Ġp rix
Ġp rost
ard ine
ĠZ ub
ĠZ end
oc on
oc al
Ġtrá»¥ ng
Ġ40 2
Ġf r
Ġ22 2
ĠSh amsul
ier s
ames e
ĠEm ile
ub ank
ez a
af ar
TC T
Ġáº¢ o
ber o
ber s
ĠRom med
ĠBr at
ĠIs k
ĠSer eni
ti hua
ri or
ĠBl og
ox ide
ĠMy o
ĠMy Doom
ĠCamp o
ĠAS LEM
Ġbá»Ŀ m
ĠSan ya
ĠCan yon
ĠMon de
ow ing
ĠPr ec
ĠDu c
ĠDu ong
ene uve
ĠCl aus
ĠJohn sen
ork man
ĠBer man
Con tent
ĠSc reen
ĠEd en
ĠEd ge
ĠCH LB
ĠVan couver
ĠLin dows
Ġ75 5
ĠChu á»Ĺi
ĠSA S
ĠCor mack
Ġ34 2
uz u
kho áº£n
ann er
erb ack
ĠSam i
Ġphu ong
eh n
ĠGeor ges
ĠMo en
azz ini
ind ula
ĠCas ino
Inter national
ĠJul ian
ĠSol aris
ĠChrist elle
Ġur ani
ĠCap devila
ef eld
ef tria
ull ivan
ĠTor sten
ĠGh áº¿
ĠFrank lin
ĠIb an
ĠMess age
ĠSu won
ĠFor est
int osh
ĠKho Ã¡
Ġquá»µ t
ĠTho áº£
ĠHel io
Ġa erobic
ĠWil d
ĠFir man
ĠNic aragua
ĠBÃ© bÃ©ar
ĠMag gie
avel le
ĠAlb ion
ĠBall mer
ĠVH I
ĠGall iani
Ġser ie
ĠWe ek
Ġcac bon
ĠFr au
ĠDes ign
ĠPatr icia
ĠKen yon
ĠRub io
ĠGal acia
ĠLo os
ĠFar oe
ĠHal f
ĠPra v
ĠDar fur
Chu á»Ļt
ĠNik on
ĠLim ited
ĠDaniel a
ĠMill s
Ġ(? )
phen ol
ĠJak ob
Ġcomp osite
ĠIg lesias
ĠSom ali
ĠHaw king
ĠSin clair
ĠKo ehler
ĠGian carlo
Ġmá»Ľ m
ĠRec overy
ĠWill feld
thu Ãª
Web Master
ĠGill es
ĠTer esa
MP I
tu oitre
ĠTem asek
ĠRoh land
zh akov
ĠMand ela
ĠDr iver
Ġneu tron
ĠBh umibol
ĠDio p
cat el
ĠBes iktas
LT K
ĠLawren son
ĠLab s
ĠBarb osa
áºł N
ĠKod a
ĠIv or
ĠAR A
ĠSem pron
Ġpl astic
ĠFried el
TD DC
Jul io
MO F
ĠJoh or
imb abwe
ĠJet Blue
Ġmac ro
ĠHos ni
ĠZd rav
ksand rs
ĠRid ge
ĠKÄĲTM TT
ĠNil sson
ĠUri be
ĠJal al
Ġvisc ohcm
ĠÆł n
ĠMov ie
Ġlac tic
Ġchá»ı m
Ġcarot en
Pet ersburg
Sam uel
ĠHari bo
ĠPf izer
ĠMorn ing
ĠDiet mar
ĠBian chi
Ġring git
ĠYev gen
ĠLjub icic
ĠMajest ic
ĠTik rit
ĠAndr Ã©
Shar apova
Victor ia
ĠHist ory
ĠLuy indula
ĠFam ily
phat dat
ĠDrag ao
Æ¯á»ľ NG
ĠKasp ersky
ĠGiacom azzi
ĠPu erto
agland in
heat grass
ĠBurk ina
ĠEther net
ĠWins let
ĠShiz uka
ĠOklah oma
ĠDoro thy
ĠNobut aka
Yuk os
Ġtelet ext
ĠRitch ie
ĠEbo ue
ĠZend en
tihua can
0 14
0 22
3 22
5 60
5 27
5 70
6 24
9 14
A p
B Ã´ng
B Ãºp
B IDV
C G
C Ã¡m
C re
C TT
D on
F N
F ar
F estival
G G
G Ã£
G on
G áº¥p
G il
G ustavo
H ol
H ak
H ew
H áº³n
H ass
H TV
J e
J ay
J am
J im
K on
K le
K CN
K MT
L ai
L ang
L in
L á»į
L áº¡ng
M in
M áº¹o
N Ãło
N istelrooy
O I
P E
P ath
P jico
R ad
S ay
S Äĥn
S Ã¢u
S yl
S ala
S ystem
T Ã´
U I
U V
U AE
V iagra
W G
X A
X o
b Ã¹ng
b Ã£o
c á»Ń
c Ã¡o
d Ã²ng
d á»±a
d ah
e uro
f ace
g á»¡
h á»ĳ
j ean
k ÃŃnh
l Ãłn
l ore
m Ã´
m Ã©t
n ig
n amese
r á»ĳi
s ho
s com
t rac
u in
v áº½
v ey
w anda
x ÃŃ
y es
Ã Ĵ
Ġ ol
Ġ enter
áº ¨
ng Ãłnh
Ġt ong
Ġt Æ°Æ¡
Ġt áº¿u
Ġc om
ĠÄĳ Ãºm
nh a
Ġv á»ĳi
Ġv ersion
Ġl Ã¡y
Ġch Ã¢y
Ġk en
Ġb ikini
Ġm Ãºn
Ġm ade
Ġtr Ã©t
Ġnh áº¡nh
Ġs Ã¢y
Ġs á»įt
Ġs andal
Ġs ystem
Ġs ardine
Ġn Æ°
Ġn áº£i
Ġn eon
Ġkh á»ĳ
Ġkh áº¡o
Ġkh áº£nh
Ġg á»Ļc
Ġg Ã´n
Ġd iáº¿p
Ġd ello
Ġd Å©a
ph Ã´
ph ÃŃ
Ġph Æ°á»Ľc
Ġph áº¡c
ĠT ien
ĠT ero
ĠT eng
ĠT CN
ĠT ask
ĠT LTT
qu áº£ng
Ġqu á»ĩ
ĠlÃł i
Ġr Ãºc
Ġr Æ°á»Ľn
Ġr owing
ĠcÃ³ i
ĠN áº¡i
ĠN eo
ĠN Ãºt
ĠN asser
ĠN umber
Ġx y
Ġx áº¡c
an ith
ĠC F
ĠC Ã²
ĠC ub
ĠC age
ĠC II
ĠC KD
ĠH ip
ĠH á»±u
Ġcho Ã¡n
ĠV Ãłnh
ĠV lad
ch Ã´n
ch áº£nh
ch ÃŃn
ch ip
ch ini
ĠB Ã³
ĠB áº¥y
ĠB le
ĠB Ã©o
ĠM G
ĠM Ãły
ĠM lad
ĠM itch
ĠÄĲ áº¯p
ĠL ÃŃnh
ĠL TT
ĠL ord
ĠL ien
am ing
ĠS S
ĠS ov
au t
Ġlá» ı
ĠP rom
ĠA se
ĠTr áº¡c
ĠK N
ĠK in
ĠK áº¡n
ĠK alla
er gen
ĠCh iÃªn
ĠCh Æ¡n
Ġ" ,
Ġsá»± c
ĠNh áº«n
ĠD ai
ĠD Ãłi
ĠD arius
ĠD aimler
en et
ĠG uá»ĳc
ĠG rid
ĠPh arm
ÄĲ G
ÄĲ X
ÄĲ Äĥk
Ġ3 24
ar ro
áº» n
em on
Ġcon struc
im art
ĠR in
ĠR ing
... !
el ow
ĠU TCTC
or ov
Ġ4 19
Ġ5 32
ĠKh iáº¿u
Th iá»ĩt
Th Äĥm
Th Ã³i
Ġ6 70
as ley
Ch rysler
us ler
ĠGi uá»Ļc
ĠE sk
ĠF o
Ã´m et
ĠÄĳo Ã¡
ĠW a
ĠW iz
ĠW aco
ĠJ as
ĠJ ovan
ĠX iÃªm
ĠX ue
ĠHo áº£ng
it ol
it ime
Nh Æ°á»£c
Ġto c
ad zic
th Ãº
th Ãªm
os is
ed da
ĠO MC
ĠthÆ° c
le hem
Äĳ áº¡n
tr al
12 6
ĠSau l
ent on
Ph u
Ph Ã¹
Ph Ã¡n
11 9
ĠBan ks
ap ong
ap est
do c
se c
Kh áº¯c
Ġ18 00
Ġ18 60
ov oi
ĠAr c
ir an
Ġgh Ã¬
eb ox
Ġw ork
Ġ25 7
ĠDo g
ĠDo gg
ĠDo uble
ĠRe ap
Ġp r
Ġp Ã´
Ġp ÃŃn
Ġp eso
net Subject
ĠZ ieng
TT M
Ġnháº¹ m
ĠLu kash
ex co
ian n
ou f
ou g
ah or
Ã¨n e
az ek
Ġ22 4
âĢ¦ ".
ĠMal e
Ġ21 6
Ġ21 8
ik istan
ĠmÃ£ ng
ub in
po int
ce pt
all etti
Ġ28 6
Ġ28 8
ĠCar avelle
ĠMan or
Qu áºŃn
our s
Ġchá»Ł m
ĠMy ers
ĠMy PC
gi áºŃt
st ic
st ation
ff i
ĠHÄĲ H
ĠDav yd
ĠPr es
ĠAb e
ĠSch w
ĠAm bro
ĠCl ement
uc ker
ĠBer ger
ey lang
Ġhu Æ¡
ĠTot al
ĠLy bia
ĠSc al
Ngh Ä©
ĠMau ri
ĠSy chev
ĠLin us
ĠDi arra
ĠMor etti
de f
SA RS
ĠVC TV
ĠDe jan
car ot
ĠPl ac
ĠBo un
ĠCharl ize
ĠSa ad
ĠHar isteas
ear ing
Ho Ã¡
ĠOl of
ĠGeor gi
ĠVI F
ĠVI SA
ĠCro we
ĠSant ana
ĠNa achtun
ĠVin agame
Al bum
ĠCas e
ĠPir i
ĠKar olin
Man iche
Ġchá»Ľ m
ĠCA HN
ĠMac carone
ĠMac intosh
ĠBe ach
ĠBe asley
ĠÄĲÃ´ la
CP I
ĠSar kozy
ĠYan ukov
ĠJon as
ĠFor ce
ĠVir gule
ĠÃĶ m
Thu Ãª
Thu áºŃn
ĠFl achi
Ġcar b
col m
ks ander
Ġman Æ¡canh
ĠOr ange
ĠMu á»Ļi
oven try
gu eno
win dow
ĠJer em
yon line
ĠRum ani
Ġpoly me
ny der
EE E
ĠRog ers
ĠPe arl
Ġni em
ĠKoi rala
ĠRan ariddh
kin son
ĠTan zi
ĠFar rell
ĠDon ovan
ĠNik ko
ĠHill s
bu Ã´ng
My doom
oph yll
ĠTal k
ĠJa afari
ĠDam ia
ĠIM EI
ĠBut ina
ĠRui z
ĠNov ell
ĠTC L
ĠJam mu
Ġxua t
ĠSin ama
ĠSin aga
ĠHor st
Ġlip oprotein
ĠVeron ica
ĠBlack more
ĠBab el
ĠBab ylon
ĠReb eca
Ġbá»ī u
Ger rard
ĠTer ra
ĠSÄĲ K
ĠBir d
ĠTaw hid
Ġneu trino
ĠBh utan
ĠKap o
Ġfol der
ĠCarol ine
ĠBj orkman
ĠPH BM
ĠFire Wire
Co Mo
Ġdr ive
Ed gar
ĠtÃ½ p
Ol iver
ĠSw iss
tien ne
ĠId ahor
Ġnguyen To
ĠLag erback
ĠMem orial
ĠEb be
ĠBou cher
Ben fica
ĠCin ema
Ġkil Ã´met
Mat xcÆ¡va
ĠBá»ĥ nh
ĠBud apest
ĠRen ato
Cal ifornia
ĠAsp ire
Tor rent
ĠKais er
ĠNy unt
ĠLik sin
ĠRic cardo
ĠFrei burg
Ġphosph o
ĠKent ucky
ĠMIC E
ĠCR M
Ġsup er
ĠVog el
ĠEver est
ĠMagn us
ĠCic inho
ĠPoll itt
ĠHim alaya
ĠMeh di
ĠJohann es
Ash ley
ĠMost ovoi
ĠKiss inger
apol is
Ġmain board
ĠPus an
ĠAut om
ĠQual comm
á»Į C
Ġboy band
ĠStepan ek
ĠPlan et
Dj emba
ĠBeth lehem
Saf in
ÄĤ N
Bel arus
phal os
unn ingham
bil isi
ĠInform ation
ĠIw ata
ĠLaur sen
ĠVM ware
ĠPhoen ix
Ġchá»ĵ m
ĠLith uania
ĠHoen ess
Lab s
ĠUTS tarcom
ĠStrait s
Ġkilom Ã©t
ĠSieg fried
ĠRagnar ok
Ġpic nic
ĠTym oshenko
ĠWoern s
Kais erslautern
ĠTutan kham
ĠRommed ahl
eftria x
Ġconstruc tal
ĠJovan ovic
ĠDavyd enko
ĠYanukov ych
% ",
. :
0 13
0 17
1 200
2 60
3 23
5 000
5 80
6 70
7 18
7 27
8 23
8 24
9 18
A sia
A bu
B á»Ŀ
B ag
B ig
C en
C Æ°á»Ľi
C ÄĲV
C omp
D iá»ĩn
D en
D uyÃªn
D id
D Æ°á»¡ng
D á»ĩt
F ed
F un
F DA
G Ãµ
H inh
H Ã³c
I gor
J et
L P
L Ã´ng
L Ã£i
L ind
L isa
M á»ķ
M et
N Ãły
N áº¥c
N igeria
O DA
P a
P ed
Q U
Q ui
R at
R áº¡p
R ah
R iver
S ex
S ee
S we
S mart
T á»ĳng
T ÄĲT
T otti
V K
V áº¿t
V á»ĭt
W in
W ord
X áº¡
X Æ°a
b Ã´ng
b Ã¡t
b en
c á»§
c ion
d j
d á»¯
d Ãłn
g ay
g Ã¡nh
g áº¯n
g Ã³c
h in
h iá»ĥu
h ara
i h
j ol
j ail
j evic
k Ãªu
k Ã©m
k awa
l áºŃp
l áº¥n
l ot
l ap
l Æ°á»¡i
m á»ĵi
n d
n Æ¡
n Ã©
n uá»ĳt
n ip
n adze
p ar
r Ã´n
r ico
s áº¯p
s ta
t Ã¢y
t ÃŃch
t ro
t áº©y
t Æ°Æ¡i
v á»ĭt
v iew
y egbeni
z am
Ã į
Å ¨
Ġ á»¥
Ġ ev
Ġt iÃªng
Ġt Ãłm
Ġt ieu
Ġc ang
Ġc all
Ġc ase
ĠÄĳ áº«n
ĠÄĳ iáº¿ng
Ġv anh
Ġv á»ĳc
Ġv Æ°á»£n
Ġl Æ¡n
Ġl at
Ġl áº¹t
Ġh Ã¡u
Ġk aki
Ġk cal
Ġb Ã¬m
Ġb est
Ġb áº³n
Ġm ultimedia
Ġtr Ã©o
Ġnh ao
Ġnh Ãłi
Ġnh áº©n
Ġs eo
Ġs á»§ng
Ġs ero
Ġs pe
Ġn e
Ġn iÃªu
Ġn áº§y
Ġkh au
Ġg lob
Ġng Ã¡i
Ġng áº¥p
Ġng Ã²m
Ġd áº¡c
Ġd eu
Ġd isco
Ġd Ãºm
Ġd Ãµng
ph u
Ġph om
ĠT X
ĠT Æ°á»Ľc
ĠT ad
ĠT iá»ģm
ĠT Ãºy
ĠT CO
ĠT oxin
ĠÄĳá» «
Ġqu áº¯t
Ġqu Ã¨
Ġr im
Ġr iÃªu
Ġr á»£
Ġr Ã³i
Ġr oll
ĠN K
ĠN L
ĠN á»£
ĠN ul
ĠN ath
ĠN ey
ĠN onda
ĠN PK
an que
ĠC ry
ĠC ott
ĠC unningham
ĠH Ãºc
ĠH ib
ĠH VN
Ġchá» Ľi
Ġchá» ĥnh
ĠV á»ĭt
ĠV edan
ch á»¯
ch á»¥c
ch á»Ŀ
ch á»įi
ch ope
ĠB I
ĠB Ãºn
ĠB ust
ai mi
ĠM áº§u
ĠM ia
ĠM ing
ĠM ap
ĠM Ã£n
ĠM ind
ĠM ode
ĠM ullah
ĠÄĲ Ã¡i
ĠÄĲ TT
ĠTh Æ°á»Ľc
ĠTh Ãªu
ĠTh underbird
ĠL Ã´ng
ĠL áº¯ng
ĠL Æ°á»¡i
am oto
ĠS Ã´i
ĠS Ãłn
ĠS Ã¢u
ĠS á»«ng
ĠS ue
ĠS ens
ĠS uri
ĠS rin
ĠS ober
Ġlá» ©t
ĠP I
ĠP N
ĠP SB
ĠP ont
ĠP rogram
ĠP ublic
ĠP earce
ĠP eggy
ĠP essotto
ĠP azzini
ĠA ide
ĠA NH
ĠA IM
ĠA TR
ĠA jin
ĠA UD
ĠTr Ã²n
ĠTr á»¥c
ĠTr áº¡ng
ĠNg Äĥn
ĠNg á»«ng
ĠNg Ã³i
ĠK ung
ĠK iá»ĩu
ĠK one
ĠK orn
ĠK end
ĠK HO
er co
ĠCh Ãł
ĠCh Ã¡n
ĠCh annel
Ġthu Ã´
Ġthu á»³
Ġthu á»Ļm
ĠNh áº¡n
ĠD Ã£
ĠD up
ĠD ep
ĠD OS
ĠD iva
ĠD uke
ĠD horasoo
Ġbá» ĩt
ĠG áº¥m
ĠG av
ĠG uan
ĠG ef
ĠG wyneth
ĠPh on
ÄĲ á»§
ÄĲ Ãłnh
ÄĲ áº£o
ÄĲ áº£m
ÄĲ Ä©a
ÄĲ á»£i
ĠQ ÄĲ
Ġquy Ãª
al on
al le
em back
Ġlo áº¡ng
Ġká» ī
Ġkho Ã¡y
ĠR Ã´
ĠR ung
ĠR et
ĠR is
ĠR ove
ĠR igg
el ec
ĠNam e
ĠNam ib
ĠU V
ĠU s
ĠU ser
or imex
Ġlu x
Ġlu á»Ļm
Ġlu á»µ
Ġngo i
Ġngo Ã¨o
á»£ ng
Ġta t
Ġkhu Ã¢n
Ġkhu Ã¢ng
Ch iáº¿m
Ch ris
ro y
us k
ĠQu inn
at elli
hi ps
ĠE ug
ĠE TA
ĠF le
ĠF ive
ĠF eder
is is
Ġ8 29
ĠJ u
ĠJ oy
ĠJ org
ĠJ azeera
ĠX ie
ĠX robots
Ġbá»ĳ t
Ġ19 34
Ġ19 41
Ng Ã´n
Ng Å©
it es
om in
Nh anh
Nh ung
ĠÄĳÃ¡ u
Ġ9 70
ĠY eo
ĠY este
th áº¥y
th Ã¡i
th iá»ĩt
th Äĥm
th Ã¡m
th uyá»ģn
th day
ur st
ĠO w
ĠO z
ĠO ak
ĠO yo
ĠO tta
Äĳ áº§y
Äĳ á»«ng
Äĳ Ã¨n
10 2
ĠLan c
12 2
12 9
Ġ12 80
ent ine
á»Ĺ m
Ġ0 90
ap o
ig e
ig i
ig ge
av ian
Kh Ã³a
ĠHu gg
and i
ir ect
Ġgh á»ģ
eb ok
ÄĲT QG
Ġw ax
23 5
re ad
Ġ25 8
ĠAl ien
ĠRe imer
ĠRe ebok
Ġp os
ĠMar ik
ĠMar isol
ard nadze
ip er
ĠLe w
kh á»Ľp
od i
od ia
ĠLu kas
Ġ23 7
ab e
ou da
az ine
14 8
Gi ang
Gi ovanni
ĠSh adow
ĠMal colm
ĠChi ellini
ut ta
ok a
Ġ28 1
ĠCar men
Ġtá»ĩ p
Ġ26 4
ber ly
ĠMan s
17 6
ĠBr is
ĠIs ab
ĠMad ag
ĠMad rig
PT SC
Ġxo e
Ġxo Ã¨
if one
ĠSer en
Ġáº¤ p
ĠTH TH
rom e
Ġhá»įa ch
eg i
op ment
ĠCol ombo
ham id
ĠVal er
Ã©n or
st ick
ĠPr im
ĠAb bia
Ġ35 9
ĠHen rique
ĠEuro window
ers h
ĠAm y
ĠAm ma
ĠCl int
ĠCl aire
ĠAs per
Ġcá»ı n
ĠSp urs
ĠSp alletti
und ee
ĠSe on
ĠBer ne
ey da
ĠCr is
ĠSc ar
ĠBen et
go ogle
gh en
ĠPer ea
ĠPC R
igh ton
ĠOs man
ĠBol f
ĠHS BC
ĠTS A
34 8
ha al
ĠGl axo
ĠMor an
ĠAg us
ĠAg ger
SA ID
ĠhÃ² an
Ġ34 1
ĠBo umsong
ĠSa eb
Ġ37 2
Ãģ N
ala phone
ĠPro Curve
ĠShev ardnadze
ĠRos ano
ix ente
CH DC
any ang
Ġpro xy
ĠSal em
ĠSal as
end ar
lu Ã´n
ĠGS TT
usse f
ĠVi Ãªt
ĠngÆ° Ã²i
ĠSol utions
ĠSim ic
oly te
ĠMot t
ĠBe e
he im
ef l
AF F
ĠKho Ã¡t
ĠKho Ã¡ng
Ġman ager
Ġmá»§ n
ĠSaigon Tech
ĠSav io
cho Ã¡ng
Ġmm ol
Ġ84 16
Ġ84 17
ĠMu Ã´n
ĠSaf ari
ĠSaf aga
ĠGil bert
ĠOn opko
ĠGen esis
áº¢ I
act ive
Mar cel
ĠAbb ott
CC I
ĠMag dal
ĠJer emy
Ġcal ori
LG TÄĲT
yc le
yc lin
Cá»¥ m
ĠCO NCACAF
ĠWhi tt
ĠAbram off
err or
Ġ(! )
ĠFel t
ĠâĢĿ .
ĠFar fan
Ġbl ue
ĠNad ia
Ġnhá»ķ m
ĠNi hat
ĠTal abani
Mc C
gin ine
ĠAch illes
Ser bia
OS T
ĠZh ao
new s
ĠColle ction
ĠHaw ass
ĠHarv ey
ĠSec ur
ĠSin ai
ĠAB F
ĠRad ek
Ġmeg awatt
ĠBig ley
ĠGreen land
ĠFred dy
cl ub
ĠPen ang
ĠLÃªn in
ĠBrad ford
ĠKS KH
ĠGe un
men igge
ĠTem ple
Sant os
Andre w
ĠMell on
Viet combank
ĠCle ar
ĠBh utto
ĠFort in
islav a
ĠCorn ice
ĠChap uis
ĠRap aic
Sl ovenia
hot mail
ĠLyn ch
ĠMain ad
Ed win
ĠDomin ic
ĠBit Torrent
Mad onna
ĠHad ji
ĠVar ela
ĠLenn art
ĠRev olution
ĠMaster Card
Ġsty list
ĠJP Y
Ġá»Ĳ ng
ĠPeople Soft
ushi ta
Bor is
ĠGA TT
ĠKath mandu
ĠKyo do
ĠEmil iano
Gu ard
ĠEsc ape
Ġhot spot
ĠDia chenko
á»ĺ I
ĠVog ts
ĠMorris on
XDC B
ĠXK LÄĲ
ĠSton eh
Ġhost ing
ĠGigab it
Fer guson
ĠCoun ty
Marc us
ĠKirk land
ĠProduc tion
Mont enegro
ĠâĢĺ âĢĻ
ĠEA SB
Ġcalor ies
Cr uz
ĠLiver more
ĠEngine ering
ĠWolver hampton
Angel os
ĠVent a
ĠLua Lua
ĠRoch emback
Luxem bourg
ĠGros jean
App le
ĠTeo tihuacan
ĠJaros ik
Ġdem o
ĠVib ird
ĠHend rie
Rum sfeld
Work s
ĠEre kat
ĠOrig ami
ĠWeng o
hus band
pher d
ĠCeb u
ĠGull it
ĠRal ph
ĠOtt mar
ĠIsa ac
ĠMerck x
Gabri el
Ġir ukandji
Ġher pes
Hann over
ĠKand ahar
adem yonline
ĠAlphan am
fran co
ĠSua zo
ĠPana ad
ĠAlab ama
ĠBrat islava
scom b
ĠLukash enko
Did ier
Ġsero ton
ĠAjin omoto
ĠGef ate
ĠHugg el
ĠMadrig al
ĠAbbia ti
ĠChapuis at
) ...,
. +
/ ?
3 12
3 11
3 70
3 90
4 24
5 40
7 17
7 25
7 40
A A
B iá»ĩt
B ee
C Ã¢n
C Ã´n
C áº£ng
C all
C af
C uba
C II
D Æ°a
D im
E to
E st
E du
F in
G Ã³c
G rand
H Ã²n
H Æ¡i
H ill
H onda
J ac
J ack
J enn
J ohan
K á»ĩ
K ate
K evin
L N
L ie
M E
M Ã¹ng
M os
M un
M ass
M att
M ourinho
M ike
M essenger
M agn
M auro
N Äĥng
N ext
O le
R áº¯c
R Ãºt
T ol
U R
U zbekistan
U ONG
W A
X E
Y M
Y o
Y ok
Z ip
b Ã¹
b Ãºt
b uá»ķi
c s
c inn
d áº¿
d á»Ł
d áº¡ng
d ale
f l
f th
f est
f re
g s
g ame
h p
h u
h áº¡n
h and
h á»įa
h afi
i yah
j id
k Ãª
k es
l en
l Ã£ng
l á»ħ
m inh
m uá»ĳn
m ot
m io
n m
n á»ģn
n ick
p ine
p od
p lex
r áº»
r Ã¢u
r ill
r ates
s om
s ine
s ide
s ole
s Ag
t ol
u ard
u ros
v á»Ł
v ay
v áº¿t
v ist
w o
x Æ°a
x áº»
y aw
â Ħ
Ġ Ã£
Ġ art
á» Ĩ
ng Äĥn
ng á»įt
Ġt on
Ġt Äĥn
Ġt al
Ġt áº¡nh
Ġt onic
Ġc áº¡ch
ĠÄĳ Æ°ng
nh áº£
Ġth Ã³
Ġl áº¡ch
Ġl act
Ġh Ãªnh
Ġch uyÃª
Ġk ata
Ġk iá»ĳt
Ġb Ã¢
Ġb áº¥n
Ġb iá»ģn
Ġm áº§n
Ġm ill
Ġnh á»ķn
Ġs á»Ľ
Ġs Æ°á»Ľt
Ġs nooker
Ġn á»ĳc
Ġkh ua
Ġkh Ã¨
Ġg Äĥ
Ġg á»ıng
Ãª ri
Ġd iáº¿m
Ġph Ã¢
Ġph Ã¨o
ĠT ul
ĠT ina
Ġvá» ĵn
Ġr áº¿
Ġr á»į
Ġr ieng
ĠN Q
ĠN it
ĠN Ã³c
ĠN ing
ĠN áº¿p
ĠN est
ĠN ÄĲT
ĠN athan
ĠC á»ĵng
ĠC TT
ĠC oke
ĠH Æ°u
ĠH wan
ĠV ed
ĠV EC
ĠV AM
ĠB eo
ĠB oc
ĠB ier
ĠB eg
ĠB EC
ĠB HNT
ĠM ÃŃ
ĠM ack
ĠM ult
ĠM asha
ĠM iddle
ĠÄĲ O
ĠÄĲ iÃªu
ĠTh ÃŃt
am ex
Ġ( .
ĠS Ã¡i
ĠS ik
ĠS ep
ĠS art
ĠS CH
ĠP ID
ĠP AS
ĠP ioneer
in ia
ĠA kh
ĠA BS
ĠK D
ĠK ul
eo t
ĠCh Ã¢m
ĠCh iat
ĠNh am
ĠNh áº¥p
ĠNh áº¹
ĠD et
ĠD ul
ĠD ark
ĠD MB
ĠD PC
ĠD PW
ĠD abo
en za
ĠG F
ĠG ay
ĠG ot
ĠG ael
ĠG eylang
Ġdo m
Ġdo t
ĠPh áº©m
ĠQ MI
al om
em in
im es
ĠR U
ĠR Ã©
ĠR Æ¡i
ĠR oi
ĠR ens
el fer
ĠU EA
Ġ5 99
Ġ5 37
Ġ5 90
Ġlu m
Ġngo e
ĠI N
ĠKh áº©n
Th uyáº¿t
Ġ6 000
Ġ6 99
Tr ÃŃ
Tr iá»ģu
Tr uyá»ĩn
Tr á»ĵng
Tr Ã¹m
Ġxe t
Ch ÃŃ
Ch inh
Ch ÃŃn
ro ck
ic yl
us ter
ĠQu Ã½t
ĠQu ito
ĠGi Ã¡y
ĠE ur
ĠE ry
ĠE ST
ol t
ol et
ĠF us
ĠF our
is tr
ĠÄĳo áº£n
ĠW ome
ra ham
Ġ8 80
ĠJ BIC
ĠJ elena
ĠX Ãło
ĠX isco
ĠX GA
ĠX ML
Ġ19 39
Nh áº£y
Ġto Ã¡c
ad ia
ĠY P
ĠY oun
Ġmang an
th Ãły
th áº£m
ag uchi
ur g
ur on
ur al
ĠAn ara
Ġ20 3
Ġ20 9
os p
os tino
ed t
ĠO asis
un ic
un to
ac a
le v
le arning
Äĳ iá»ĩp
Ġba zan
tr á»ĳng
tr áº¡m
tr us
á»ĥ nh
Ġ30 6
ent s
ent is
Ph Æ°á»Ľc
Ph áº¡t
ot us
ĠcÃº n
ig ata
Kh a
Kh Ã¡t
Kh áº©n
Ġ18 6
ir l
ul u
ul ti
ul ose
19 47
19 53
19 63
ĠNgh iá»ĩm
ob in
ho Ã£n
23 6
ĠAl t
ĠAl catel
ich edda
ĠRe in
ina wa
Ġp et
Ġp ass
Ġp ound
ĠMar e
ip zig
ĠZ imbabwe
TT XH
sen d
Ġcan oeing
ĠLu ke
ĠKim berly
Ġ23 8
Ġ40 1
ĠHai dong
Ġf ull
az ep
ĠSh el
ĠSh ab
ĠMal bran
ub o
ez e
ĠSt ud
ĠSt ark
og lu
13 3
13 6
pr is
co x
lo e
af er
Ġsáº» n
ĠCar ew
Ġ26 8
ber ty
17 7
ĠBr in
Ġal pha
ĠIs uzu
com e
Ġ27 7
ĠChampions hips
ep age
Ġxu áº©n
ĠSan ct
ĠSan ofi
ĠCon c
ĠCan eira
ug er
25 6
ĠCam b
ĠSch nyder
ĠAi yegbeni
ĠHen ao
ĠAm strong
ĠAnd aman
04 6
ĠAs o
iz an
iz ation
art s
lor i
ĠSp art
ĠSp ector
uc a
uc ano
ank a
26 2
Con nect
ĠMich eal
tin or
ĠCal d
Ġo Ãł
VN N
Ngh á»ī
ĠSo chi
ĠPer es
HH P
Ar men
ĠEd man
ĠPC GD
LA N
ĠMc Man
let e
let on
eld er
ert z
ĠYork e
09 0
sp er
ĠChu an
sin ki
Ġ55 5
ĠAg ifish
ĠDe ad
ĠCor le
ĠPl ate
HN N
ĠTom ic
Ġlá»Ł m
ĠRos obin
ĠMay o
ĠMay er
ĠPan el
ĠCro w
ĠCo D
ĠVin alines
ĠSal eh
ĠLev er
ĠHol cim
Al an
ĠTel e
ĠVina b
MA V
ĠKar pin
ĠKar adzic
Lu dovic
Man uel
Ġnhá»Ł n
etro it
eth yl
ĠAF D
ĠCel ades
he ad
CSG T
ĠSu ff
AM D
ĠYo nhap
St even
ĠHD L
ĠHan sen
ĠOr chard
ĠHel u
ĠHel sinki
Mar at
Mar adona
ĠNV S
ĠTur bo
we is
Sh are
ĠJo ergen
Ġ09 03
ĠGall up
ĠKon stantin
ĠLou v
ĠYoung husband
Cl aude
ĠPent ax
ĠLo áº¡t
ĠNews week
ĠRed mond
Ġbl oc
ĠPra ha
BV TV
ais al
Ġsim ili
ĠBob ic
ĠNi igata
ĠLip scomb
ĠDid o
ĠÃĲ oÃłn
uss is
Ser ge
amb ucano
CI N
Bay er
ĠJam aica
urt is
ĠSec unia
ĠSin atra
ĠSoph ie
Ġmic rogram
ĠKo eman
ĠGian franco
ĠChal ana
sc reen
ĠBT U
ĠCruz eiro
ĠSak tia
ĠOk inawa
ĠBoro wski
ĠVP ÄĲD
ĠUl rika
zo Ã£n
ĠBast ian
ĠLas ec
ĠCE S
ĠMoz art
thu áºŃn
Ãļ C
ĠBir na
ĠTem p
Olymp ic
ĠFin nan
ĠKam al
ĠRah im
ĠTravel Mate
ĠAle ksander
ĠDen ver
ĠBrug es
Ġmon itor
ĠFis cher
Ġdel ta
ĠLand is
ĠShah ril
PS M
ĠLyn da
aud ia
áºł I
ĠShe pherd
ĠGood ison
Ġgall on
ĠPed retti
ĠAlm eyda
ĠNgo ai
ĠErn esto
ÃĲ T
br and
lob al
ĠSev en
yr ene
Lau rent
ĠGet right
ĠHÄĲTT QG
ĠWan chope
ĠHos oda
Ġlá»ķ n
Ġlá»ķ ng
ĠInt ellig
Ġchlor ophyll
ĠBiel efeld
ĠLine ker
ĠRene e
Ġkey board
ĠAA A
ĠByr ne
ness y
ĠBot ulinum
ĠGov imex
nhe im
ĠMats ushita
ĠTax i
ĠHau ge
ĠUp date
Ġrem ote
ĠHap py
ĠKL QG
ĠHon do
ĠGadd afi
Ke ane
ĠHil ary
ĠAst aman
ĠCorre ia
ĠMusta pha
ĠMusta fa
Moham ed
ĠJur gen
Ġdiox it
Ġrá»Ŀ n
ĠTrib une
coo ter
ĠTamp ines
ĠVes pa
ĠKany anith
ĠMerc ury
ĠSid ney
ĠPern ambucano
Dan ilo
á»¨ C
ĠHiros hima
ĠCruis er
Jak ob
lac tin
ÃĮ NH
Ġgl utam
ĠDevel opment
Wolf sburg
ĠCarri be
Ġster eo
ĠDall as
Ku wait
Sund erland
ĠKart iko
ĠGazz etta
ĠNM CT
ĠÃ¨ o
igl itz
ĠIsk andar
Sala am
ĠKarolin ska
Lind say
Ġglob ulin
ĠNey mar
ĠRigg ott
ĠOtta wa
ĠMarik ina
hamid zic
CHDC ND
Yok ohama
âĦ ¢
ĠSanct is
Armen ia
! ''.
% ".
( );
) âĢ¢
+ +
0 30
0 18
2 23
3 24
7 000
9 16
9 27
B á»į
B uá»Ļc
B ob
B all
B TA
B undesliga
C Æ°
C Æ°á»Ľc
C á»ı
C á»Ŀ
C omm
C ienco
D J
D áº¿
D á»ħ
D own
F E
F BI
F eyenoord
G a
H Ãłm
H ÄĲT
H CÄĲ
J ang
J un
K V
K o
K Ã©o
K ey
K line
K Wh
K bps
L L
L eo
L iant
M W
M ot
M Å©i
M á»ĩt
M its
N á»ķ
N áº¥u
P M
P ic
P DA
P ics
R F
R Äĥng
S in
S á»£
S tr
S ri
S ave
T Ãºi
T itle
U p
U NICEF
V áº¡n
V á»ı
V ND
V GA
W i
X Ãºc
Z in
Z idane
b Ã²
b Ãºp
b áº©n
b is
b ec
b ine
b oa
d Æ°Æ¡ng
d áº±n
e imer
f eng
f ocus
f Name
g á»£i
h l
h Ãłi
h Ã´m
j it
k V
k em
k á»µ
l á»Ļ
l áº¡m
m á»Ŀi
m ont
o use
q vist
r un
r ing
s g
s ley
s ance
t ung
t Ã¡m
t Ã³c
t eco
v W
v ÃŃt
w ei
x Ã©t
y m
y to
y lori
Ġ ..
Ġ á»Ŀ
Ġ ed
Ġ amp
Ġ ov
Ġ ok
Ġ over
Ľ p
á» ¤
á» ª
á» ļt
ng u
ng Ã¢y
Ġc it
Ġc á»Ļp
Ġc yan
ĠÄĳ ÃŃt
ĠÄĳ áº¹t
Ġv Ã³n
Ġth uy
Ġth Ãµng
Ġl iá»ģm
Ġl Ã³i
Ġl Ã¨n
Ġl áºµng
Ġl iáº¿p
Ġl ithi
Ġh et
Ġh alog
Ġch Å©
Ġk V
Ġb as
Ġb lu
Ġm Æ¡i
Ġm oa
Ġm elan
Ġtr á»©
Ġnh áº¯t
Ġnh ap
Ġs at
Ġs ach
Ġs erial
Ġkh á»ģu
Ġkh á»±ng
Ġd iÃªn
ph am
ph Ã¡n
ph ael
Ġph Æ¡
Ġph tal
ĠT Ãłn
ĠT Ãºi
ĠT ok
ĠT enn
ĠT BT
ĠT bilisi
qu Ãł
qu Ã©t
qu ipe
Ġr áº±n
ĠN Ã£o
Ġx oi
Ġx Ã¹m
ĠC C
ĠC G
ĠC á»ĳt
ĠC ow
ĠC ert
ĠC ode
Äĥ t
ĠH Ã¢y
ĠH uyáº¿n
ĠH ÃĢ
ĠH earing
ay i
ay oun
ĠV f
ĠV az
ĠV all
ch Ã©m
ĠB Ã¢n
ĠB azz
ĠM Ã¢n
ĠM iáº¿n
ĠM á»ĵ
ĠM Ãºc
ĠM id
ĠM ui
ĠM iá»ĩng
ĠM PT
ĠM iddles
ĠM imi
ĠM ultimedia
ĠM ÄĲX
ĠÄĲ áº¡
ĠÄĲ áº£n
ĠÄĲ Ã´m
ĠÄĲ Ã¨o
ĠTh ier
ĠTh ailand
ĠL C
ĠL E
ĠL áº¥p
ĠL al
ĠL áº·p
ĠL áº©u
ĠL á»«a
ĠL Ãºa
ĠL loyd
ĠL KC
ĠL essy
Ġ2 200
Ġ2 19
am bon
Ġ( âĢľ
ĠS R
ĠS Ã©
ĠS á»£i
ĠS GS
ĠS we
au ty
ĠP Ã´n
ĠP ri
ĠP IN
ĠP untO
in ko
Ġho áº¯t
ĠA Q
ĠA TT
ĠA man
ĠTr áº¯c
ĠTr usler
ĠNg áº¡c
ĠNg Æ°ng
ĠK b
ĠK av
ĠK ob
ĠK bps
er oi
eo lit
ĠCh ÃŃch
ĠCh un
ĠCh iáº¿m
ĠCh ino
ĠCh ocolate
ĠCh ilÃª
ĠNh áº£y
ĠNh uáº§n
ĠD iá»ĩc
ĠD ech
ĠD oni
ĠD iane
ĠD á»°
ĠD zoÃ£n
ĠG áº¥u
ĠG ama
ĠG ott
ĠPh Ã¡o
ÄĲ á»ķ
Ġ3 11
Ġ3 15
Ġ3 34
ar ai
ĠQ os
Ġy á»ĥm
al at
al de
ĠÄĳi Ãª
es tri
im an
ĠR A
ĠR ue
ĠR ut
ĠR aw
ĠR iá»ģng
Ġtu r
el ho
ĠU d
Ġ4 29
Ġ5 25
Ġngo c
ĠKh ao
ĠKh Ã¹ng
ĠKh Ã³c
ĠKh á»§ng
á»ı n
Th Ã¡ch
Th oa
ĠÃ ĵ
il ity
Ġta p
Ġ6 60
Ġ6 45
Tr á»ĳn
Tr uong
as ine
Ch am
Ch al
Ch áºŃm
Ch á»Ĺ
Ch ocolate
ic z
ic ro
ic iano
ĠGi s
ĠGi áº§y
hi deen
Ġtá»ī m
ĠE IU
ĠF on
ĠF ine
ĠF ast
ĠF DA
ĠF ind
Ġ7 90
ĠW C
ĠW ie
ĠW ah
ĠW ide
Ġ8 10
ĠJ oc
ĠJ ovi
ĠX en
Ng Ã¢m
Ng Äĥn
ĠHo ai
it in
Ġbu on
om ic
om ycin
Ġca ble
Ġto Ãłng
ĠY ag
ĠY oko
ĠY onex
ĠY usuf
th Ã¬
th ar
th áº©m
ĠhÃ£ o
ag awa
ur ve
id en
Ġkhá»ı ang
ed e
ed i
le af
ĠIn dex
Äĳ eo
Äĳ áº£ng
Äĳ Ã³i
Ġphá»§ i
tr á»ĵng
tr and
ui re
11 6
Ġdi ez
ap ie
ig ma
do o
ec na
ec ademyonline
ov s
ov irus
ĠAr rigo
19 55
19 61
ĠNgh Ä©nh
ob le
ie f
ĠÃ´ xi
Ġw all
Ġw heatgrass
re a
re at
ĠAl ta
ĠAl fonso
ĠDo her
ĠDo CoMo
ich ev
ĠRe za
ĠRe port
io us
Ġp ept
Ġp ectin
ĠMar b
ĠMar ti
ĠLe iph
ĠZ i
ĠZ iv
ĠZ ie
ĠZ ab
ĠZ iz
ell ick
ell ow
ell ara
te akwondo
kh áº¯c
ex im
ĠBar i
ĠBar one
ĠBar nier
15 8
ĠHai er
Ġf ilm
Ġ22 6
Ġ24 6
14 2
ĠSh ay
ĠSh ort
ĠReal Net
ĠSt av
ĠSt iel
ĠSt iller
ĠSt udy
ĠSt agg
ĠSt iglitz
18 5
13 2
TP C
16 7
ĠNew ton
co p
co py
TV QH
ĠMan chev
17 5
Ġ27 8
iet a
ĠtrÃº m
Ġxo áº¡ch
aw ar
ti es
ĠÄĲT XDCB
op ez
ĠBl ock
ĠCol iform
Ġu á»Ļt
gi Ãłnh
ĠWin ds
ĠVal e
ach ai
ff our
ug ar
ĠPr as
ĠPr ed
ĠPr ess
ĠDu elfer
ĠPet ers
KS S
Ġ45 2
ary n
ĠViet Nam
ĠViet namese
ers poon
ĠAm r
ĠAm in
ĠAm man
ĠCl ient
Ġcu áº£
ĠÃļ y
ĠAs ahi
iz a
ib ank
ĠSp e
ĠSp ec
ĠEl le
ĠCr ick
ĠSc ulli
VN SA
ĠCN KT
ĠBen Q
ĠBen ayoun
ĠTo efl
lin er
ĠPer son
ĠPer fect
ĠTim o
ĠMc Bride
are e
ĠHS SV
35 9
li ent
ĠLH TN
ĠMat hi
ĠMor a
ant s
ant ine
Ġtá»§ m
ĠCor el
Ġ33 7
oo doo
99 0
kho Ã¡i
ann on
ĠSam ara
Ġ64 7
ĠSl ate
Ġj ambon
ĠGer e
Ġnho Ãł
ĠRos so
ĠRos ario
Ġ'' )
ĠOl ic
ĠOl ga
ĠPeter son
oli u
ĠCro wn
ace ut
ĠCo elho
ja hideen
ĠMo us
ight est
ind y
ĠMartin o
Ġsp ot
iat su
ĠCas o
ĠCas p
ĠMP DF
ĠSol id
ĠSim e
ĠSim p
ink evich
gg io
ĠBro cchi
ĠCel est
ĠPetro Vietnam
ĠEn ron
ĠEn zo
ĠEn rico
ĠMil inkevich
Ġ66 7
sh an
ĠGh z
ĠKe eper
ĠKu ffour
Ġ76 7
Ġ76 8
ĠVir tual
New s
Ġtam oxifen
ĠNH K
ĠRam li
ĠRam elow
NT D
ĠEs ele
Ġcar avan
ĠMel issa
ĠBÄĲ G
ĠOn tar
my r
ĠAz tec
ĠCass ini
ĠRu eda
ĠTur ner
ĠBos man
ĠMah d
ĠNev ada
esse e
Sing h
ĠComp act
ĠComp uting
che on
use in
ĠKSND TC
ĠSP M
ĠMe is
cÃ´ la
ĠKen wood
ĠHer pes
ĠHal imi
ĠTy hypko
Chu á»Ĺi
ais sance
tamsu Sent
ĠCT ÄĲL
Ġmot oboy
ĠWith erspoon
ĠKol inko
khi Ãªm
Ġxá»ķ m
ĠNat alie
olog ne
ĠAra kawa
ĠMir anda
ĠHaw k
ĠTelec omp
ĠVer ona
ĠValent in
ĠWolf owitz
Gh Ã©t
ĠNG H
ĠCre ator
ĠMeg apixel
ĠFred die
ĠOx fam
Web Pics
ras ka
ĠGun nar
wis c
ĠMet su
Ġcort isol
Sant iago
ĠBau mg
ĠSur f
ĠSum mer
ĠJes per
ĠPhuong To
ÄĲK DT
log an
ĠBR CA
low er
ret urn
ĠNur ia
ĠHav ard
ĠDA TC
ĠMul ti
GP L
Ġje ep
Rom an
ĠSem ak
Ġpl aza
ĠFried man
ĠnÆ¡ ron
ĠVac xin
ĠGiann ichedda
ict ure
ĠCin cinn
Shi p
ĠVers ace
ĠICT Y
IÃĬ N
ĠHB sAg
ĠPi il
uts che
Rod dick
Cor lou
ĠVor onin
ĠSas tre
ĠLing lei
ĠPon te
ĠLie ge
HCV TTXH
ĠHash im
ĠVill eneuve
Ġclin ke
ĠIgn acio
KC X
ĠNgu on
ĠYour kas
ĠPay Pal
ĠPay pal
ĠBroad way
Bo chum
Han oi
ĠKall strom
ĠPart ners
Az erbaijan
Nic olas
ĠMick ey
ĠMorn ar
ĠCaribbe an
ĠSali hamidzic
bor ough
ĠSB Y
ĠSB MAV
Ġpan el
ĠSchm idt
Ġsilic one
ĠED GE
ĠProc urve
ĠHH X
ĠSL R
Ja afari
Ġen dor
ĠCra ven
owe en
ĠDisc overy
áº¦ N
ĠCath ay
ĠPia ggio
ĠKnow les
Dr ive
ĠPomp ei
ĠRho des
Ġgran ite
ĠContin ental
Pir es
ĠMID I
ĠPun j
Leon ardo
ĠAustr alian
ĠEconom ist
ĠOv ch
ĠTransl ation
ĠZo ellick
Ġrou ter
ĠIban ez
ĠDaimler Chrysler
phalos por
Ped ro
Rah man
ĠBris bane
ĠMott aki
ĠStoneh enge
Jenn ifer
ĠVed aste
ĠSart or
ĠMalbran que
ĠJoergen sen
ĠLouv re
Ġlithi um
Ġhalog en
ĠchÅ© m
Ġphtal at
ĠTenn essee
ĠBazz ani
ĠDech y
ĠDoher ty
ĠLeiph eimer
ĠRealNet works
ĠWinds or
ĠOntar io
ĠCincinn ati
! -
0 23
0 21
4 25
6 05
7 22
8 19
8 60
< /
A ch
B á»ĵi
B Ã³c
B ur
B ah
B lo
B Æ°á»Łi
B ridge
C ast
C ologne
D á»¯
D áº§n
D áº¡ng
D ata
D isk
F ir
F lav
F rei
H b
H á»ķ
H at
H ab
I v
I OC
J B
J ect
K g
L M
L áº§u
L im
L á»ĩ
L og
L ampard
L leyton
M Ã¢u
M il
M áº£nh
M TS
N Q
N á»ĵi
N Ã£o
O B
O E
O anh
P avel
Q atar
R us
R á»«ng
R ing
R eb
R ivaldo
S Ã´i
S á»Ńa
S ir
S aha
S imon
T áº¿
T an
T á»©c
T áº·ng
T áº©y
T alk
U y
V Ã¡n
V is
V ac
V ista
V ersion
X á»©
Y our
] .
b á»ĭch
b Ã³c
c il
c á»Łi
c ock
d ia
e at
f ile
g ai
g ano
h á»Ł
h Æ°á»Łng
h Ã£y
h aus
j ar
j ic
k ai
k eb
k ÃŃn
k az
k ova
l Ãłnh
l iá»ĩu
l Ã¢m
l áº¯m
l ie
l aw
m Ã¹
m áºŃp
m á»įc
m iáº¿ng
m ins
m icrosoft
m ido
n u
n ing
o us
p ak
q i
q l
r em
r á»Ļng
r uk
r istani
s Ã´ng
s Ã¢u
s el
s up
s ico
s ini
s bury
t m
t á»ĳ
t uyá»ĩt
t est
t ober
u u
u tri
v Ã¢n
v Ãłi
w u
x Ã¹
x er
x Ã¢m
x á»©
y eh
z eg
± ng
Ã ī
Ġ 000
Ġ á»Ľ
Ġ áºŃm
Ġ oliu
áº ®
ng áºŃm
Ġt Æ°á»£c
Ġt Ã¨o
Ġt áº¹t
Ġc Ãłu
Ġc lor
Ġc pu
nh Æ°á»Ŀng
nh iá»ħm
Ġv ani
Ġv Pro
Ġth á»ĳc
Ġl in
Ġl áº¡n
Ġl iá»ĩm
Ġl Ã¬m
Ġl Ãµa
Ġh uyá»ħn
Ġh eli
Ġch Ãªm
Ġch Ãµng
Ġch Ã²e
Ġb ec
Ġb ien
Ġb Æ°Æ¡u
Ġm Ã¨m
Ġm ult
Ġtr á»ĳi
Ġtr Ä©nh
Ġnh om
Ġnh Æ°á»¡ng
Ġnh iet
Ġnh Ãµng
Ġnh á»¥t
Ġs m
Ġs á»ĭ
Ġs Ã¡i
Ġs áºŃu
Ġs Ã¡m
Ġs Ãµi
Ġs iro
Ġs atin
Ġs logan
Ġn áº«ng
Ġkh Ãł
Ġg áº§u
Ġd eal
Ġd isk
ph áº¿
ph áº¡m
Ġph er
ĠT Ã¬
ĠT Ã²
ĠT á»ĭch
ĠT iáº¿u
ĠT ie
ĠT oan
ĠT ala
Ġvá» £i
ĠÄĳá» Ľp
qu ita
Ġqu áº¯p
Ġgi Æ°
Ġr Ã¢
Ġr est
Ġr á»ĭn
ĠN Ã´
ĠN ess
ĠN oc
ĠN PT
ĠN eg
ĠN anyang
Ġx ac
ĠC TV
ĠC TC
ĠC esc
ĠC CR
ĠC yclo
ĠH M
ĠH Ã´i
ĠH á»ĳi
ĠH Ã¢m
ĠH af
ĠH eng
ĠH ello
ĠH ild
Ġchá» ±ng
Ġcho áº¡c
ĠV K
ĠV á»ĵng
ĠV ary
ĠV log
ch áºŃu
ch Ã´m
ĠB Ã´
ĠB Ã¬
ĠB áº¥m
ĠB ui
ĠB PC
ĠM Ã¡c
ĠM Ã¹ng
ĠM MC
ĠM RI
ĠÄĲ D
ĠÄĲ á»ĳt
ĠTh S
ĠTh al
ĠTh áº¥m
ang ere
ĠL B
ĠL á»Ł
ĠL il
ĠL az
ĠL ast
ĠL act
ĠL á»¥a
am mar
am oah
on n
ĠS C
ĠS U
ĠS z
ĠS Ã¡c
ĠS it
ĠS ag
ĠS ot
ĠS osa
ĠS áºłN
ĠP ag
ĠP ing
ĠP FA
ĠP HP
ĠP AP
ĠP aint
Ġgiá» ¥
ĠA x
ĠA VI
ĠTr áº§u
ĠTr Äĥm
Ã½ p
ĠNg áº§n
ĠNg Ã¡t
ĠNg á»įa
ĠK Q
ĠK et
ĠK á»ĩ
ĠK iel
ĠK ansas
ĠCh ay
ĠCh iáº¿t
ĠCh ak
ĠCh uk
ĠCh op
ĠCh iá»ģng
ĠCh ase
Ġthu oc
Ġsá»± TiÃªu
ĠNh Æ°á»Ŀng
ĠNh á»©c
ĠD P
ĠD h
ĠD ob
ĠD ion
ĠD awson
ĠD DoS
ĠD alaphone
ĠD etroit
en er
ĠG á»ĵm
ĠG ul
ĠG olf
Ġdo ll
ĠPh Ãłng
ĠPh alaj
ÄĲ á»ĩ
ÄĲ Ã²i
ar f
ar ov
Ġcon sole
ĠR G
ĠR ab
ĠR ow
ĠR Æ¡m
ĠR ita
Ġtu á»ģnh
ĠU K
ĠU li
or ia
Ġ4 000
Ġ4 17
Ġ4 75
Ġngo áº¯t
ĠKh áº¯p
Tr áº¡i
et ic
Ch iáº¿u
Ch Ã¡y
ro j
ro z
ĠQu á»·
ĠGi Ã¢y
ĠGi áº¥u
at ing
hi y
ĠE Z
ĠE tienne
ol ine
ol esterol
ĠF ac
ĠF und
ĠF att
ĠF ield
ĠF SH
ĠF aye
is Ã´
Ġan olyte
ĠW h
ĠW ing
ĠW omen
Ġ8 45
Ġ8 35
ĠJ ah
ĠJ osh
ĠX NTD
Ng Ã³n
ĠHo Ã¨
om ir
Ġchu n
Ġdá» ĥ
Ġ9 20
Ġ9 80
Ġ9 43
ĠY es
ĠY oga
ag i
id th
ĠAn cic
Ġ20 25
Ġ20 46
os lav
ĠO TC
ĠO ff
ĠO cean
un ez
ac ai
ĠIn str
Äĳ áº³ng
Ġ30 7
ent i
Ġngu áºŃy
amp oo
ak ul
se f
um er
Ġcá»¥ ng
Kh iÃªu
Ġá» ª
ov kovsky
ir Ã´
ir am
ul on
ul ator
19 51
eb el
est i
ÄĲT B
á»¡ i
Ġ25 3
Ġ25 00
ĠAl icia
ĠDo or
Ġnhá»Ľ p
Ġ16 9
ess or
ĠMar ta
ard ner
ran t
ĠZ ar
ĠZ ero
TT VN
to um
te ine
kh Ã¡m
20 20
ĠLu x
ex a
ĠBar rac
ab uri
Ġ40 5
15 3
Ġly sine
ĠSh im
ĠSh ane
ĠSh imon
ĠSh iatsu
ĠSh ovkovsky
ĠMai er
ĠMal mo
ier ia
po ussis
ail s
ail ani
ail les
Ġe ng
13 7
13 9
16 9
pr i
ĠWor k
ern ame
ĠCar m
ĠCar t
ĠCar rick
Ġ26 7
Ġ26 9
ĠPar acetamol
ber i
ĠMan t
ite k
ĠRom ero
ame ngo
ly a
ly se
Qu Ãł
Qu áº¡t
ord i
Ġxo Ãłnh
if t
if ood
eg io
Ġxu á»ģ
op utri
ĠBush ehr
ko w
ge un
ĠHy pp
24 5
ĠMy c
ĠMy ung
ĠWin ter
ech t
ĠRob y
ien na
ĠCan xi
ĠVal asine
ĠPhilip poussis
st edt
ĠPr eston
ari um
ĠAb el
ĠAb raham
Ġ35 4
22 6
ĠAm ir
ĠAd an
ĠAd min
ĠCl ap
ĠCl ip
04 0
04 8
ĠAs ahara
ĠAs amoah
ĠBer ti
ĠMich alis
EC B
Ġhu Ãªnh
ĠTot sch
ĠCal m
ĠSo chaux
go od
Ar thur
ĠEd itor
AC T
ĠPak san
34 7
ĠMat ch
Ġde f
de av
ĠVC CI
Ġ38 5
ĠAng resto
ĠBo A
ĠBo onen
ĠShar if
yl ie
99 98
DC K
ĠSil via
ĠSil mido
ĠBu eno
Ġj ack
ĠPro Liant
Ho ang
ĠRos a
ĠRos ales
ĠRos tock
Ġi Mac
TH TT
mo on
Ġpro lactin
ĠVI NA
ĠCo ast
Al t
Al ain
ĠKar b
ĠKar ol
ĠKar aoke
Ġox it
Ġox ide
ĠTV MT
65 2
Ġon f
erk erk
ĠSol o
ĠIr v
ĠIr áº¯c
ĠMot o
lan then
Ġlá»į n
OC I
ĠCap itol
ĠAth en
Ġmod e
ĠNet Nam
ĠNet ChÃ¹a
ĠKy le
sh aw
ĠArm itage
ĠSm all
AF I
ĠGM T
nes ium
ĠMer zb
int hi
ĠRam on
ĠYo uss
ĠMi jail
ĠDom ain
ĠKho ang
ĠKhai zan
ĠBÄĲ LA
ĠHan el
afe ez
ĠOr gan
ĠMu khtar
ĠSaf orimex
ĠHel stad
ĠLad in
ĠWil fred
Bl ack
ĠNic obar
ĠThur man
ĠBos que
ĠAP I
ĠAP PF
ĠNay bet
ĠGonzal es
ĠRum menigge
Ġpoly phenol
ĠAsh lee
ĠAsh croft
ĠSG GP
off ee
ĠBur ks
ĠFr ont
ĠFre ud
ĠTech com
ĠVit ali
ĠQL HCVTTXH
ĠMax tor
ĠLo ok
ĠHer cul
ĠStar force
ĠVol ody
iff er
ĠZam ora
ĠWi Max
ĠSup achai
Ser ena
ĠBlue wings
ĠDong won
Ġcarbon ate
ĠJam lus
Sp ace
Ġsal icyl
Net Rat
ĠTak uma
inn ikov
John ny
ĠCost as
dá»± ng
ĠMik el
ĠOle ksandr
ĠEll sberg
ga ard
BAR D
ĠIslam iah
ĠDal at
Col in
DR AM
thu áº¿
ĠBak u
ĠDus cher
Cam eroon
ĠBrad ley
ĠHall oween
ĠColum bus
ĠPatt aya
ĠSand ra
arn oputri
arn shaw
ĠHenrik sen
Ag ostino
Geor g
ĠCu Ã´ng
Ex p
ĠSay ed
ĠTTC P
Ġad min
Ġad apter
ĠTs uk
ĠKit ty
ĠFile See
Ġpar ab
El ton
log ger
ĠCit ibank
ĠChap lin
ĠDun can
Ukrain e
Ġki em
Ham as
ĠLeg rott
Fab ian
ĠHas an
tho Ã¡ng
ĠStart up
Ġar sen
Ġhist Ãªri
ĠDeb rec
Rub en
ĠSuk arnoputri
ashid ze
Lau ghlin
Ġq á»§a
Ġbáº½ o
ĠLex us
ĠHeid i
ĠTat iana
áº¾ N
ĠBiro wisc
ĠYok ota
reg or
ĠJP EG
Mat th
cu it
-------- --------
Ta ekwondo
Æ¯á» ļ
ĠAsp irin
ĠMes haal
ĠKel ley
ĠEmil io
Cap rio
wart z
Se ong
UN CIN
ĠGus taf
ĠnÆ°Æ¡ c
ĠSok ota
ĠSok unth
ĠImp erial
ĠHash emian
ĠMetropol is
ĠHuong To
Robot s
há»į p
ĠNC UK
ĠCand ela
ĠPach on
ĠEM IS
agh er
ĠcuÃ´ c
Ġeth er
agl ie
vec chio
ĠGirl s
For ce
ĠSton es
ĠKall on
obac ter
Gar cia
ĠPhilipp ine
ĠRou ge
rab acher
Rec over
ĠFoss ati
Ber lusconi
Ru ud
ĠHir sch
ĠRest ore
ĠNGUY á»ĦN
ĠArman do
throm ycin
ĠOE B
ĠVon lanthen
ĠBarr ett
ĠhÃ©c ta
Ġsec ond
Te am
ĠCCH C
ĠDeg o
Amer ican
ĠNeb raska
ĠBever ly
ĠAlen ichev
ĠProt ect
ĠNut ifood
ĠBaik al
ĠSuch ao
ĠGraph ics
ĠWant ed
ĠBurg ess
Zaw ahri
ĠDF B
Ġprost aglandin
ĠPrec ision
ĠMoen chengladbach
ĠZdrav kov
Gon zal
Hew itt
Syl vain
ĠMlad ic
ĠPharm aceut
ĠSchw ab
eftriax one
Cen tre
Å¨ NG
ĠSrin agar
ĠNamib ia
ĠMagdal ena
Ġseroton in
Lie chtenstein
ĠCTT TS
ĠFus ion
ĠThier y
ĠQos mio
ĠZiv kovic
ĠZie ge
Ship One
ĠPompei i
tober fest
ĠPhalaj ivin
ĠBarrac uda
ĠTotsch nig
ĠMerzb acher
ĠYouss ouf
NetRat ings
ĠLegrott aglie
ĠDebrec en
UNCIN PEC
ĠSokunth ea
% )...
5 24
6 32
6 42
6 39
8 28
9 40
9 80
9 75
A ir
A BC
A ct
B K
B Ã¹
B us
B áº¥m
B á»ģ
C Æ°á»Ŀi
C res
C JD
C ours
D ong
D Ã¢m
D ig
D rogba
E v
F L
F uji
G an
G Ã¡nh
G or
H Ãłi
H uyá»ĩn
H Ã¨
H ernan
H á»®U
I t
I SP
J oa
J ustin
K N
K á»ģn
K aka
L á»Ļc
L it
L á»±a
L NT
L td
M ain
M Ãºa
M BA
M IT
M atch
M bps
M agic
N ak
N iel
P aulo
R es
R aikkonen
S ur
S tel
S pe
S ett
S JC
S earch
S iem
T Ã¡o
T ur
T ing
T ob
V á»Ł
V áº½
V ik
V ass
V SP
W S
W AT
X a
X Æ°Æ¡ng
b ung
b Æ¡i
b Ã¡m
b á»ĳn
b Ã£i
b ak
b ass
b Ã³p
b ollah
c Æ°á»Ŀng
c ip
c ott
d inh
d ings
f orth
f ree
g un
g mail
h áº£i
h ung
h áº¥p
h á»ĵng
h om
j ung
j ev
j ack
k ut
k áº¹o
l á»Ĺi
m Ã¡c
m Ã¢y
m Ã¡i
m á»ı
m Ãºa
n en
n Æ°á»Ľng
n áº¯m
n ow
p c
p ic
p ut
p ini
p rog
p ola
p tion
q ing
r Ã´ng
r Æ¡i
r im
r ina
r ena
s áº¿u
s uk
s yah
s treet
s ava
t p
t á»ĭt
v d
v elt
w aldo
x Ãºc
y t
y st
y ek
z antine
Ã ĥ
Ã Ļ
Ġ Ã©n
Ġ Æ°Æ¡n
ng á»Ļ
ng á»įc
ng á»Ńi
Ġt áº§u
Ġt Ã¨
ĠÄĳ on
ĠÄĳ áº©u
nh ÃŃ
nh áº¯c
Ġv od
Ġv eston
Ġl á»ĭa
Ġh áºŃp
Ġh áº©m
Ġh Ã¨m
Ġh ave
Ġch Å©i
Ġk á»ĭt
Ġb am
Ġb eo
Ġb Ã²ng
Ġb or
Ġb ond
Ġb Ãµm
Ġb áºµm
Ġb alÃ´
Ġm in
Ġm á»ĭch
Ġm Æ°ng
Ġm Ãµ
Ġm á»§i
Ġm atch
Ġtr Ã¢
Ġtr áº¯m
Ġnh Ãºc
Ġnh em
Ġnh á»©t
Ġnh á»¥y
Ġs Ã¬
Ġs áºŃy
Ġs Ã²m
Ġs elect
Ġn Ãł
Ġn ight
Ġg e
Ġg á»Ļt
Ġg Ãły
Ġg ent
Ġg az
Ġg ala
Ġd iÃªu
Ġd á»ĭnh
Ġd Ã¨m
Ġd á»Ľp
Ġd eck
ph e
ph iÃªu
ph Ã©p
ph yl
ph rey
ph osph
Ġph Ã²
Ġph á»ķng
ĠT U
ĠT au
ĠT áº©y
ĠT Ã¨o
ĠT ah
ĠT iz
ĠT iff
Ġvá» ©c
Ġqu Äĥn
Ġr Ã´i
Ġr áº¡m
Ġr et
Ġr ob
Ġr ÃŃu
Ġtá» įt
ĠN ord
ĠN ast
ĠN ice
ĠN ara
ĠN ovak
ĠN US
Ġx Ã¬nh
Ġx á»ĭch
Ġx áº§m
an an
an ti
an ova
ĠC ash
ĠC TTH
Ġhá» ·
ĠH iá»ĥm
ĠH us
ĠH ez
ĠH Ã¹m
ĠH sin
ĠH OC
ĠH uss
ĠH ipp
ĠH afeez
á»Ł n
Ġchá» ıng
ay an
ay aro
ĠV áº¡ng
ĠV if
ĠV iva
ĠV ÄĤN
ch on
ĠB áºŃc
ĠB áº«y
ĠB akh
ĠB á»¥t
ĠM R
ĠM X
ĠM á»ĭ
ĠM áº¯c
ĠM DF
ĠM ami
ĠM á»Ńng
ĠM uzzi
ĠÄĲ Ã¹ng
ĠÄĲ á»ĵi
ĠL Æ¡
ĠL ist
ĠL if
ĠL LC
ĠL uigi
ĠL ML
Ġ2 11
on ov
ĠS á»ķ
ĠS Ãło
ĠS ui
ĠS Ã³i
ĠS á»ım
ĠS utra
ĠS ource
ĠS ullivan
ĠP G
ĠP avar
ĠP SA
ĠP AM
ĠP ike
ĠP LC
ĠP atch
Ġho use
ĠA U
ĠA CM
ĠA tal
ĠA ps
ĠTr ÃŃnh
ĠTr Ãło
ĠTr Ãºng
ĠTr ade
ĠNg áº¯m
.. )
ĠK Ã¨
ĠK ro
ĠK ou
ĠK uro
ĠK uc
ĠK itt
ĠK ama
ĠK wan
ĠK FC
ĠK cal
ĠK ryp
ĠCh eo
ĠCh Ã¬a
ĠCh ange
Ġthu Ã´n
ĠNh á»ĭn
ĠD au
ĠD Ã¬n
ĠD est
ĠD emi
Ġbá» Ľ
ĠG Ãµ
ĠG IA
ĠPh á»©c
ĠPh Ã©p
ĠPh á»ıng
ÄĲ o
ÄĲ iá»ĩp
ÄĲ MN
Ġ3 32
ar as
ar ner
al en
al ya
em ia
Ġlo m
ia do
ĠR ush
ĠR ash
ĠR wanda
ĠU der
ĠU IA
ĠU MP
ĠU MTS
Ġ4 12
Ġ4 45
Ġ4 32
Ġ4 34
ĠI SG
ĠKh iÃªu
Th Ãły
Th Ã¢m
Th Ã¡p
il s
il us
Ġthi Ãª
Ġthi Ãªm
Ġnghá» ħ
Ġ6 11
Tr eo
Ġvi rut
as ol
as eco
Ch Ãł
Ch uá»ĳi
ic ol
us ta
ĠGi ul
at en
hi s
ĠE V
ĠE ph
ĠE MC
ĠE trus
ĠE arnshaw
ol am
ol ic
ĠF H
ĠF ong
ĠF lin
ĠF ior
ĠF BS
ĠF ashion
ĠF UNCINPEC
is awa
Ġ7 15
ĠW ak
ĠW ho
ĠW hen
ra gueno
Ġ8 90
Ġ8 65
Ġ8 49
ĠJ or
ĠJ ankovic
ĠJ owell
ĠJ JB
ĠX áº£y
Ġ19 37
Ng á»«ng
Ġmá»į n
Ġban ner
Ġ9 10
Ġ9 14
Ġ9 999
ad emy
ter yx
ĠY ue
ĠY ear
ĠY teco
th ai
th áºŃn
th á»ıa
id ine
id wa
ĠAn im
ĠAn igo
os in
ed eo
ĠO SC
ĠO oij
un s
ac tic
ĠIn te
Äĳ Ã²n
Äĳ em
Äĳ uÃ´i
tr ao
tr im
tr á»©ng
Ġ30 3
iv il
iv itamin
ot ech
up e
up rof
do gan
se in
Ġcá»¥ p
Kh ÃŃ
Kh Ã¡i
Kh Ã¡ng
Kh áº³ng
ev ille
ev ision
ĠHu ck
ĠHu bert
ĠAr áºŃp
19 6
19 50
19 58
eb rand
ie fer
Ġw hi
ho Ãłnh
Ġ25 1
ĠAl lan
Ġ50 4
Ġ50 6
Ġ50 8
ĠDo yle
Ġp a
Ġp at
Ġp pm
ĠMar ca
ĠMar dy
ĠLe ch
ĠLe ipzig
ĠZ im
ĠZ apat
TT L
TT N
ell s
te en
kh uyáº¿n
kh á»ķng
kh ov
od ruk
20 15
ĠLu z
ĠLu ther
of a
of er
Ġ23 6
ĠkÃª t
ab azi
30 5
Ġf ans
Ġf ree
ah arl
ĠMilan o
Ġin stall
ĠSh an
âĢ¦ ),
oh ann
oh yd
ik os
ĠSing er
ĠSt al
ut u
ut nik
Ġbá»¥ t
13 8
af ood
%. -
TV S
ĠPal op
ĠCar b
ĠCar rie
Ġ26 3
ĠPar ti
ĠRom ar
17 9
ĠBr ÃŃu
ĠBr enda
ick i
ĠBra ga
Qu en
Qu Ã¡ch
if y
if ied
eg ra
ep end
Ġxu Ãª
ĠÄĲT NN
oy en
ĠBl azek
Le ary
Ġ29 3
Ġ29 6
á»ŀ NG
gi Æ°á»Ŀng
gi áº¥u
gi Ã¡p
ĠWin d
ĠSan ty
ĠCon stant
ĠVal ery
st ro
ester day
ĠPr et
ĠPr ev
Ġsu c
ĠPet kov
Ġ45 4
ĠAb ashidze
ĠSch wartz
ary One
Ġtan in
ĠHen nessy
ĠTN S
ĠViet el
ĠViet co
ĠEuro pe
ĠAm ore
ĠAm edeo
Ġcu oc
art as
In zaghi
ĠRo os
ĠSe ab
ath ine
ĠTT KT
ĠTT DD
Ġvá»Ł n
ĠDel vecchio
ei ji
ĠEl ie
ĠSc ient
lin k
gh iá»ģn
ĠPer m
ĠGr ai
ĠEd son
Ġ36 6
ĠEr dogan
ĠMc Laughlin
ĠThe ater
33 2
ert ure
ith rom
sp ace
sp iron
34 2
gar a
ĠGl ock
ĠSA R
ant isi
ĠDe utsche
CS E
ĠCor inthi
ĠPl asil
ĠPl amen
Ġ38 1
An na
ĠBo ot
kho an
Ġ39 6
ĠGer man
Ãģ C
burg er
HA N
ĠRos etta
ĠBang al
hd ar
Ġpro ton
ĠBul let
ĠVI NASA
ĠVin ak
ind ade
ĠHol land
ĠHol dings
Al bert
ĠVina Cap
Ġcl ass
Man cebo
ĠTV H
ĠShi b
Ġ49 6
Ġ49 7
Ġvac cin
ĠSim acai
Ġsc ript
ole on
ĠxÃ¬ cÄĥng
ish er
ĠChrist mas
ĠGar ry
eth ane
ĠPetro vic
ĠEn igma
Ġtru á»Ŀng
ĠhoÃ³c mÃ´n
ĠUr s
ĠTour ist
ĠNet sky
ĠKy u
ĠKy omizu
ĠGh en
CD MA
Ġgam ma
ĠFor r
ĠFor mat
ĠMont ana
ĠFl ag
St art
ĠBel em
ĠJi ang
ĠTa ek
orm one
ngh iá»ĩp
ngh Ã¬n
ĠJuan ito
KH ÃģCH
ĠGen ius
ĠKr uger
ĠAz zam
Mar co
Sh eikh
Sh aron
ĠHa e
aster t
ĠVid ic
yc ine
ĠPas qu
ĠGall agher
ĠWe ir
ĠCO PD
ĠSon ny
ĠMass oud
ĠPe ace
ĠLou ise
ĠMe jia
ĠTech no
TG ÄĲ
ĠAli Ã©nor
kin en
ĠCop pola
Lev i
ĠTy pe
ĠPra da
ĠWar nock
EP O
Ġtá»ħ nh
ĠDar ith
ĠBank ing
ĠSain sbury
Ġmot or
ĠStr at
ĠBut ragueno
ĠNat anz
ĠKat s
ĠKat erg
Ġcomp le
ĠÄĳá»į an
ĠJenn y
ĠIm am
ĠJam ali
rin ovsky
ĠZe it
Net Sky
ĠVer izon
ĠHor ison
ĠMcC ain
Mess i
Ġcent imÃ©t
ĠOk toberfest
ĠRec ord
ĠNG N
ĠCur ie
ĠCur tin
ĠWill is
ĠMen u
ĠEdu ardo
ĠNT ÄĲ
ĠKhat aco
ĠMeg h
ĠKn orr
TR T
Ãļ Y
ĠOliver a
ĠPower Point
ĠDra w
ĠGill igan
wat er
ĠAss is
ĠTran To
tu á»³
ĠBir thday
ĠJeff er
Ġmeth yl
zh ny
ĠAk bar
ĠMand ra
ĠTTC N
ĠDio go
Ġad ware
ĠPat ty
ĠPat ience
ĠCorn aro
Ġmag nesium
ĠLab or
Petro limex
ĠYou zhny
Ġbox er
Ġsh are
ĠFav a
ĠSem mel
ĠTrev or
ĠTown send
Ġat isÃ´
ĠVar an
ough lin
ĠWo on
ĠNab arro
ĠDim it
ĠGet WebPics
ĠInst all
ĠPos tinor
ĠKovac evic
!! !
Erik sson
Ne il
VP CP
VP Bank
Bu ffet
ĠMb abazi
ĠRiver a
ĠGCN QSDÄĲ
ĠConver t
ĠHut ch
por ary
ĠLak hdar
ĠFilip pini
ĠYul ia
ĠXiao ai
ĠviÃª c
ĠEast wood
ĠHak kinen
ĠZaw ahri
ĠWhit ney
ĠThink Pad
Har by
ĠDia by
ĠSpam Swe
ĠGriff ith
zin ski
ĠEp co
ĠCanc ellara
Iá»Ĩ P
ĠDD VN
ĠCip utra
ĠFah renheit
tis an
ĠNem odruk
ĠMega VNN
ĠGigab yte
ĠPellegr ino
ĠXo ay
ĠSali u
ĠIndustr ial
ĠDM Z
ĠMoss ad
ĠTrib eco
Ġcalor ie
ĠUnder wood
ĠArman i
Ġtel omer
ĠLup atelli
ĠHoff man
Ġá»¦ ng
Mer cedes
ĠAguil era
ĠGale po
ĠIndian apolis
ĠCourt ney
ĠNikolai dis
ĠJaw aharl
ĠYah yah
ĠArk ansas
ĠShuk or
Cad iz
ĠVad im
ĠRams es
Ġlym pho
Ġgluco z
Not es
ĠChronic le
Champ ions
ĠAcro bat
Ġadren alin
Pers ik
pell ier
ĠNaz ri
ĠBib ica
ĠGad hafi
ĠJakob sson
Je ff
Lin ux
trac t
ĠKN XK
iran ek
iann akis
ĠAmbro se
ĠScal oni
ĠCott age
ĠÄĲTT X
ĠSuri ya
ĠPont es
ĠFeder line
ĠAlien ware
ĠMadag ascar
ĠWhitt ington
Hill ary
Magn us
Ġtal uy
ĠBier hoff
ĠYoun is
ĠCorle one
Serge i
ĠSaktia wan
Ġglutam ate
Zin edine
Ġmelan in
ĠMarb ella
ĠZiz ou
ĠBaumg ardner
ĠPunj ab
ĠOvch innikov
keb ack
ĠHild ebrand
ĠVary ag
Ġgiá»¥ a
Ġdoll ar
arf arin
ĠCalm ette
ĠVolody myr
Seong nam
Cres po
Niel sen
Siem ens
Ġvod ka
ĠLML M
ĠAps ara
ĠEtrus can
ĠOoij er
uprof en
ĠParti zan
ĠVinaCap ital
ĠxÃ¬cÄĥng Äĳan
ĠSemmel weis
ĠSpamSwe eper
! ');
% (
& ),
' -
+ .
, -
. ",
0 25
2 19
3 26
3 31
4 27
4 35
4 70
5 33
5 43
6 30
6 60
6 90
8 70
8 99
8 58
9 30
9 70
A B
B áºŃn
B in
B Ã¡t
B un
B iz
C á»±
C áº¡nh
C á»Łi
C os
C lin
E quipe
F an
F ah
F ull
F uj
G et
G ill
G Ã³i
G á»£i
G all
G DCK
H ang
H áº§m
H oan
H áº¹n
H igh
H GC
I B
I R
I ker
J ohann
K or
K Ã¨m
L Ã²
L ou
L á»įt
M Äĥng
M á»ĳt
M ade
N á»£
N áº·ng
N eal
O o
O ut
O ff
O mar
O SC
O ECD
P ower
P earce
R en
R io
R ey
S i
S Ä©
S á»ıi
S how
T F
T K
T iá»ĩc
T em
T á»ĩ
T uÃ¢n
T oney
T erry
T iago
T exas
T ime
T imo
V L
V illa
V EC
V SN
V CCI
W ood
W EF
X box
X abi
Y P
Z d
Z an
Z ahar
b Ãª
b Æ°á»Ľc
b áº»
b áº¡ch
b os
b ac
b áº¿p
b ut
b áºŃc
b by
c Ãłng
c en
c uá»ĳn
c á»Ĺ
c Ãºm
c ode
d f
d ang
d ao
d Å©ng
d el
d ic
d ien
d pi
d á»ım
e au
e id
f ort
f man
f Email
f Content
f Title
h Ã´ng
h áº§m
h urst
j t
j ui
j ee
k ong
l áº§u
l áºŃt
l á»į
l Ã¢u
l im
l áº·n
l ers
m Ã¬
m Æ¡
m Æ°a
m áº¡ch
m ob
m obile
n s
n em
n um
n ez
n á»Ļp
n old
n ual
n roe
o ch
o ai
o ja
o Oo
p ong
r er
r up
r um
r ian
s l
s s
s áº§u
s á»¯a
t c
t Ã´n
t áºŃu
t á»ĩ
t áº§ng
u oka
v y
v áº¡ch
v ir
v Ãªnh
v á»īa
w ett
w ald
x Æ°á»Łng
z z
Ä ¨
Ġ er
Ġ Æ°á»¡
Ġ Ãºa
ng Ã³n
Ġt Æ°a
Ġt if
Ġc or
Ġc ra
Ġc os
Ġc ombo
Ġc rÃ´m
ĠÄĳ Ãºa
nh ung
nh áº§m
Ġv W
Ġv áº³ng
Ġv as
Ġv uc
Ġth Ãło
Ġth Ã³a
Ġl áº£nh
Ġh s
Ġh and
Ġh igh
Ġch Ã´
Ġch áº·c
Ġb Ã¡p
Ġb il
Ġb et
Ġb oa
Ġm iá»ģu
Ġm uá»ĳt
Ġm ess
Ġtr Æ°
Ġnh Ãº
Ġnh ien
Ġnh ÃŃu
Ã´ chÃª
Ġs k
Ġs á»īnh
Ġs á»ĭt
Ġs edan
Ġs aran
Ġn x
Ġn Ã¡i
Ġn ui
Ġn umber
Ġkh áº£n
Ġkh uyá»ĥn
Ġg op
Ġng áº¯c
Ġd Ã¢
Ġd iá»ĩc
Ġd ate
Ġd iat
ph á»ķ
ph Ã¡i
Ġph áº¥p
Ġph um
ĠT áº¡n
ĠT á»ĵn
ĠT ore
ĠT oáº¡i
ĠT ain
ĠT sin
ĠT aryn
qu Ã¡n
Ġqu á»Ł
Ġqu Ãłn
Ġqu áº·p
Ġgi rl
Ġr Ã¡
Ġr Ãły
Ġr Ã©
Ġr áº·t
Ġr ep
Ġtá» Ŀi
ĠN W
ĠN im
ĠN oy
ĠN iger
ĠN iz
ĠN OK
Ġx ang
Ġx áº¡o
Ġx á»©c
an sen
an ey
an ovic
ong k
ĠC ui
ĠC TN
ĠC ache
ĠH Ã²
ĠH áº¿n
ĠH eo
ĠH áº¡ch
ĠH Å©
ĠH uá»ĳng
ĠH ague
ĠH ert
ĠH ealth
ĠH astert
ĠV Ã³c
ĠV do
ĠV á»Ľt
ĠV iá»ģng
ĠV EF
ĠV eer
ĠV itek
ch inh
ch in
ch ÃŃch
ch áº£o
ch Ãºt
ch á»ĳt
ĠB B
ĠB á»±c
ĠB uá»Ļc
ĠB ed
ĠB ev
ĠB áºµng
ĠB ly
ĠB uk
ĠB ath
ĠB att
ĠB AN
ĠB reak
ĠB US
ĠB XL
ĠB ixente
ai kh
ĠM Æ°Æ¡ng
ĠM oi
ĠM ou
ĠM ona
ĠM azz
ĠM bek
ĠM AN
ĠM ecca
ĠÄĲ uá»ĳng
ĠÄĲ VSN
ĠTh Ã¹ng
ĠTh oÃłn
ĠTh av
ĠTh iago
00 4
ĠL on
ĠL ic
ĠL á»¡
ĠL ite
ĠL ike
ĠL á»ģnh
ĠL TE
ĠL ogo
ĠL ÄĲTB
am ante
am phen
ĠS á»ĵng
ĠS is
ĠS ed
ĠS od
ĠS SB
ĠS rich
ĠS ext
ĠS hop
ĠS andro
ĠS asa
ĠS OS
ĠS DD
ĠS DRAM
ĠP Ã¹
ĠP te
ĠP anda
ĠP yrene
ung e
Ġho Ã¡c
Ġho cm
Ġra pper
ĠA in
ĠA ver
ĠA HV
ĠA coo
ĠTr á»ĵng
ĠTr á»«ng
ĠTr indade
Ã© e
Ã© s
Ã© on
ĠNg oa
ĠK uk
ĠK rabacher
ĠK iefer
á»į p
ĠCh Ã¡o
ĠCh es
ĠCh á»Ľ
ĠCh áº¡p
ĠCh ok
ĠCh á»Ľp
ĠCh ow
ĠCh atchai
Ġthu Ã¢
ĠNh ac
ĠD T
ĠD U
ĠD áºŃy
ĠD ab
ĠD Ã£y
ĠD ino
ĠD aud
ĠD rew
en ne
Ġbá» ©ng
Ġbá» ĩch
ĠG á»ıi
ĠG ear
ĠG CI
ĠG CQ
ĠPh ai
ĠPh en
ĠPh Ã¡ch
ÄĲ iá»ģn
ÄĲ áº¯c
ÄĲ á»ģn
Ġ3 21
ar am
ar ria
ĠQ BV
ĠQ VGA
al s
al er
al eo
al go
al ert
em ente
em dee
Ġdá»¥ i
Ġlo Ãł
es us
es per
ĠR Ã´ng
ĠR áº£i
ĠR ox
ĠR olf
ĠR aik
ĠR ings
ĠR ato
Ġtu áº¥n
ĠâĢľ .
ĠU tt
or ah
Ġ4 11
Ġ4 38
Ġ5 15
Ġlu Ã¢
Ġlu ong
Ġngo áº±ng
ĠI L
ĠI ce
ĠI ll
ĠI EEE
ĠKh ay
ĠKh áº³ng
ĠKh ad
ĠKh iáº¿m
ĠKh á»ıi
Th á»į
Th Ã¡nh
il ia
Ġcá»© t
Tr á»¥
Tr á»±c
Tr áº¯ng
as u
Ch á»Ľ
Ch Ã¬a
Ch irac
ro be
ic us
us ch
us to
ĠQu á»µ
ĠQu int
at ore
at ure
hi b
hi t
hi ro
hi re
hi pol
ĠE Q
ĠE f
ĠE t
ĠE wood
ĠE CB
ol ar
ol son
ĠF ai
ĠF ro
ĠF ly
ĠF ocus
ĠF IDE
is ton
ĠW y
ĠW el
ĠW it
ĠW TC
ĠW ise
ĠW ifi
Ġ8 24
Ġ8 44
Ġ8 46
Ġ8 269
ĠJ ailani
ĠJ iranek
ĠX áº£
ĠX uá»ĳng
Ġ19 19
Ġ19 25
Ġbu ll
om one
Nh áº¥n
Ġto e
Ġto Ã©t
Ġnghá»ĩ ch
ĠY au
ĠY ing
ĠÄĳá»§ ng
th iá»ĩn
th ic
th á»§y
th Ã¨m
th alay
ag ine
ag ne
ur esti
Ġxá»Ń ng
id an
id ay
id ou
Ġchi Ãª
ĠO th
ĠO ECD
Ġtráº£ m
ac es
ac ios
le en
le ad
ĠIn cheon
Äĳ áº£m
Äĳ Ã³n
10 7
ĠLan cet
tr Ã¡ch
Ġ15 50
ing rad
Ġ30 2
Ġ30 5
oi z
Ph Æ°á»Ŀng
Ph am
Ph Ã¡o
Ph il
ĠCÃ³ t
Ġdi Ãª
ap py
do za
do ck
se va
um s
Kh Ã´i
Kh Ã©o
ev elt
ĠAr r
ĠAr cha
ir ez
Ġgh Ã¨
19 35
19 56
19 57
ĠÄĲH NT
ĠÄĲH QT
Ġw ill
ist or
ĠAl tin
ĠAl tis
ĠInter wett
ich t
Ġp lu
Ġp ull
ĠMar in
ran nos
ĠZ w
ĠZ ai
ĠZ ul
ĠZ eolit
TT XVN
ell in
kh Ã´
kh Ã¡n
kh Ã´n
kh Ã©o
20 5
of lav
ew are
ĠBar ret
Ġ40 3
Ġ40 8
15 2
15 9
ĠHai m
Ġf re
ry pt
Ġ24 7
ĠSh we
ĠMai k
ĠMal ouda
ik en
ĠEm ily
ĠSt ir
ut a
og i
og n
og ly
ta ch
ĠbÃŃ a
ĠbÃŃ m
16 6
pr as
ĠBarc lay
ĠPal acios
BÄĲ SN
ĠPar am
ĠMan it
ĠMan cebo
ĠBr ond
Ġal k
ĠIs abel
iet y
if eng
aw ay
NA TO
ĠTH I
ĠTH U
oy a
ri es
ĠBl ink
ĠBl ade
ĠHy o
ĠHy ung
ĠCol gate
ĠAS A
ĠAS CII
gi Ãª
gi áº¥c
gi yama
ect us
ĠCon f
ĠCon tr
ĠVal le
Æ¯ á»ŀNG
st and
ĠMon y
ĠMon ter
ow l
ow ow
ach an
ff er
ĠPr ivate
ĠDu is
Ġ45 9
ĠAb id
Ġ35 2
ĠSch e
ene i
ary o
02 6
ĠAm cham
ĠAd uly
ĠAd eno
ĠCl ick
ĠCl ive
ĠHA N
Ġcu oi
28 5
ib al
ĠFer enc
ĠKhu áº¥y
In d
ĠtÃŃ p
ek ka
ĠRo z
ley grass
Ġlá»ĵ m
ath ai
ĠTT BÄĲS
26 1
ĠGo then
Ġtri Ãª
27 6
ĠEl ement
ero th
ĠSc ot
ĠCN C
ĠBen in
yo ung
ĠPer eiro
ty s
ĠOlymp us
ĠEd na
ĠCD S
ĠPC B
ĠEr eli
eu w
ĠCity web
33 8
ĠDi aryOne
ĠMat iz
ĠGl ass
ĠAM Posted
SA WACO
Ġ34 3
ĠPl as
ĠPl ato
ĠSi beri
An dor
ĠSa Pa
ĠMob ifone
ann ing
ĠSam arra
HÄĲ ND
HÄĲ BA
ĠBu á»ĵm
ĠSte uer
ĠSte phan
ĠSte ffi
ĠCP P
Ġlá»Ł n
Ġi River
oun t
Ġro aming
ĠPeter burg
ĠRod a
Ġ? ",
berg er
ĠGu ang
ja j
ĠSal azar
ĠAc ademy
ĠHol e
Al arm
ĠNor izan
Ġ85 2
MA X
ĠBet t
SV TC
ĠBern ardi
ĠVi olet
ĠLat ham
ĠShi seido
Ġac c
ĠOp rah
ĠOp eration
ĠDa ei
ĠBill y
ink ansen
Ġ56 3
Ġ56 7
ĠIr on
ish ino
AS EM
ĠChrist ine
eth er
Ġlá»į at
CP C
ĠEn deav
ĠRobb ins
ĠLar sen
ust om
ĠEsp ay
ĠNet scape
ĠKy ong
sh ot
ĠGh Ã©
ĠFerr ara
ĠKH KT
ĠMer iem
Ġset up
ĠsÃ´ cÃ´la
by on
-- -
ĠYo ussef
bi ang
bi ya
Ġ79 7
ĠHan over
uj ol
ĠSav age
akh on
NH U
ger u
ĠTa hir
Ġ900 1
ĠLang biang
ĠOr ti
ĠOr tisan
ĠMu jahideen
Ġ87 9
ade j
ĠGen er
ĠWil ma
ĠWil kinson
ĠWil cox
Mar ia
iro v
ĠNV SP
ĠAv en
ĠTur ion
Ġbo ard
Ġbo ok
ĠMag ny
ĠMag uire
ĠJo el
ĠJo emdee
Ġ09 1
Br ian
ĠComp any
ĠWe ifeng
ster ia
ĠFr aser
ĠPatr ice
CB N
So und
per ties
ĠLuc apro
Cl audio
ife pris
Ġ(! ?)
ĠMax well
ĠNS NA
ĠGra v
ĠHer bert
ĠFar m
Ġli bero
ĠCop y
ĠAy man
dy s
ĠTomas z
Philip s
ĠNik kei
ĠBank Net
Bra d
ĠLim thong
ĠDaniel s
ĠNe ed
ĠMill au
ĠEv olution
ÃĶ I
ĠPT NT
ĠPo ols
ĠPao la
ĠKat z
ĠCaf Ã©
ĠChan el
Fran co
Ad vanced
ĠNov os
ĠZh u
ĠZh en
QL HGC
rat na
Ġbá»ĩ n
ĠZe euw
ĠSec ret
ĠPort land
asp x
ĠSin isa
ĠChar al
ĠNap oleon
ĠKo z
ĠKo jo
ĠValent ino
Sc ott
ĠHor ler
ator ial
ĠIC A
ĠYang bay
ĠRec over
ĠCann on
ĠAp ache
ĠYong byon
emer re
ĠMen doza
ĠKir sten
ĠWall ace
ÃĬ U
eop teryx
ĠIslam iyah
ÃĤ u
ĠCre ate
ĠBab ic
ĠBab ayaro
ĠSud ar
ĠDV B
ĠGreen wich
ĠTechn ip
Ġnu á»Ľc
ĠChim enti
ĠTHA NH
TR A
Gian luca
ĠPower PC
ĠGill ingham
Cam era
Cam eron
ĠTer je
ĠSN SD
ĠGe isha
tern ative
ĠPoly mer
Ġel ip
ĠIt anium
ĠHun ter
ĠKid s
ĠAN Z
ĠChe a
ĠChe ong
ĠSilv inho
ĠCB RE
ĠMed ina
ĠAle jandro
ĠFort una
ĠKi y
ĠSel ect
ĠRol ex
chu á»Ļt
ĠDev ice
ĠCit imart
ors che
ae ema
hot el
Ġmag ie
ĠDun n
ĠDun st
Ġmet ronid
á»Ĳ C
ĠIng var
ĠDDR AM
ĠAR N
raph ine
ĠAct iv
ser vice
ĠMcE nroe
ĠSamp ratna
ĠHur ley
ĠVac sava
ĠDeb bie
ĠHop man
Vin ac
aso press
ĠMatth aus
ĠNig ieria
ĠGol ovin
ĠLiv ing
ĠSou ks
ulf iram
ĠVers ailles
ĠBuck ingham
ĠAug enthaler
ĠNich olson
Def ense
Há»Ĺ n
ĠTon kin
ĠPP I
Del ta
ĠPhillip ines
ĠRic ci
ĠSpace ShipOne
tran et
ĠThink Centre
ĠWebmaster Subject
ĠYugansknefte gaz
Ġnicot in
BH YT
long arai
Ġacet ylch
Ġsup port
omot ive
tim ore
Current Version
Sil at
ĠEg eland
ĠEg aleo
ĠEp ic
ĠBrand on
ĠWater gate
ĠKL M
Adr ian
ĠChild ren
ĠYun us
ĠBuc uresti
ĠDak ota
ĠKnight ley
ĠQual ity
ĠWas sef
ĠCorre a
ĠIndustr ies
ĠMedic ine
zyn ski
ĠBeh ari
Ġdiox ide
ĠLjub oja
?? ?
dr ive
ĠHack worth
ĠDol ly
ĠDah lan
ĠMajest y
Eric sson
Smith Kline
ĠCI RC
ĠBog ota
Tho Ã¡t
rof loxacin
ĠAmor uso
Ah mad
fr ere
Ġbenz ene
ĠKui jt
ĠEqu atorial
ĠĠĠĠ Ġ
Ġsl ideshow
ĠJai di
ĠStor ari
ĠStor age
ĠGab on
Bang kok
Play er
ĠThom son
ĠLoi re
ĠHoff mann
ĠBerez ovski
ĠCot ecna
ĠCIT AC
ĠFur ama
Ġpod cast
ĠAguil ar
mod ex
ĠSob ig
Cle an
cz ak
omi uri
ĠYH CT
ĠTomm aso
ĠAdvent ures
Cost inha
Vf B
á»ļ I
ĠHiro yuki
ĠChid chai
vers ation
Ġtran To
ĠNia gara
ĠOsi eck
Mah m
ĠBenn i
ĠDW T
ĠZak ayev
ĠÄĲÃĢ O
trid ium
ĠFirman syah
WebMaster Subject
Xo Ã¡
Ġol ive
ĠMitch ell
ĠRin con
ĠJerem ies
Ġlat inh
ĠBust amante
ĠPN J
ĠJorg ensen
ĠGlaxo SmithKline
Marcel o
Caf u
ĠSpart ak
ĠVinab ico
ĠSuff ering
ĠRue gen
Chal abi
ĠYag ira
ĠPerson al
oodoo PC
ĠCasp ian
ĠCompact Flash
Ach ilefu
Bah rain
Reb ecca
mins ter
ĠKiel y
ĠInstr uments
Bus iness
Stel ios
ĠHez bollah
ĠKryp teria
ĠCheo ps
ĠUder bekistan
ĠRoos evelt
ĠCorinthi ans
ĠBangal ore
ĠKaterg iannakis
Ġtelomer es
Zan etti
jui ch
ĠÆ°á»¡ n
Ġsaran ai
ĠMbek i
ĠPyrene es
Ġhocm on
Ġbull dog
ĠAltin top
ĠInterwett en
ĠBarret o
ĠBrond by
owow ee
ĠAduly adej
ĠGothen burg
Andor ra
ifepris tone
ĠLimthong kul
ĠPools ap
! "...
& ".
' ",
( +
, "
, &
- )
0 60
2 16
3 45
3 99
4 29
4 32
5 25
5 90
7 23
7 07
7 37
8 21
8 04
8 27
8 65
? ...".
A ra
A sp
A gr
B G
B áºŃt
B ell
B Ã©o
B erry
B QL
B erg
B yr
C ai
C ua
C ook
D Ã¢y
D er
D á»«ng
D oc
D ennis
E s
E usk
F r
F lor
F loyd
G áº¯n
G á»«ng
G ood
G iggs
H F
H ugh
H ector
H ansa
H ugo
I SS
J I
J ai
K iá»ģu
K Ãªu
K az
K ansas
L á»¯
L Ãłi
L Ã¡i
L and
L ine
L Ã£ng
L á»Ľn
L EPO
M Æ¡
M áº£i
M áº¯m
M ak
N it
N av
N á»Ļp
N PT
N icky
O k
O m
O real
P P
P at
P od
P icture
Q ue
Q assam
R ong
R áº¯n
R yan
R ange
S áºµn
S ÃŃp
S olari
T i
T iÃªn
T iá»ĩn
T ung
T ia
T ass
T aw
T á»ķn
T ehran
U E
U l
U NESCO
U NDP
V H
V ay
V er
V ir
V NA
V IE
X Ã´i
X Äĥng
X oa
Y ou
Z latan
a a
a phan
b ong
b inh
b al
b á»ģ
b á»Ľt
b áº«y
b Æ¡m
b orn
b á»ĭt
b á»¥ng
c ay
c áº¥u
c á»ĳng
c Æ°ng
c ell
c ano
c tor
c apie
d g
d Ãły
d á»Ļi
d em
d á»©t
d alaj
e ek
f ico
f imex
f inder
g am
g áº¥u
g ne
g round
h Æ°
h on
h Ã²n
h Ãłm
h á»ĳt
h iáº¿p
h li
h Newcastle
j ko
j arat
k is
l Ã´i
l eo
l iá»ĩt
l Ã©p
l ock
l ib
l ive
m Äĥng
m uá»ĳi
m ul
m Ã£n
m eg
m aker
n á»ĵi
n ival
p ech
p art
r Ã¡c
r á»Ľt
s Æ°á»Ľng
s ach
s ada
t Ã¡
t iÃªn
t il
t áº¯m
t um
t ab
u w
u th
v eland
v idia
x u
x Ã¡o
x áº£y
x ing
y af
y lin
y uan
z li
z lov
z czak
Ã ¤
ĉ ĉ
Ġ Ã¬nh
Ġ ag
Ġ ester
Ġ ext
Ġ ery
ng áº¡i
ng á»©a
Ġt Ãºt
Ġt Ãºa
Ġc Ã¹m
Ġc lient
ĠÄ Ĥ
ĠÄĳ Äĥ
ĠÄĳ Ä©
nh á»Ľ
nh Ã£n
nh á»ĳt
Ġv Ã¡p
Ġth iáº¿n
Ġth ap
Ġth egio
Ġl áº¥u
Ġl á»¯a
Ġl av
Ġh Ã¡c
Ġh á»ĭ
Ġh ub
Ġh arm
Ġch Ãµ
Ġch áº¹n
Ġb Æ¡n
Ġb eri
Ġb Ã©ng
Ġm im
Ġm el
Ġm áº©m
Ġm Ã³m
Ġm aster
Ġm usic
Ġtr áº£ng
Ġtr á»Ŀ
Ġtr ok
Ġnh Ãłnh
Ġnh áº·ng
Ġnh Ã³n
Ġnh Ã¨m
Ġnh áº»m
Ã´ p
Ġs ÃŃnh
Ġs hi
Ġs tr
Ġn uá»ĳc
Ġn áº©y
Ġn uc
Ġkh á»ĩ
Ġg Ã¡
Ġg Ã´
Ġg ap
Ġg ood
Ãª ÄĳÃª
Ġng áº¥n
Ġd ua
Ġd á»ıng
ph á»§
ph á»Ł
ph áº¡t
ph is
ph ed
ph rod
Ġph á»ĩ
ĠT á»Ļ
ĠT Ã¹
ĠT áº±ng
ĠT á»Ľ
ĠT all
ĠT ug
ĠT ivi
ĠT eds
ĠT onna
ĠT SDÄĲ
ĠT ÄĲC
qu est
Ġgi u
Ġgi áº§u
Ġr Äĥ
Ġr Ã¹
Ġr á»ģ
ĠN ort
ĠN our
ĠN ery
ĠN oah
ĠN vidia
Ġx á»Ļ
Ġx Æ°á»£c
Ġx oÃłn
Ġx Ã¨
Ġx Ãªnh
Ġx Ãµa
an se
an egra
ĠC et
ĠC ord
ĠC afe
ĠC CI
ĠC oco
ĠC urtis
ĠC indy
ĠH I
ĠH áº¡p
ĠH eb
ĠH ero
ĠH BV
ĠH Ã²e
Ġcho áº£ng
ay er
ĠV O
ĠV W
ĠV áº¥t
ĠV ung
ĠV iÃªng
ĠV and
ĠV Ã²i
ĠV áº§ng
ĠV oy
ĠV ander
ĠV ÃĢ
ĠV erkerk
ch á»©c
ch ina
ĠB uy
ĠB áº¡t
ĠB á»ķng
ĠB ard
ĠB az
ĠB ass
ĠB und
ĠB CT
ĠB á»¥ng
ĠB á»¥i
ĠB ower
ai se
Ġ1 200
ĠM Ãłnh
ĠM Ã½
ĠM ÃŃt
ĠM om
ĠM og
ĠM ast
ĠM ino
ĠM uay
ĠM LS
ĠÄĲ oÃłi
ĠÄĲ Ã²i
ĠÄĲ á»ħ
Ġngh en
Ġngh ia
ĠTh en
ĠTh ales
ĠTh abo
00 8
ang s
ĠL T
ĠL áº§m
ĠL un
ĠL Æ°á»¡ng
ĠL eb
ĠL Ã£n
ĠL od
ĠL af
ĠL oy
ĠL SA
ĠL DP
am us
am id
Ġ( (
Ġ( %)
on is
ĠS áº¿n
ĠS Äĥn
ĠS áº¥u
ĠS uáº¥t
ĠS Æ°ng
ĠS á»©a
ĠS kin
ĠS rip
ĠS NHU
au ri
au sk
au jo
au kat
Ġlá» Ľi
ĠP ai
ĠP up
ĠP ec
ĠP ard
ĠP ush
ĠP TC
ĠP tol
ung no
in al
ĠA ND
ĠA kin
ĠA ki
ĠA uck
ĠA ustin
ĠA rosa
ĠA SDA
ĠTr im
ĠTr ain
Æ¡n ia
Ġbá»ĭ nh
Ã© bec
ĠNg Ã¢u
ĠNg Ãµ
ĠNg Æ°Æ¡n
ĠK I
ĠK ai
ĠK ep
ĠK ary
ĠK ano
ĠK ieu
ĠK GB
ĠK iko
ĠK ylie
ĠCh á»Ł
ĠCh on
ĠCh em
ĠCh Ã¨o
ĠCh Ã¹m
ĠCh ester
ĠCh art
ĠCh á»©a
ĠNh Ãºng
ĠD z
ĠD iv
ĠD oi
ĠD af
ĠD SC
ĠD ale
ĠD Alessandro
ĠD estin
ĠD RAM
ĠD undee
en ol
en ez
ĠG Q
ĠG ate
ĠG AM
ĠG ross
Ġdo an
ĠPh Æ¡i
ĠPh el
ĠPh Ã¬n
ÄĲ ui
Ġ3 35
ĠQ us
ĠQ SD
al ine
al tel
em s
Ġlo Ã¨
Ġlo gin
Ġlo tion
ia c
Ġkho Ã©
es pa
ĠR L
ĠR Ãł
ĠR áº¯n
ĠR ux
ĠR ight
ĠR utan
el er
el ve
ĠU PI
Ġ4 15
Ġ4 14
Ġ4 16
ĠI x
ĠI ch
ĠI mm
ĠKh á»Ń
ĠKh ark
ĠKh á»ıe
Th ung
Th áº¯p
Th aksin
Ġ6 10
Tr o
Tr Äĥm
Tr ezeguet
Ġvi ba
et i
et ch
et on
et ia
as in
Ch e
Ch Ã¢m
Ch at
ro se
ic los
us u
us er
ĠQu in
ĠQu Ã¡i
ĠQu áº¡t
ĠQu ares
ĠGi un
ĠGi Ã£n
ĠGi orgio
at um
at ov
hi gh
ĠE lo
ĠE TC
ĠE uk
ĠE ner
ĠE itan
ĠE wer
ĠF ill
ĠF ilan
ĠF lan
ĠF onda
ĠF aisal
is and
Ġ7 35
Ġ7 47
ĠW en
ĠW ies
ĠW azir
Ġ8 18
Ġ8 25
Ġ8 37
Ġ8 48
ĠJ Æ¡
ĠJ ed
ĠJ ill
ĠJ od
ĠJ ew
ĠJ ewell
ĠX áº¡
ĠX áº£o
ĠX uyáº¿n
ĠX uan
ĠX imÄĥng
Ġso á»įc
Ġ19 3
Ġ19 27
Ġ19 32
Ġ19 35
Ġ19 42
Ng á»±a
ĠHo áº¡
ĠHo ch
ĠHo ur
ĠHo ck
ĠHo yte
Ġbu t
Ġcháº¿ nh
Ġto Ã©
Ġto áº¡c
ĠbÃł u
Ġ9 25
ter a
ĠY ar
ĠY eu
ĠY uan
ĠY esterday
ĠY ÃĬU
ĠY omiuri
th ang
th ao
th á»į
th Æ¡m
ag isawa
Ġxá»Ń a
id s
id idong
Ġ20 13
os er
os tok
ed d
ed ow
ĠO GG
un ya
ac el
ac id
ac le
le um
ĠIn ox
Äĳ Ã¬nh
Äĳ á»¥c
Äĳ ua
Äĳ áº©y
10 3
10 6
tr Ã¢u
tr ex
tr uc
iv acy
Ġngu áº©y
Ph á»§
Ph ant
ot in
amp us
ap rim
ig ram
do ul
se arch
ec om
Kh al
ev ideo
Ġá» ¡
ĠHu dd
ĠAr aujo
Ġgh áº½
ul lo
19 00
19 31
eb i
ĠNgh á»ĭch
ĠNgh Ã¨o
ĠÃ´ xit
Ġw att
ho d
23 3
re ams
ĠAl don
ĠAl ams
ĠAl arm
Ġ50 9
io ko
Ġp age
Ġp iste
ĠMar ian
ip po
ĠLe i
ĠZ a
ĠZ ig
ell is
to uh
ĠHá»į p
kh iáº¿n
kh Ãºc
kh Ã³c
ex tin
ĠBar ton
15 7
ou x
Ġf ur
Ġf ood
Ġf ashion
son eri
az za
Gi Æ°á»Ŀng
Ġkim ono
ush etia
ĠSh ang
ĠSh eh
ĠSh alom
ĠSh aukat
ĠMai din
ĠMal af
ier ski
ub l
ĠSt ad
ĠSt ory
ile e
Ġ60 5
ce aler
Ġe Eye
ĠLÄĲ BC
all on
16 5
16 8
ĠPal extin
Ġ28 2
ĠMan sell
17 1
17 2
ams ak
Ġal b
com i
com To
Ġ27 4
Ġ27 6
Ġ27 9
iet ro
Qu Ã£ng
our g
aw k
ĠSer ial
ĠTH E
eg rine
ep s
ĠAC L
uch in
op s
ri b
ĠBl anco
ĠHy p
ĠHy att
24 3
Ġu Browser
ĠAS N
gi Ã³
gi ang
ech im
ien za
ĠPhilip ines
ĠPhilip pin
st asy
ĠTAND TC
ow eto
ach en
25 3
25 7
Ġ45 5
ver t
22 7
ĠSch a
ĠSch arner
ers field
02 7
ĠAm elia
ĠAm aseco
ĠCl ock
ĠAs c
ĠAs us
ĠII S
ib ar
ib el
In iesta
ek i
To Ã¡n
ĠDavid son
ĠUn iver
ĠSe ig
ĠHam ad
ĠHam achi
ĠHam mers
ĠBer trand
con fig
Con versation
ĠGo uld
EC A
ĠDel ete
27 2
Ġcháº½ m
ĠVF M
BC A
ĠBec ker
ĠEl ber
ĠCr edit
VN ÄĲ
eal e
ĠMau ly
ĠPer egrine
VD C
ĠGr emio
AC S
Ġ36 3
Ġ36 8
igh ter
ĠTim oth
ash er
ash chenko
ID A
ke nheim
35 2
ith ec
ĠChu Ã´ng
ĠDi or
ĠAM Pad
Ġ55 6
ant ic
ĠDe hli
ĠCor etta
Ġ34 8
Ġ38 4
ĠParis i
Ġ33 6
ĠSi ebel
ĠBo on
ĠSa q
uz z
ram ani
ram ovich
ĠCS HS
ĠSam ir
ĠEx t
ĠEx eter
pp m
ĠTM A
Ġj i
ĠSte k
Ġ39 7
ĠMun oz
ĠMun itis
ĠCP XD
ĠPro cessor
ĠTom islav
Ġi Defense
CH Æ¯ÆłNG
44 8
Ġ46 1
ĠHe ad
ĠFA T
ĠACB S
ĠRod olfo
Ġ? "
NG UY
ĠGu jarat
ĠVin astar
ĠSal ah
ĠAc c
ĠHol y
ĠAndre ev
ĠNor te
ĠJe a
ĠÄĲá»ģ u
Ġ85 5
ĠMP K
ĠKar pet
ĠSai d
ĠAt las
Ġ56 4
ĠFab rice
ĠBro thers
ĠChrist ie
ĠPow ter
Ba e
ĠSar s
ĠAngel s
ĠMil ky
ĠNet nam
ĠNet Viet
ĠTu á»ĵng
ĠRobert son
ĠTor ino
Ġ77 8
sh ev
ĠArm and
ĠKu hn
ĠSu f
ĠSu le
ĠNoel le
ĠSI NH
ĠFor m
ĠXP S
ĠMer rill
Ġam ox
Ġam onia
ĠMont juich
ĠMont evideo
int z
ĠRam zi
ĠRam irez
Thu á»·
ĠFl amengo
ĠMel ody
ĠBel fast
tre isand
ĠSav ann
ĠJi hai
ĠRichard s
Val entine
ngh Ã¨o
ĠSaf ar
ĠOn o
ĠKr as
Mar io
Mar ek
ĠSat anov
ĠRey k
ĠNic ol
ĠBos velt
ĠHa j
ĠHa ar
ĠMag azine
ĠJer ome
ĠGonzal o
Tay lor
ĠJo erg
ĠBrun el
Ġ09 6
Ġ09 13
IT AC
ĠInd epend
ĠWe is
Ġ= =
ĠRy ul
ĠJean ine
ĠSP KT
ĠBal k
ĠBal timore
ĠFre ier
ĠMe ir
ĠTR Æ¯á»ľNG
ĠGal gano
pol is
DL L
kin ov
áº¤ y
ĠFel iciano
Sch warz
ĠLo ay
ĠGra celand
ĠHer mann
ĠHer ald
ĠHal ley
ĠStar Office
ĠJacqu eline
Ġvo ice
ĠWar wick
Ġz ip
ific ate
ĠBon frere
ĠIX P
Ġvá»Ŀ n
ĠEv il
mm ol
Ġhip p
ÃĶ tÃ´
ĠPac ino
78 6
ĠStr ip
ĠStr ata
hh hh
ĠNat ale
Ġcomp let
ĠQue ud
ĠVik ing
ĠTC VN
ĠJenn a
war rior
Sp am
ĠPort al
ĠChar is
ĠVer ges
ĠMur illo
Sc an
Ġst atin
ĠHor izon
Ġá»ī u
ĠBy zantine
ĠMik a
Gh Ã©p
ĠOk ada
bay ev
Can on
ĠRad zinski
ĠAp erture
ĠKir il
ÃĢ I
ÃĢ NH
Ġbe auty
ĠSto hr
ese ong
ĠReb ekka
Kho áº£nh
ĠKhat ami
ĠGreen ing
ĠBak iev
ling ton
Gian luigi
VA MA
ĠQui que
cl ip
ĠBack street
ĠAss am
ĠOne Care
ĠTrans it
ĠTrans erco
ĠKhal il
Olymp ia
Per fect
[...]
