{"<s>":0,"<pad>":1,"</s>":2,"<unk>":3,"<mask>":4,"!":5,"\"":6,"#":7,"$":8,"%":9,"&":10,"'":11,"(":12,")":13,"*":14,"+":15,",":16,"-":17,".":18,"/":19,"0":20,"1":21,"2":22,"3":23,"4":24,"5":25,"6":26,"7":27,"8":28,"9":29,":":30,";":31,"<":32,"=":33,">":34,"?":35,"@":36,"A":37,"B":38,"C":39,"D":40,"E":41,"F":42,"G":43,"H":44,"I":45,"J":46,"K":47,"L":48,"M":49,"N":50,"O":51,"P":52,"Q":53,"R":54,"S":55,"T":56,"U":57,"V":58,"W":59,"X":60,"Y":61,"Z":62,"[":63,"\\":64,"]":65,"^":66,"_":67,"`":68,"a":69,"b":70,"c":71,"d":72,"e":73,"f":74,"g":75,"h":76,"i":77,"j":78,"k":79,"l":80,"m":81,"n":82,"o":83,"p":84,"q":85,"r":86,"s":87,"t":88,"u":89,"v":90,"w":91,"x":92,"y":93,"z":94,"{":95,"|":96,"}":97,"~":98,"¡":99,"¢":100,"£":101,"¤":102,"¥":103,"¦":104,"§":105,"¨":106,"©":107,"ª":108,"«":109,"¬":110,"®":111,"¯":112,"°":113,"±":114,"²":115,"³":116,"´":117,"µ":118,"¶":119,"·":120,"¸":121,"¹":122,"º":123,"»":124,"¼":125,"½":126,"¾":127,"¿":128,"À":129,"Á":130,"Â":131,"Ã":132,"Ä":133,"Å":134,"Æ":135,"Ç":136,"È":137,"É":138,"Ê":139,"Ë":140,"Ì":141,"Í":142,"Î":143,"Ï":144,"Ð":145,"Ñ":146,"Ò":147,"Ó":148,"Ô":149,"Õ":150,"Ö":151,"×":152,"Ø":153,"Ù":154,"Ú":155,"Û":156,"Ü":157,"Ý":158,"Þ":159,"ß":160,"à":161,"á":162,"â":163,"ã":164,"ä":165,"å":166,"æ":167,"ç":168,"è":169,"é":170,"ê":171,"ë":172,"ì":173,"í":174,"î":175,"ï":176,"ð":177,"ñ":178,"ò":179,"ó":180,"ô":181,"õ":182,"ö":183,"÷":184,"ø":185,"ù":186,"ú":187,"û":188,"ü":189,"ý":190,"þ":191,"ÿ":192,"Ā":193,"ā":194,"Ă":195,"ă":196,"Ą":197,"ą":198,"Ć":199,"ć":200,"Ĉ":201,"ĉ":202,"Ċ":203,"ċ":204,"Č":205,"č":206,"Ď":207,"ď":208,"Đ":209,"đ":210,"Ē":211,"ē":212,"Ĕ":213,"ĕ":214,"Ė":215,"ė":216,"Ę":217,"ę":218,"Ě":219,"ě":220,"Ĝ":221,"ĝ":222,"Ğ":223,"ğ":224,"Ġ":225,"ġ":226,"Ģ":227,"ģ":228,"Ĥ":229,"ĥ":230,"Ħ":231,"ħ":232,"Ĩ":233,"ĩ":234,"Ī":235,"ī":236,"Ĭ":237,"ĭ":238,"Į":239,"į":240,"İ":241,"ı":242,"Ĳ":243,"ĳ":244,"Ĵ":245,"ĵ":246,"Ķ":247,"ķ":248,"ĸ":249,"Ĺ":250,"ĺ":251,"Ļ":252,"ļ":253,"Ľ":254,"ľ":255,"Ŀ":256,"ŀ":257,"Ł":258,"ł":259,"Ń":260,"á»":261,"áº":262,"ng":263,"Ġt":264,"Ġc":265,"ĠÄ":266,"ĠÄĳ":267,"nh":268,"Ãł":269,"Æ°":270,"Ġv":271,"Ġth":272,"Ã¡":273,"Ġl":274,"Ġh":275,"Ġch":276,"iá»":277,"Ġk":278,"Ġb":279,"Ġm":280,"Ġtr":281,"Æ°á»":282,"Ġnh":283,"Ã´":284,"Ġs":285,"áº¿":286,"Ġn":287,"áº¡":288,"Ġkh":289,"á»Ļ":290,"Ã³":291,"Ġg":292,"Ãª":293,"áº£":294,"Ġng":295,"Ġd":296,"áº¥":297,"ph":298,"á»ĳ":299,"Ġph":300,"Ã´ng":301,"á»§":302,"iá»ĩ":303,"ĠT":304,"Ã¢":305,"Ãªn":306,"Ġvá»":307,"Ã¡c":308,"Ã¬":309,"ĠvÃł":310,"ĠÄĳá»":311,"áºŃ":312,"áº§":313,"Æ¡":314,"qu":315,"Ġqu":316,"ĠlÃł":317,"Æ°á»Ŀ":318,"Ġgi":319,"Ġr":320,"Ġtá»":321,"Ľi":322,"Ġcá»§":323,"Ġcá»§a":324,"iáº¿":325,"ĠcÃ³":326,"Ġthá»":327,"uy":328,"áº¡i":329,"Ã£":330,"ĠN":331,"Æ°á»£":332,"Ġx":333,"an":334,"ÃŃ":335,"ong":336,"áº¥t":337,"ĠC":338,"Äĥ":339,"á»ĭ":340,"á»Ļt":341,"Ãº":342,"iá»ģ":343,"ĠcÃ¡c":344,"Ã¬nh":345,"á»¯":346,"Ġhá»":347,"ĠH":348,"áº¯":349,"á»Ł":350,"Ã¢n":351,"Ġmá»Ļt":352,"ĠĊ":353,"Æ°á»£c":354,"Ġchá»":355,"Ãły":356,"á»±":357,"Ġcho":358,"ĠkhÃ´ng":359,"Ã²":360,"ĠÄĳÆ°á»£c":361,"Æ°á»Ŀi":362,"ĠÄĳÃ£":363,"ay":364,"Ġtrong":365,"ĠV":366,"Æ°á»Ľ":367,"ch":368,"iÃªn":369,"ĠngÆ°á»Ŀi":370,"anh":371,"©ng":372,"Ġvá»Ľi":373,"ĠB":374,"áº£i":375,"iá»ģu":376,"Ã´i":377,"áº§n":378,"Ã¹":379,"ai":380,"á»¯ng":381,"iá»ĩn":382,"Ġ1":383,"áº§u":384,"ĠM":385,"ĠÄĲ":386,"Ġngh":387,"Ãłnh":388,"áº·":389,"ĠnhÆ°":390,"áºŃn":391,"Æ°á»Ľc":392,"á»¥":393,"ĠTh":394,"00":395,"Æ°á»Ŀng":396,"Ġnhá»¯ng":397,"ĠÄĳá»Ļ":398,"inh":399,"iá»ĥ":400,"Æ°Æ¡":401,"ang":402,"ĠL":403,"Ġ2":404,"ao":405,"am":406,"Ġmá»":407,"Ġ(":408,"uyá»":409,"Æ°Æ¡ng":410,"áº¿n":411,"©c":412,"áº¿t":413,"on":414,"ĠnÃły":415,"ĠS":416,"uá»ĳ":417,"Ãłn":418,"áº½":419,"au":420,"Ġlá»":421,"Ã¢y":422,"Ġá»Ł":423,"Å©ng":424,"Ãłi":425,"Ġkhi":426,"á»ķ":427,"ĠP":428,"ung":429,"ĠÄĳá»ĥ":430,"ĵng":431,"ĠnÄĥ":432,"Ãłng":433,"Ġsá»ĳ":434,"Ġhá»į":435,"Ġsáº½":436,"Ġgiá»":437,"in":438,"Ġho":439,"Ġthá»ĥ":440,"Ã¡n":441,"Ġra":442,"ĠÄĳÃ³":443,"áº¡n":444,"ĠcÃ´ng":445,"áº±":446,"ÃŃnh":447,"ĠA":448,"Ŀi":449,"ĠTr":450,"Ġtá»«":451,"áº£n":452,"áºŃt":453,"ĠÄĳáº¿n":454,"Æ¡n":455,"ĠcÅ©ng":456,"á»ĳi":457,"Ã¡t":458,"Ã¹ng":459,"iáº¿t":460,"ĠvÃło":461,"Ġvá»ģ":462,"âĢ":463,"Ã½":464,"Ġbá»ĭ":465,"iáº¿n":466,"áº¥y":467,"á»Ļi":468,"Ġcáº£":469,"Ã©":470,"ĠtÃ´i":471,"ĠNg":472,"ĠlÃłm":473,"Ġpháº£i":474,"ĠÄĳá»ĭ":475,"..":476,"Ã¡i":477,"ĠK":478,"á»į":479,"er":480,"Ġláº¡i":481,"á»Ń":482,"áº±ng":483,"eo":484,"ĠCh":485,"Ġthu":486,"Ġnhiá»ģu":487,"Ã²n":488,"áº«":489,"ĠÄĳáº§u":490,"Ġtáº¡i":491,"ĠnÄĥm":492,"Ã¡o":493,"Ã¡ng":494,"Ġchá»ī":495,"Ä©":496,"Ġ\"":497,"iá»ĩc":498,"ĠtrÃªn":499,"Ġsá»±":500,"ĠNh":501,"ĠnhÃł":502,"ĠD":503,"en":504,"áºŃp":505,"iá»ĩt":506,"Ãªu":507,"áº©":508,"Ġbá»":509,"á»Ļc":510,"ĠG":511,"Ġ-":512,"Ãło":513,"iá»ĩu":514,"Ġviá»ĩc":515,"ĠnÆ°á»Ľc":516,"Ġdo":517,"ħn":518,"ĠÃ´ng":519,"ĠkhÃ¡c":520,"Ġhiá»ĩn":521,"ĠthÃłnh":522,"Æ°a":523,"ĠPh":524,"á»ĵ":525,"ĠÄĳá»ĵng":526,"ĠmÃł":527,"Ã¢m":528,"ÄĲ":529,"Ã²ng":530,"áº«n":531,"Äĥn":532,"Ġ3":533,"ar":534,"Ġquan":535,"áº¥n":536,"ĠnÃ³":537,"áº¡o":538,"iá»ĥm":539,"Ãºng":540,"ĠcÃ²n":541,"ĠthÃ¬":542,"iá»ģn":543,"Äĥng":544,"ĠQ":545,"Ġquy":546,"Ġanh":547,"ĥn":548,"ĠÄĳá»ĭnh":549,"áº¡t":550,"ĠnhÆ°ng":551,"uyÃªn":552,"ĠhÆ¡n":553,"áº¥u":554,"Ġtiáº¿":555,"ĠÄĳá»ģ":556,"áº¥p":557,"Ġgia":558,"Ãºc":559,"ĠngÃły":560,"áº»":561,"ĠnhÃ¢n":562,"Ã´n":563,"Ġnháº¥t":564,"áº£ng":565,"Ġsau":566,"Ġhá»įc":567,"Ġy":568,"al":569,"±c":570,"Ã¢u":571,"ĠgiÃ¡":572,"ĠÄĳá»Ļng":573,"em":574,"áº¯t":575,"ĠÄĳiá»ģu":576,"Ġbiáº¿t":577,"ĠmÃ¬nh":578,"Ã¡nh":579,"Ġthá»§":580,"á»±c":581,"Æ°á»£ng":582,"á»ĳc":583,"Ġráº¥t":584,"ĠhÃłng":585,"Æ°á»Ł":586,"Ġtháº¿":587,"Ã³ng":588,"áº·c":589,"Ġdá»¥":590,"ÃŃch":591,"ĠcÆ¡":592,"Æ°á»Łng":593,"áº¿u":594,"Ġqua":595,"áº¯c":596,"Ġlo":597,"áº·t":598,"ia":599,"á»ķi":600,"ĠÄĳi":601,"áº¯ng":602,"á»©":603,"Ġká»":604,"Ã¡p":605,"Ġkho":606,"ĠtrÆ°á»Ľc":607,"ĠchÃŃnh":608,"Ãªm":609,"Ġmá»Ľi":610,"uá»Ļc":611,"Ġcon":612,"ĠnháºŃn":613,"áº£o":614,"Ġbáº¡n":615,"ĠÄĳá»Ļi":616,"Ġdá»±":617,"ĠÄĳang":618,"Æ¡i":619,"iá»ĩp":620,"uyá»ĩ":621,"ģn":622,"Ġthá»Ŀi":623,"Ãºt":624,"ĠtrÆ°á»Ŀng":625,"es":626,"ĠvÃ¬":627,"ĠâĢ":628,"ĠviÃªn":629,"im":630,"ĠR":631,"£p":632,"uá»ĳc":633,"Ġhai":634,"á»ĳng":635,"áº¡nh":636,"uáº¥t":637,"Ġcáº§u":638,"áº¹":639,"Ġvá»¥":640,"ĠnÃªn":641,"Ġtiá»ģn":642,"Ġnay":643,"ĩnh":644,"Ġhá»£p":645,"oÃłn":646,"Ġtu":647,"...":648,"âĢĿ":649,"el":650,"ĠnÃ³i":651,"á»¥c":652,"ĠphÃ¡t":653,"ĠtÃ¬nh":654,"Ġtheo":655,"ĠNam":656,"ĠlÃªn":657,"ĠlÃ½":658,"áº¡ng":659,"Ġsinh":660,"ĠÄĳá»ĳi":661,"ĠâĢľ":662,"ĠU":663,"á»©c":664,"á»ĭch":665,"Ġváº«n":666,"Ġgiáº£i":667,"iá»ĥu":668,"or":669,"Ġ4":670,"iá»ħn":671,"Ġdá»¥ng":672,"Ġ5":673,"ĠhÃłnh":674,"ĠcÃ¡ch":675,"Ġthá»±c":676,"Ġlu":677,"ĠhÃ¬nh":678,"uyá»ĩn":679,"Ġkáº¿t":680,"ĠtrÃ¬nh":681,"Ġcao":682,"Ġtiáº¿p":683,"Ã¡ch":684,"Ġngo":685,"ĠI":686,"ĠÄĳiá»ĥm":687,"Ġcuá»Ļc":688,"Ġtá»ķ":689,"ĠKh":690,"Ġráº±ng":691,"á»ı":692,"Ġlá»Ľ":693,"áº¡c":694,"ĠnÃło":695,"ĠcÃ¹ng":696,"Ġná»¯":697,"ĠthÃ´ng":698,"ĠtráºŃn":699,"Ġbáº±ng":700,"Ġchá»ĭ":701,"Ġchá»©c":702,"ĠÄĳáº¥u":703,"iá»ĥn":704,"ĠViá»ĩt":705,"ĠÄĳÆ°á»Ŀng":706,"á»¹":707,"Ġxuáº¥t":708,"«a":709,"Ġbá»Ļ":710,"Ġchá»§":711,"ĠmÃ¡":712,"Ġtá»ĳ":713,"Ġhá»Ļi":714,"Ġtá»Ľi":715,"ĠÄĳÃ¢y":716,"ĠbÃ³ng":717,"Th":718,"Æ°ng":719,"iÃªu":720,"Ġtin":721,"Ġtháº¥y":722,"ua":723,"áº³":724,"ĠchÃºng":725,"uyá»ĥn":726,"iá»ĩm":727,"Ġnghiá»ĩp":728,"áº¡m":729,"Ġ200":730,"Ġláº§n":731,"ĠÃ":732,"áºŃy":733,"Ĺi":734,"Ġtáº¿":735,"Ġbá»ĩnh":736,"ĠthÆ°á»Ŀng":737,"ĠtÃ¢m":738,"il":739,"Ġgiáº£":740,"Ġtá»±":741,"Ġgiá»¯":742,"Ġgiá»Ľi":743,"ĠnÄĥng":744,"),":745,"ĠyÃªu":746,"ĠchÆ°a":747,"Ġcá»©":748,"á»ĵi":749,"ĠnhiÃªn":750,"Ġdiá»ħn":751,"ĠdÃ¢n":752,"á»£":753,"Ġmáº·t":754,"Ġthi":755,"ĠtÃŃnh":756,"Ġlá»Ľn":757,"Ġhay":758,"Ġsáº£n":759,"áº³ng":760,"uyá»ħn":761,"Ġta":762,"Ġnghá»":763,"á»įng":764,"áº¡ch":765,"Ġquyáº¿t":766,"ĠÃ¡n":767,"áº©m":768,"Ġquáº£":769,"000":770,"ĠlÆ°á»£ng":771,"Ġcáº§n":772,"ĠAnh":773,"ĠthÃ¡ng":774,"ĠgÃ¬":775,"ĠsÄ©":776,"Ġ6":777,"áº£nh":778,"Ġloáº¡i":779,"Ġthá»©":780,"ĠtÆ°":781,"ĠMá»¹":782,"Ġkinh":783,"200":784,"ĠtÄĥng":785,"ĠTP":786,"Ġsá»Ń":787,"ĠCÃ´ng":788,"ĠtÃ¡c":789,"ĠÄĥn":790,"Ġty":791,"Ġgian":792,"Ġthá»ĭ":793,"Tr":794,"ĠkhÃ¡ch":795,"ĠNguyá»ħn":796,"uá»ĳn":797,"Ġcáº¥p":798,"Ġtáº¡o":799,"Ġvi":800,"ĠquÃ¡":801,"Å©":802,"Ġgiá»Ŀ":803,"Ġpháº§n":804,"\".":805,"iáº¿u":806,"áº¯n":807,"¥c":808,"áº§m":809,"ĠmÃ¡y":810,"Ġsá»ĳng":811,"ĠbÃ¡o":812,"ĠcÃ´":813,"ĠtÃłi":814,"Ġvá»ĭ":815,"ĠQuá»ĳc":816,"Ġtháº¯ng":817,"Ġxe":818,"ĠÄĳáº¡o":819,"Ġtrá»įng":820,"ĠÃ½":821,"et":822,"áºŃu":823,"Ġkhu":824,"Ġtuá»ķi":825,"Ġtay":826,").":827,"ĠkhÃ³":828,"Ġtráº»":829,"Ġcáº£m":830,"Ġtriá»ĩu":831,"ĠváºŃy":832,"Ġtrá»Ł":833,"Ã¨":834,"ĠtoÃłn":835,"Äĥm":836,"Ġáº¥y":837,"á»Łi":838,"Ã¬m":839,"ĠÄĳá»ģu":840,"Æ°á»Ľng":841,"as":842,"ĠbÃłn":843,"Ch":844,"ro":845,"á»«":846,"ĠliÃªn":847,"Ġdoanh":848,"á»ģn":849,"ĠbÃ¡n":850,"ic":851,"Ã©t":852,"us":853,"ĠQu":854,"Ġbáº£n":855,"Ġhoáº·c":856,"ĠGi":857,"at":858,"Ġtra":859,"á»ĵng":860,"ĠnghÄ©":861,"á»©ng":862,"hi":863,"Ġem":864,"ĠÄĳÆ°a":865,"ĠphÃ²ng":866,"Ġlá»±c":867,"Ġvá»ĩ":868,"Ġtá»ī":869,"Ãºp":870,"áº©n":871,"ĠE":872,"Ġquá»ĳc":873,"Ġnhau":874,"ol":875,"Ġcháº¥t":876,"Ġbáº¯t":877,"CM":878,"Ã¡m":879,"ĠtáºŃp":880,"ĠphÃŃ":881,"ĠHÃł":882,"ĠVN":883,"ĠdÃ¹ng":884,"uá»ĳng":885,"Ã©p":886,"ĠF":887,"áº·p":888,"Ã´m":889,"ĠÄĳá»ķ":890,"ĠthÆ°Æ¡ng":891,"Ãµ":892,"Ġmuá»ĳn":893,"ĠngoÃłi":894,"ĠtÃ¬m":895,"ĠtiÃªu":896,"ĠÄĳáº¡i":897,"is":898,"Ġ7":899,"ĠÄĳo":900,"uá»ĳi":901,"Ġtrung":902,"Ġan":903,"á»Ļng":904,"Ġhá»ĩ":905,"Ġtá»¥c":906,"ĠTrung":907,"Ġnáº¿u":908,"ĠÄĳiá»ĩn":909,"ĠW":910,"Ġvá»«a":911,"á»Ľ":912,"Ġchiáº¿n":913,"Ġ10":914,"Ġtrá»ĭ":915,"uyá»ģn":916,"Ġthá»©c":917,"Ġáº£nh":918,"ĠtrÆ°á»Łng":919,"ĠsÃ¢n":920,"ĠÄĳáº¥t":921,"ra":922,"Ġbáº£o":923,"ĠVÄĥn":924,"Ġtham":925,"Ġgáº§n":926,"Æ°á»Ľi":927,"Ġkhoáº£ng":928,"Ġ8":929,"Ġthá»ĳng":930,"Ġváº¥n":931,"Æ°u":932,"Ġdá»ĭch":933,"ĠphÃ¡p":934,"Ġtá»ĳt":935,"Ġchá»©ng":936,"Ġhiá»ĩu":937,"ĠJ":938,"á»Ŀ":939,"Ġtho":940,"Ġchiáº¿":941,"ĠX":942,"Ġsao":943,"Ġgiao":944,"Ġhá»ĵ":945,"Ġtriá»ĥn":946,"Ġcá»Ń":947,"ĠgÃ¢y":948,"Ã²a":949,"Ġháº¿t":950,"ĠÄĳÃ¬nh":951,"Ġbáº¥t":952,"áº¥m":953,"ĠthÃªm":954,"Ġso":955,"Ġbá»ĳ":956,"ĠgiÃºp":957,"ĠphÆ°Æ¡ng":958,"ĠtiÃªn":959,"Ġ19":960,"Ã³a":961,"Ġbá»ı":962,"Ng":963,"áº£y":964,"Ġchuyá»ĩn":965,"á»ĵn":966,"Ġphá»¥":967,"Ġlá»Ŀi":968,"ĠsÃ¡t":969,"uyáº¿n":970,"ĠHo":971,"Ġsá»©c":972,"ĠcÃ¡i":973,"ĠÄĳÃ¡nh":974,"ÃŃt":975,"ĠTrong":976,"Ġcá»©u":977,"ĠlÃºc":978,"ĠhoÃłn":979,"ĠbÃ¬nh":980,"ĠTÃ´i":981,"ĠchÆ¡i":982,"it":983,"Ġmáº¡nh":984,"Ġbu":985,"áº±m":986,"Ġdáº«n":987,"SD":988,"ĠNhÆ°ng":989,"om":990,"Ġpháº©m":991,"Ķng":992,"Ġrá»ĵi":993,"Nh":994,"£i":995,"Ġbao":996,"áº·ng":997,"Ġchu":998,"Ġgiá»¯a":999,"ĠÄĳá»ķi":1000,"ĠÄĳÃ¡":1001,"Ġbiá»ĩt":1002,"ıi":1003,"Ġcháº¿":1004,"Ġca":1005,"ĠÄĳÆ¡n":1006,"Ġtiáº¿ng":1007,"Ġquyá»ģn":1008,"Ġvá»£":1009,"\",":1010,"ĠláºŃp":1011,"ĠcÃ¡o":1012,"Ġto":1013,"ĠUSD":1014,"ĠÄĳá»ĭa":1015,"ĠTuy":1016,"Ġhoáº¡t":1017,"Ġtá»«ng":1018,"Ġthiáº¿t":1019,"ĠchuyÃªn":1020,"Ġmua":1021,"Æ°á»£t":1022,"ĠBá»Ļ":1023,"ĠsÃ¡ng":1024,"ĠthÃŃch":1025,"Ã³c":1026,"Ġná»¯a":1027,"Ġgáº·p":1028,"ĠbÃªn":1029,"ĠváºŃt":1030,"Ġthay":1031,"ĠnháºŃp":1032,"Ġdá»":1033,"Ġngay":1034,"Ġchuyá»ĥn":1035,"Ġmá»į":1036,"Ġkhai":1037,"Ġmá»Ĺi":1038,"Ġgiáº£m":1039,"Ġkiáº¿n":1040,"ĠvÃ²ng":1041,"Ġthuá»ĳc":1042,"ĠcÃ¡":1043,"Ġban":1044,"Ġnháº¡c":1045,"Ġcáº£nh":1046,"áº¯m":1047,"ĠlÃ£":1048,"ĠtÆ°á»£ng":1049,"á»įc":1050,"ĠbÃł":1051,"Ġvá»±c":1052,"ĠvÄĥn":1053,"Ã¹a":1054,"ĠthuáºŃt":1055,"Ġtá»·":1056,"Ġ9":1057,"Ġmá»©c":1058,"Ġphim":1059,"Ã³m":1060,"ad":1061,"Ãªng":1062,"ĠvÃ´":1063,"ĠNá»Ļi":1064,"Ġtá»īnh":1065,"ĠtháºŃt":1066,"ĠhÃ³a":1067,"Ġnghá»ĩ":1068,"á»ķng":1069,"Ġcuá»ĳi":1070,"ĠtrÃŃ":1071,"Ġxem":1072,"Ġchá»į":1073,"áº¡y":1074,"Ġtiáº¿n":1075,"Ġtuyá»ĥn":1076,"Ġphá»¥c":1077,"ĠthÃ¢n":1078,"ĠphÃºt":1079,"ter":1080,"ĠnguyÃªn":1081,"ĠÃŃt":1082,"ĠY":1083,"Ġká»³":1084,"Ġthuá»Ļc":1085,"Ġmá»įi":1086,"áº¹p":1087,"ĠchÃŃ":1088,"Ġchá»ĵng":1089,"ĠtÃªn":1090,"iÃªng":1091,"Ġchung":1092,"ĠÄĳá»§":1093,"Ġdá»±ng":1094,"Ġmang":1095,"áº¯p":1096,"Ġpháº¡m":1097,"áº§y":1098,"Ġtranh":1099,"th":1100,"á»ĳn":1101,"Ġkháº£":1102,"ĠdÃ¹":1103,"LV":1104,"įng":1105,"Ġnhiá»ĩm":1106,"ĠxÃ£":1107,"ĠkÃ½":1108,"ĠhÃ£":1109,"Ġphá»ĳ":1110,"Ġtrang":1111,"Ġsá»Ł":1112,"Ġchá»įn":1113,"Ġhá»Ļ":1114,"ag":1115,"Ġnhá»ı":1116,"ĠtÃŃch":1117,"ĠThanh":1118,"HCM":1119,"ĠnÆ¡i":1120,"ĠdÃłi":1121,"ĠÄĳáº·c":1122,"Theo":1123,"Ġmáº¥t":1124,"ur":1125,"Ġcá»ķ":1126,"áº©u":1127,"ĠBÃ¬nh":1128,"Ġxá»Ń":1129,"Ġchiáº¿c":1130,"id":1131,"ĠAn":1132,"Ġchi":1133,"ĠxÃ©t":1134,"ĠchÆ°Æ¡ng":1135,"á»įi":1136,"Ġkhá»ı":1137,"Ġlá»£i":1138,"ĠluÃ´n":1139,"ĠkÃ©":1140,"á»Ŀi":1141,"Ġá»©ng":1142,"Ġtá»ķng":1143,"ĠmÃ´n":1144,"ĠquÃ¢n":1145,"ĠchÃ¢n":1146,"Ġbiá»ĥu":1147,"Ġnghá»ĭ":1148,"ĠsÃ¡ch":1149,"ĠxÃ¡c":1150,"Ġliá»ĩu":1151,"Ġkáº¿":1152,"Ġ20":1153,"Ġai":1154,"os":1155,"ĠxÃ¢y":1156,"Ġkiá»ĥm":1157,"ed":1158,"Ġmáº¯t":1159,"ĠO":1160,"ĠHLV":1161,"Ġmáº¹":1162,"Ġbiáº¿n":1163,"Ġkhiáº¿n":1164,"Ġdanh":1165,"Ġcá»ĳ":1166,"Ġbá»Łi":1167,"Ä©nh":1168,"Ġquáº£n":1169,"Ġtáº¥t":1170,"Ġká»ĥ":1171,"ĠÄĳá»ĳc":1172,"ĠthÆ°":1173,"ĠÄĳá»Ŀi":1174,"Ġtrá»£":1175,"áºŃm":1176,"á»Ľi":1177,"Ġkiá»ĩn":1178,"Ãłu":1179,"Ġháº¡n":1180,"Ã¬n":1181,"Ġmá»Ł":1182,"Ġtráº£":1183,"á»ī":1184,"un":1185,"ĠhÃ´m":1186,"Ġláº¥y":1187,"Ġtá»Ń":1188,"ac":1189,"Ġyáº¿u":1190,"le":1191,"á»¯a":1192,"ĠCÃ¡c":1193,"ĠluáºŃt":1194,"Ġdiá»ĩn":1195,"Ġtruyá»ģn":1196,"ĠgÃ¡i":1197,"ĠÄĳáº¹p":1198,"ĠÄĲá»©c":1199,"Ġdá»ħ":1200,"ĠIn":1201,"Äĳ":1202,"Ġkháº©u":1203,"ĠrÃµ":1204,"âĢĿ.":1205,"ĠTheo":1206,"ĠNáº¿u":1207,"Ġdu":1208,"Ġlá»ĭch":1209,"10":1210,"ĠThá»ĭ":1211,"Trong":1212,"Ġtáº¥n":1213,"á»«ng":1214,"Ġsang":1215,"Ġtinh":1216,"ĠÄĳÃłn":1217,"ĠÄĳáº·t":1218,"iÃªm":1219,"ĠnhÃ³m":1220,"Ġphá»§":1221,"uyáº¿t":1222,"ĠtrÃ¡i":1223,"Ġhá»ıi":1224,"Ġba":1225,"ĠMá»Ļt":1226,"ĠLan":1227,"©a":1228,"tr":1229,"Ġthanh":1230,"ĠÄĳoÃłn":1231,"ĠMinh":1232,"12":1233,"ĠphÃ¢n":1234,"ĠmÃ¹a":1235,"Ġgá»įi":1236,"á»ĥ":1237,"ĠnghiÃªn":1238,"ĠlÃ²ng":1239,"Ġhiá»ĥu":1240,"Ġchá»ĭu":1241,"Ġ15":1242,"ĠkhÃ¡":1243,"Ġvá»įng":1244,"ĠSau":1245,"ĠÄĳÃ¡ng":1246,"ĠcÃłng":1247,"ĠÃĶng":1248,"Ġghi":1249,"ĠgiÃ¡m":1250,"Ġná»ķi":1251,"ĠngÃłnh":1252,"Ġtráº¡ng":1253,"ĠbÃłi":1254,"Ġviá»ĩn":1255,"ĠtÆ°Æ¡ng":1256,"ĠháºŃu":1257,"ing":1258,"ĠÄĳÃºng":1259,"Ġthiáº¿u":1260,"ĠchÃ¢u":1261,"Ġxuá»ĳng":1262,"ĠgiÃ¡o":1263,"Ġtuáº§n":1264,"Ġ12":1265,"áº¿p":1266,"ND":1267,"Ġnghiá»ĩm":1268,"Ġká»¹":1269,"ĠhÆ°á»Ľng":1270,"Ġná»Ļi":1271,"ĠÄĳáº¡t":1272,"Ġkhoa":1273,"Ġ30":1274,"Ġcung":1275,"Ġchuáº©n":1276,"ĠphÃ¡":1277,"iáº¿m":1278,"áº«u":1279,"ĠphÃŃa":1280,"Ġtá»ĭ":1281,"ĠtrÃ¡ch":1282,"ent":1283,"ĠÃ¡p":1284,"ĠdÆ°á»Ľi":1285,"Ã£i":1286,"iv":1287,"ĠphÃ©p":1288,"ĠkhÃŃ":1289,"Ġngu":1290,"«ng":1291,"ĠvÃ¹ng":1292,"ĠvÃłng":1293,"ĠbÃ©":1294,"ĠThÃ¡i":1295,"á»ĩ":1296,"Ġtiáº¿t":1297,"Ġdá»¥c":1298,"ĠvÃłi":1299,"ĠhÆ°á»Łng":1300,"oÃłi":1301,"á»Ĺ":1302,"ĠriÃªng":1303,"oi":1304,"ĠHáº£i":1305,"á»Ĺi":1306,"Ġtá»ĭch":1307,"Ġmáº¡ng":1308,"Ġtrá»±c":1309,"ui":1310,"ĠÄĳá»ĵ":1311,"áº£m":1312,"Ġtháº§n":1313,"Æ°á»¡":1314,"ĠÄĳá»©ng":1315,"Ġchá»ĳng":1316,"Ġtá»Ļi":1317,"Ġcáº§m":1318,"Ġnhanh":1319,"ĠNhá»¯ng":1320,"ĠmÃłu":1321,"Ġsáº¯c":1322,"ton":1323,"Ġxáº£y":1324,"Ph":1325,"Ġcá»Ńa":1326,"11":1327,"Ġtá»ı":1328,"ĠgiÃłnh":1329,"ot":1330,"á»ĭp":1331,"ĠTÃ¢y":1332,"ĠLÃª":1333,"Ġcá»±c":1334,"Ġnguy":1335,"2004":1336,"ĠBan":1337,"áºµ":1338,"ĠcÃ¢u":1339,"ĠTráº§n":1340,"ĠCÃ³":1341,"ĠluáºŃn":1342,"ĠÃ¢m":1343,"Ġngoáº¡i":1344,"ĠÃģ":1345,"Ġcháº¿t":1346,"Ġmá»¥c":1347,"Ã¹i":1348,"amp":1349,"Ġká»·":1350,"Ġlá»Ļ":1351,"Ġvá»ĳn":1352,"ĠsÆ¡":1353,"ĠChÃŃnh":1354,"ĠÄĳÃ³ng":1355,"Ġcháº¡y":1356,"Ġnguá»ĵn":1357,"ĠtÆ°á»Ľng":1358,"up":1359,"Ġtá»ĳi":1360,"ĠcÃº":1361,"ĠKhi":1362,"ĠÄĳá»Ļc":1363,"Ġhoáº¡ch":1364,"ĠÄĳoáº¡n":1365,"Ġcháº¥p":1366,"áº¡p":1367,"ĠÄĳau":1368,"ĠÄĳÃªm":1369,"Ġbáº£ng":1370,"á»¯u":1371,"Ġvai":1372,"ĠlÃ£nh":1373,"Ġháº¡ng":1374,"Ġphong":1375,"Ġhoa":1376,"Ġnáº¡n":1377,"ĠdÃłnh":1378,"ĠÄĳáº§y":1379,"ak":1380,"ĠÄĳÃ´i":1381,"Ġlá»ĩ":1382,"ĠDÅ©ng":1383,"Ã³n":1384,"CÃ¡c":1385,"ĠhÃ¡t":1386,"ĠnhÃ¬n":1387,"ĠtÆ°á»Łng":1388,"á»ĵm":1389,"Ġchia":1390,"Ġdi":1391,"ĠtrÃ²":1392,"Ġ0":1393,"Ġxa":1394,"ap":1395,"ĠvÆ°á»£t":1396,"Ġhá»ĵi":1397,"ĠNhÃł":1398,"Ġpháº£n":1399,"Ġchiá»ģu":1400,"Ġ11":1401,"Ġcháº³ng":1402,"ĠÄĲáº¡i":1403,"Ġnháº±m":1404,"ĠkhÄĥn":1405,"ig":1406,"Ġminh":1407,"Ġrá»Ļng":1408,"ĠgÃ³":1409,"Ġdáº§u":1410,"TÃ´i":1411,"Ġnghe":1412,"Ġthoáº¡i":1413,"iá»ħ":1414,"Ġuá»ĳng":1415,"Ġda":1416,"Ġbay":1417,"á»Ńa":1418,"á»§ng":1419,"Ġkhá»ıi":1420,"ĠThu":1421,"av":1422,"á»įn":1423,"uyá»ĩt":1424,"do":1425,"se":1426,"um":1427,"ĠváºŃn":1428,"ĠHCM":1429,"Ġkháº³ng":1430,"á»Ńi":1431,"á»³":1432,"ec":1433,"ĠlÆ°u":1434,"Ġcá»¥":1435,"Ġcáº¡nh":1436,"Ġgá»ĵm":1437,"ĠnghÄ©a":1438,"ĠVÃł":1439,"Kh":1440,"ĠlÃ¢u":1441,"Æ°á»¡ng":1442,"ĠÄĳá»ĭch":1443,"ĠHoÃłng":1444,"Ġ18":1445,"ĠTá»ķng":1446,"ĠThá»§":1447,"Ġdung":1448,"ĠquáºŃn":1449,"ĠNháºŃt":1450,"Ãłm":1451,"Ġmáº¡i":1452,"ĠPhÃ¡p":1453,"Ġtháº¥t":1454,"ev":1455,"Ġá»":1456,"ĠHu":1457,"ov":1458,"á»ģ":1459,"ĠtuyÃªn":1460,"Ġnáº·ng":1461,"ĠcÃ¢y":1462,"ĠÄĳÄĥng":1463,"Ã¡u":1464,"ĠbÃ¡c":1465,"ĠAr":1466,"ill":1467,"Ġcháº¯c":1468,"and":1469,"ĠÃ¡o":1470,"ĠThÃłnh":1471,"Ġnáº±m":1472,"Ġnghá»ģ":1473,"ĠngÃ´i":1474,"Ġpháº¡t":1475,"ir":1476,"Ġhiá»ĥm":1477,"ĠÄĳÃ¢u":1478,"ĠkÃ©o":1479,"Ã¢ng":1480,"ĠNgá»įc":1481,"á»Ľm":1482,"Ġvui":1483,"Ġbiá»ĥn":1484,"ĠbÆ°á»Ľc":1485,"Ġxin":1486,"ĳng":1487,"Ġgh":1488,"Ġpha":1489,"ul":1490,"Ġgá»Ńi":1491,"ĠLong":1492,"ĠSÆ¡n":1493,"Ġnam":1494,"á»±a":1495,"19":1496,"eb":1497,"ĠsÆ°":1498,"uÃ¢n":1499,"ÃŃn":1500,"Ã£n":1501,"2005":1502,"ĠthÃºc":1503,"Ġlao":1504,"Má»Ļt":1505,"iá»ħm":1506,"ĠKhÃ´ng":1507,"Ġtuyáº¿n":1508,"ĠNgÆ°á»Ŀi":1509,"ĠÄĲÃ´ng":1510,"Ġgiáº¥y":1511,"iá»ģm":1512,"ĠmÃ´i":1513,"Ġlá»Ľp":1514,"Ġcá»Ļng":1515,"Ġhuyá»ĩn":1516,"Ġsá»Ľm":1517,"ĠchÃº":1518,"ĠNgh":1519,"Ã²i":1520,"Ġsai":1521,"ĠÄĳa":1522,"ĠCup":1523,"Ġháº¡i":1524,"Ġgiá»ĳng":1525,"áº©y":1526,"ĠtÃ¹":1527,"Ġthua":1528,"ĠÄĲá»ĵng":1529,"ĠÃĤ":1530,"įc":1531,"Ġtrai":1532,"ĠhÃ£y":1533,"Ġnhu":1534,"Ġchá»Ĺ":1535,"ĠkhÃ¡n":1536,"ĠxÃºc":1537,"Ġ2004":1538,"uáº¥n":1539,"Ġngá»Ŀ":1540,"ĠmÃ¡u":1541,"á»ĭnh":1542,"Ġkhá»Łi":1543,"Ġduy":1544,"ĠhÃ²a":1545,"ĠQuang":1546,"Ġxáº¿p":1547,"Ġnhiá»ħm":1548,"ĠÄĳÃ´ng":1549,"ĠDÆ°Æ¡ng":1550,"á»ĳt":1551,"ob":1552,"ie":1553,"Ġláº½":1554,"Ġchá»©":1555,"Ġviáº¿t":1556,"ĠÄĲH":1557,"ue":1558,"ĠcÄĥn":1559,"uÃ´i":1560,"uá»ĳt":1561,"ĠcÃ¡n":1562,"Ġbuá»Ļc":1563,"LB":1564,"ĠÄĳÃło":1565,"ĠBáº¯c":1566,"ĠTrÆ°á»Ŀng":1567,"ĠÃ´":1568,"Ġbáº§u":1569,"ĠÄĳáº£m":1570,"ĠtÃłu":1571,"Ġnhá»Ŀ":1572,"á»·":1573,"Ġbuá»ķi":1574,"ĠHá»Ļi":1575,"est":1576,"ĠVÃ¬":1577,"Ġ100":1578,"ÄĲT":1579,"Ġw":1580,"ĠthÆ°á»Łng":1581,"á»¡":1582,"ĠÄĲÃ¢y":1583,"ĠlÄ©nh":1584,"ho":1585,"23":1586,"Ġhá»Ĺ":1587,"Ġphiáº¿u":1588,"Ġkiáº¿m":1589,"re":1590,"ĠÃĤu":1591,"ĠcÃ¡nh":1592,"ĠNgoÃłi":1593,"ĠphÃºc":1594,"ÃĶng":1595,"Ġmá»ĳi":1596,"ĠgiÃ¡c":1597,"Ġ25":1598,"Ġmáº«u":1599,"ĠtoÃ¡n":1600,"Ġtháº©m":1601,"ist":1602,"Ġ199":1603,"ĠAl":1604,"Ġ50":1605,"ĠCLB":1606,"ĠDo":1607,"ĠInter":1608,"Ġtháº¥p":1609,"Ġthuáº¿":1610,"ĠCÃ²n":1611,"ĠNga":1612,"Ã£o":1613,"ĠgÃ³p":1614,"ĠÄĲiá»ģu":1615,"Ġchá»Ŀ":1616,"Ġbáº¡i":1617,"Ã¨o":1618,"Ġmay":1619,"ion":1620,"ich":1621,"ĠRe":1622,"Ġthá»Ń":1623,"ina":1624,"Ġnhá»Ľ":1625,"ĠNha":1626,"Ġdáº¡ng":1627,"Ã¡y":1628,"Ġ16":1629,"ess":1630,"ĠChá»§":1631,"Ġsá»£":1632,"Ġ14":1633,"áº·n":1634,"Ġsuy":1635,"ine":1636,"io":1637,"Ġp":1638,"ĠTháº¿":1639,"Ġá»ķ":1640,"ĠÄĳÃ´":1641,"Ãºi":1642,"ĠdÃ¢y":1643,"ĠHá»ĵng":1644,"ĠlÆ°á»£t":1645,"Nhá»¯ng":1646,"Ġchá»¯a":1647,"ģm":1648,"Ġmong":1649,"ĠMar":1650,"ĠTiáº¿n":1651,"ĠTPHCM":1652,"á»©t":1653,"ard":1654,"net":1655,"ip":1656,"ĠnÃ¢ng":1657,"ĠtrÃ¡nh":1658,"Sau":1659,"ĠLiÃªn":1660,"Ġdáº¥u":1661,"ĠthuáºŃn":1662,"Ġáº":1663,"Ġtai":1664,"Ġchiáº¿m":1665,"ran":1666,"Ġphá»ĳi":1667,"ĠÄĳua":1668,"Ġtháº³ng":1669,"ĠLe":1670,"ĠÄĳá»ı":1671,"ĠZ":1672,"ĠÄĳáº£o":1673,"ĠVá»Ľi":1674,"Ġ2005":1675,"Ġtáº¡m":1676,"Ġhy":1677,"ĠngÃ¢n":1678,"ĠhÃºt":1679,"ĠsÃºt":1680,"Ġná»ģn":1681,"Ġquen":1682,"Ġlá»ħ":1683,"ĠnghiÃªm":1684,"Ġcoi":1685,"Ġngá»§":1686,"Ġváº»":1687,"TT":1688,"sen":1689,"ell":1690,"ĠtÃ²a":1691,"Ġtháº£o":1692,"to":1693,"ĠsÃ¢u":1694,"BND":1695,"Ġ13":1696,"ĠniÃªn":1697,"ĠkÃ©m":1698,"ĠHÃ¹ng":1699,"Ġmáº¯c":1700,"te":1701,"Ġmá»ģm":1702,"Ġháº¡nh":1703,"Ġcáº£i":1704,"Ġhá»¯u":1705,"Ġnghá»ī":1706,"ĠhÃ£ng":1707,"Ġnháº¹":1708,"ĠGiang":1709,"ĠmÃ³n":1710,"Ġhuy":1711,"raq":1712,"ĠlÃ¡":1713,"Ġquay":1714,"Ġtá»ĳc":1715,"ĠSá»Ł":1716,"ĠphiÃªn":1717,"Ġquanh":1718,"ĠHá»į":1719,"ĠhÃ´n":1720,"Ġlá»Ĺi":1721,"Ġhiá»ĩp":1722,"ĠthuÃª":1723,"sea":1724,"Ġtá»©c":1725,"Ã³i":1726,"Ġmiá»ģn":1727,"elsea":1728,"ĠxuyÃªn":1729,"Ġ2006":1730,"ĠvÅ©":1731,"ĠPhÃ³":1732,"kh":1733,"ĠquÃ¡n":1734,"ĠUBND":1735,"od":1736,"ĠIraq":1737,"ĠChÃºng":1738,"ĠthÃ´i":1739,"Ä©a":1740,"Ġluyá»ĩn":1741,"Ġmáº·c":1742,"Ġbá»ķ":1743,"Ġcan":1744,"ĠthÄĥm":1745,"ĠphÃ³ng":1746,"20":1747,"ĠHiá»ĩn":1748,"Ġtung":1749,"Ġháº¡":1750,"ague":1751,"Ġháº¥p":1752,"Ġthá»«a":1753,"ĠPhÆ°Æ¡ng":1754,"Ġngá»ĵi":1755,"ĠthÃº":1756,"ĠLu":1757,"Ġbá»©c":1758,"of":1759,"ex":1760,"ew":1761,"ĠÄĲÃ³":1762,"oc":1763,"ĠÄĲÃł":1764,"ĠÄĳá»įc":1765,"Ã³t":1766,"ĠrÃºt":1767,"ĠnÃ³ng":1768,"Ġsuáº¥t":1769,"ĠhÆ¡i":1770,"ĠcÆ°":1771,"Ġtrá»¥":1772,"ĠÄĳoáº¡t":1773,"ĠmáºŃt":1774,"Ġnghi":1775,"ĠmÃ´":1776,"Ġtáº£i":1777,"ĠcÅ©":1778,"Ġtim":1779,"áºµn":1780,"ĠÄĳáº©y":1781,"ĠkÃŃch":1782,"Ġmáº¥y":1783,"Ġcha":1784,"Ġ17":1785,"ĠTÃ¢n":1786,"Ġháº¡t":1787,"Ġhá»įp":1788,"ĠKim":1789,"Ġ23":1790,"ĠBáº£n":1791,"ĠnuÃ´i":1792,"Ġáº¥n":1793,"ĠbiÃªn":1794,"Ġbáº¡c":1795,"á»§y":1796,"ĠdÃ²ng":1797,"ĠvÃ©":1798,"ĠlÆ°á»Ľi":1799,"Ġsuá»ĳt":1800,"Ġkiá»ĥu":1801,"Ġsong":1802,"ilan":1803,"Ġtrá»Ŀi":1804,"ĠnÃ´ng":1805,"ĠPháº¡m":1806,"Ġcháº¯n":1807,"Ġtrao":1808,"á»ĩnh":1809,"ĠthÃ¡i":1810,"don":1811,"ĠdÆ°á»¡ng":1812,"ore":1813,"ĠkÃª":1814,"ĠBar":1815,"ĠHÃ²a":1816,"ĠHÃłn":1817,"Ġháº§u":1818,"Ġláº¡c":1819,"ab":1820,"á»Ļn":1821,"ĠhoÃ¡":1822,"ian":1823,"Ġsáºµn":1824,"Ã£y":1825,"ĠXuÃ¢n":1826,"Ġ40":1827,"Ġkhoáº£n":1828,"Ġbuá»ĵn":1829,"á»±u":1830,"ĠTrÆ°á»Ľc":1831,"ĠcÃ¢n":1832,"Ġtráº¯ng":1833,"Ġbiá»ĩn":1834,"ĠthÃŃ":1835,"ĠkhÃ¡m":1836,"15":1837,"Ġtiá»ĥu":1838,"Ġtiá»ĩn":1839,"Ġkhá»ıe":1840,"Ġtruy":1841,"ĠphÃª":1842,"ĠPhÃ²ng":1843,"ĠÆ°u":1844,"Ġláº¯m":1845,"ou":1846,"Ġthai":1847,"Tuy":1848,"Ġthiá»ĩn":1849,"á»³nh":1850,"Ġgiai":1851,"Ġdá»©t":1852,"ĠbÄĥng":1853,"Ġthá»ĭt":1854,"Ġthá»¥":1855,"one":1856,"ĠÄĳoÃ¡n":1857,"30":1858,"Ġcháº¥n":1859,"ĠHai":1860,"ĠTá»«":1861,"ĠGiÃ¡m":1862,"ĠchÃºt":1863,"oa":1864,"Ġchá»£":1865,"Ġweb":1866,"Ġthiá»ĩt":1867,"EA":1868,"Ġf":1869,"ĵi":1870,"ĠchÃ¡u":1871,"Ġkáº»":1872,"ĠPhÃº":1873,"ĠquÃ½":1874,"ĠgÃł":1875,"ĠNÄĥm":1876,"ah":1877,"Ġxanh":1878,"Ġcam":1879,"ĠChelsea":1880,"Ġdáº§n":1881,"son":1882,"Ã¨n":1883,"Ġbinh":1884,"Ġloáº¡t":1885,"Ġnhiá»ĩt":1886,"ĠHoa":1887,"ĠÄĳÆ°Æ¡ng":1888,"oáº¡i":1889,"Ġtuyá»ĩt":1890,"Ġngáº¡i":1891,"Ġchuyáº¿n":1892,"ĠsÃ´ng":1893,"ĠÄĳá»©a":1894,"Ġ'":1895,"Ġchá»īnh":1896,"ĠVÅ©":1897,"ain":1898,"az":1899,"ĠbÃło":1900,"ĠcÆ°á»Ŀng":1901,"uá»ķi":1902,"ĠÄĳÃ¡p":1903,"ĠÄĳÃŃch":1904,"ĠphÃ³":1905,"ĠÄĳem":1906,"ĠÄĲÃło":1907,"Ġ22":1908,"ĠMilan":1909,"ĠtÃ¡i":1910,"Ġthao":1911,"ĠtáºŃn":1912,"Ġlá»ĳi":1913,"50":1914,"ry":1915,"ĠTÃłi":1916,"senal":1917,"Ġcáº¥m":1918,"įt":1919,"oan":1920,"ĠtháºŃm":1921,"ĠÄĲá»ĭnh":1922,"Ġgáº¯ng":1923,"ĠchÃłng":1924,"Ġtá»Ŀ":1925,"áº¹n":1926,"ıng":1927,"ĠÄĳá»Ļt":1928,"Ġsáº¯p":1929,"ĠphÃ¹":1930,"Ġá»ŀ":1931,"rus":1932,"Ġly":1933,"Ġtá»¥":1934,"Ġká»ĭp":1935,"Ġá»ķn":1936,"Ġ24":1937,"14":1938,"ĠTáº¡i":1939,"Ġcáº¯t":1940,"Ġin":1941,"ĠviÃªm":1942,"ĠBáº£o":1943,"ĠthÆ¡":1944,"Ġmáº¡ch":1945,"Ġná»Ńa":1946,"Anh":1947,"Gi":1948,"ĠChá»ī":1949,"ĠlÆ°Æ¡ng":1950,"Ġkim":1951,"Ġná»ĳi":1952,"ĠthoÃ¡t":1953,"ush":1954,"ĠtÃŃn":1955,"ĠSh":1956,"Ġgáº¯n":1957,"Ġsáº¡ch":1958,"ĠNhiá»ģu":1959,"áºµng":1960,"ĠbÃły":1961,"Ġkhá»ĳi":1962,"Náº¿u":1963,"ĠMai":1964,"ĠngÄĥn":1965,"Ġmá»Ŀi":1966,"âĢ¦":1967,"Ġláº¡nh":1968,"ĠthiÃªn":1969,"ĠÄĳen":1970,"ĠHá»ĵ":1971,"Ġniá»ĩm":1972,"Ġninh":1973,"Ġthuyáº¿t":1974,"ĠmÃłn":1975,"Ġlai":1976,"Ġkháº¯c":1977,"Ġkia":1978,"Ġkhá»ķ":1979,"ĠdÃłng":1980,"ĠMal":1981,"áº§ng":1982,"ĠsoÃ¡t":1983,"ĠTuáº¥n":1984,"Ġgiáº£n":1985,"ĠâĢĵ":1986,"ĵn":1987,"iáº¿p":1988,"ĠÄĳÃ³n":1989,"Ġlá»±a":1990,"ĠphÃ¡n":1991,"Ġquáº§n":1992,"ĩt":1993,"Ġniá»ģm":1994,"ĠChi":1995,"á»«a":1996,"Ġliá»ĩt":1997,"ĠsÃ³ng":1998,"ĠlÃłng":1999,"Ġ21":2000,"Ġkhá»§ng":2001,"Ġhuyáº¿t":2002,"oh":2003,"Ġmá»Ļ":2004,"ĠÃ¡nh":2005,"ĠNáºµng":2006,"ĠkhÃºc":2007,"Ġngáº¯n":2008,"Ġvirus":2009,"ik":2010,"Ġsung":2011,"Æ°á»£u":2012,"ĠÄĳÃ²i":2013,"á»£i":2014,"áº³n":2015,"ĠpháºŃn":2016,"ĠÄĲáº£ng":2017,"ier":2018,"ĠCÆ¡":2019,"ĠphÆ°á»Ŀng":2020,"Ġung":2021,"Ġlá»¥c":2022,"ĠNguyÃªn":2023,"Ġlá»Ń":2024,"Æ°Æ¡i":2025,"Ġthiá»ĩu":2026,"ĠLÃ¢m":2027,"ÄĲV":2028,"ĠbÃ¡nh":2029,"Ġká»ĭch":2030,"ames":2031,"ort":2032,"Khi":2033,"ĠhÃłi":2034,"ĠmÃ£":2035,"Ġá»§ng":2036,"ĠBáº¡n":2037,"Ġhá»ģ":2038,"CÃ³":2039,"Ã¨m":2040,"ĠEm":2041,"KhÃ´ng":2042,"ĠReal":2043,"ub":2044,"Æ°á»Ľp":2045,"Ġdá»ĭ":2046,"Ġháº³n":2047,"Táº¡i":2048,"ĠBÃ¹i":2049,"ĠcÃºm":2050,"Ġtháº»":2051,"ass":2052,"Ġkháº£o":2053,"ĠPhan":2054,"ez":2055,"ĠSing":2056,"ĠQuáº£ng":2057,"Ġcáº·p":2058,"iáº¿ng":2059,"ĠchÄĥm":2060,"Ġlá»ĩnh":2061,"ĠÄĳá»£i":2062,"ĠquÃª":2063,"ĠbÃ¢y":2064,"á»Ļp":2065,"ĠBá»ĩnh":2066,"ĠtrÃ¬":2067,"Ġná»Ĺi":2068,"ĠcÄĥng":2069,"ĠSt":2070,"Ġrá»ĳi":2071,"ld":2072,"ut":2073,"apore":2074,"Ġláº¡":2075,"Å©i":2076,"ĠtrÃ¹ng":2077,"ĠrÆ°á»£u":2078,"Ġbá»¥":2079,"Ġtáº§ng":2080,"ile":2081,"iver":2082,"po":2083,"ĠcÆ°á»Ŀi":2084,"TrÆ°á»Ľc":2085,"ĠÄĳá»«ng":2086,"ChÃºng":2087,"ĠcáºŃp":2088,"Ġ60":2089,"ros":2090,"Ġsá»Ńa":2091,"ĠGia":2092,"ĠTáº¿t":2093,"Ġcá»±u":2094,"ĠchÃ³ng":2095,"ĠNgÃły":2096,"ce":2097,"ĠHiá»ĩp":2098,"ail":2099,"Ġmiá»ħn":2100,"og":2101,"ĠSÃłi":2102,"NgÆ°á»Ŀi":2103,"ĠmÃª":2104,"ĠngÆ°á»£c":2105,"Ġvá»£t":2106,"18":2107,"LÄĲ":2108,"ĠBÃł":2109,"rid":2110,"Ġlá»Ńa":2111,"á»įt":2112,"Ġ2003":2113,"ĠViá»ĩn":2114,"ĠÄĳÄ©a":2115,"NgÃły":2116,"Ġe":2117,"ĠArsenal":2118,"Ġtáº¯c":2119,"ĠGÃ²n":2120,"ĠtrÄĥm":2121,"ĠcÃł":2122,"ĠInternet":2123,"13":2124,"ĠVinh":2125,"Ã©o":2126,"ĠLÄĲ":2127,"ines":2128,"Ġmu":2129,"ĠThÆ°Æ¡ng":2130,"âĢĿ,":2131,"ĠsÃłng":2132,"Vá»Ľi":2133,"Ġchá»©a":2134,"ĠTÃ¢m":2135,"Ġháº£i":2136,"uv":2137,"ĠÆ°á»Ľc":2138,"Ġdáº¡y":2139,"ok":2140,"all":2141,"Ġchá»¥c":2142,"ĠChá»ĭ":2143,"Ġxong":2144,"Ãµi":2145,"TP":2146,"ĠhoÃł":2147,"ĠquÃªn":2148,"ĠloÃłi":2149,"ĠbÃ¨":2150,"ĠmÃ¡i":2151,"ĠcÆ¡n":2152,"Ġxung":2153,"Ġtá»Ļc":2154,"Ġkháº¥u":2155,"Ġsáº¡n":2156,"Ġtá»ĵn":2157,"ĠnÃ£o":2158,"ta":2159,"ĠhÆ°Æ¡ng":2160,"Ġcá»¥c":2161,"ĠÃ©p":2162,"ĠcháºŃm":2163,"Ġkhung":2164,"Ġru":2165,"Ġnháº¯c":2166,"ĠSingapore":2167,"ĠÄĳá»¡":2168,"2003":2169,"ĠÃŃch":2170,"ĠgÃ³c":2171,"ĠthÃ¡c":2172,"ĠbÃŃ":2173,"ne":2174,"Ġquáº£ng":2175,"ĠtháºŃn":2176,"ĠnháºŃt":2177,"ĠTháº¯ng":2178,"Ġláº¯ng":2179,"ĠnghÃ¨o":2180,"Ġdá»ĭp":2181,"ĠÄĲá»ĥ":2182,"Ġgáº¥p":2183,"ıa":2184,"Ġcháº·t":2185,"ĠNhÆ°":2186,"uro":2187,"sia":2188,"Ġláº«n":2189,"Ġgiam":2190,"Ġtáº·ng":2191,"16":2192,"pr":2193,"tal":2194,"ĠNew":2195,"ĠBarc":2196,"Ãºa":2197,"ĠsiÃªu":2198,"Ġphá»ķ":2199,"ĠNinh":2200,"co":2201,"Ġtáº¥m":2202,"ĠKinh":2203,"Ġtáº§m":2204,"ĠWor":2205,"man":2206,"ĠÄĲÃ¬nh":2207,"ĠngoÃ¡i":2208,"lo":2209,"Ġgá»ĳc":2210,"Ġchá»¯":2211,"ĠHá»¯u":2212,"Ġmáº¡c":2213,"ĠrÃłng":2214,"Ġtáº¡p":2215,"£t":2216,"ĠgiÃł":2217,"ĠViá»ĩc":2218,"ĠbáºŃt":2219,"ĠkÃŃnh":2220,"Ġthá»§y":2221,"Ġcá»©ng":2222,"af":2223,"Ġná»ķ":2224,"Hiá»ĩn":2225,"Ġcuá»ĳn":2226,"ĠxÆ°Æ¡ng":2227,"Ġrá»Ŀi":2228,"ĠTiá»ģn":2229,"ĠLeague":2230,"esia":2231,"ĠHÆ°ng":2232,"ĠtÃ³c":2233,"%.":2234,"ack":2235,"Ġngá»¯":2236,"ĠdÆ°Æ¡ng":2237,"ĠcÆ°á»Ľi":2238,"Ġngang":2239,"Ġcháº¥m":2240,"ĠbuÃ´n":2241,"Ġloáº¡n":2242,"Ġná»Ļp":2243,"Ġkhuyáº¿n":2244,"ĠÄĲáº¿n":2245,"Ġná»£":2246,"ern":2247,"donesia":2248,"ĠÄĳá»£t":2249,"Ãºy":2250,"ĠmÃ£i":2251,"oft":2252,"ĠkhÃ¡ng":2253,"TV":2254,"ĠGames":2255,"Ġá»ĳng":2256,"Ġchuyá»ģn":2257,"ĠPal":2258,"Ġdá»¯":2259,"ĠgiÃłu":2260,"Ġ28":2261,"TC":2262,"ĠmÆ¡":2263,"ona":2264,"Ġxáº¥u":2265,"BÄĲ":2266,"īnh":2267,"Ġsáº»":2268,"Ġná»Ĺ":2269,"ĠtÃ´n":2270,"Ã£ng":2271,"ĠCar":2272,"ĠChÃ¢u":2273,"ĠtÆ°Æ¡i":2274,"ĠcáºŃn":2275,"iá»ĩng":2276,"Ġgá»¡":2277,"ĠNgÃ¢n":2278,"ĠcÆ°á»Ľp":2279,"Ġgiáº¿t":2280,"¦y":2281,"Ġtá»ĩ":2282,"ĠLinh":2283,"ĠkÃªu":2284,"Ġ26":2285,"ions":2286,"ĠHC":2287,"ĠSá»±":2288,"Æ°á»Ŀn":2289,"Ġáº¢":2290,"ĠPar":2291,"NLÄĲ":2292,"ber":2293,"ĠcáºŃu":2294,"ĠWorld":2295,"Ġrá»«ng":2296,"ĠsÃ³c":2297,"Ġmiá»ĩng":2298,"ĠkhÃ´":2299,"Ġma":2300,"ĠHuy":2301,"aysia":2302,"ĠbÃ¹":2303,"Ġ500":2304,"ĠMan":2305,"ite":2306,"ĠCÃ´":2307,"Ġchiáº¿u":2308,"ĠRom":2309,"17":2310,"ĠláºŃu":2311,"ĠHuáº¿":2312,"Ġtráº£i":2313,"ame":2314,"ams":2315,"NgoÃłi":2316,"Ġrau":2317,"ĠBr":2318,"ĠSEA":2319,");":2320,"Ġco":2321,"Ġvá»¯":2322,"Ġal":2323,"ĠchÃ¡y":2324,"ĠBa":2325,"Ġá»¦y":2326,"ĠngÃ´n":2327,"ĠrÆ¡i":2328,"ick":2329,"Ġkháº¯p":2330,"ĠÆ°Æ¡ng":2331,"ĠÄĲÃłi":2332,"ĠPM":2333,"ĠThuáºŃn":2334,"Ġcá»Ļt":2335,"ĠIs":2336,"ĠhoÃłng":2337,"ĠMad":2338,"ĠBra":2339,"com":2340,"Ġtrá»©ng":2341,"ĠCáº§n":2342,"ĠCá»¥c":2343,"2006":2344,"ĠnÃºi":2345,"Ġ27":2346,"Ġxá»©":2347,"Ġtá»ķn":2348,"ĠÄĳá»ģn":2349,"entus":2350,"Ġdá»±a":2351,"ly":2352,"iet":2353,"Ġliá»ģn":2354,"ĠÄĳÃłm":2355,"uventus":2356,"Ġlá»«a":2357,"ĠyÃªn":2358,"ĠtÃ¡n":2359,"ĠmÆ°a":2360,"Ġtuy":2361,"Ġsáº¯t":2362,"ĠkÃ¨m":2363,"ĠdÆ°":2364,"Qu":2365,"press":2366,"onal":2367,"ord":2368,"ĠKhÃ¡nh":2369,"ĠChamp":2370,"PT":2371,"Ġpháº¥n":2372,"Ġsá»¯a":2373,"ĠkhÃ³a":2374,"ĠPhi":2375,"ĠPhÃ¡t":2376,"ĠtrÃº":2377,"Ġxo":2378,"pool":2379,"Ġtháº§y":2380,"if":2381,"our":2382,"ĠMic":2383,"Ġmá»«ng":2384,"ĠLuáºŃt":2385,"aw":2386,"iverpool":2387,"Ġhá»ĵng":2388,"Ġhá»ĳi":2389,"NA":2390,"ĠlÃ¡i":2391,"Ġláº§m":2392,"Ġbá»ĵi":2393,"ĠdÃµi":2394,"Ġchá»¥":2395,"ĠtÃ´m":2396,"Ġvay":2397,"ÄĲá»Ļi":2398,"cia":2399,"ĠTrÆ°Æ¡ng":2400,"Ġváº¯ng":2401,"Ġ80":2402,"Ġtrá»«":2403,"áº¥c":2404,"ĠCÅ©ng":2405,"ĠIran":2406,"Ġtiáº¿c":2407,"ĠSer":2408,"Ġmai":2409,"Ġháº±ng":2410,"Ġchá»¥p":2411,"ÄĲá»ĥ":2412,"Ġ198":2413,"zil":2414,"rosoft":2415,"Ġáº¤":2416,"ĠTH":2417,"rom":2418,"Ġcáº£n":2419,"ĠnhiÃªu":2420,"Ġcháº·n":2421,"ĠChampions":2422,"CÃ´ng":2423,"Ġhuáº¥n":2424,"Ġmáº¯n":2425,"ĠIndonesia":2426,"Ġhá»įa":2427,"Ġáº¥m":2428,"Ġkm":2429,"ud":2430,"eg":2431,"ĠHÆ°Æ¡ng":2432,"Ġlan":2433,"á»¥y":2434,"ĠÄĳÃ¨n":2435,"ĠMalaysia":2436,"Ġháº¹n":2437,"ti":2438,"Ľt":2439,"ĠdÃły":2440,"ĠÄĳáº£ng":2441,"á»ħ":2442,"ĠÄĳÃłi":2443,"ĠCáº£nh":2444,"ep":2445,"ĠhÃ¨":2446,"ĠTáº¥t":2447,"Ġxu":2448,"ĠGiá»":2449,"ilip":2450,"Ġthá»Ł":2451,"Ġdá»«ng":2452,"ĠLÃ½":2453,"ĠAC":2454,"ĠdÃ¡m":2455,"uch":2456,"Ġcáº¥u":2457,"ÄĲÃ¢y":2458,"):":2459,"Ġtháº§u":2460,"Ġchá»Ł":2461,"ĠNgoáº¡i":2462,"Ġnáº¥u":2463,"Ġvá»¡":2464,"Ġcháº£y":2465,"Ġvá»¯ng":2466,"Ġsá»ĳt":2467,"ĠbÃ³":2468,"Ġthá»ıa":2469,"ĠÄĲT":2470,"oy":2471,"ĠÄĳÃ¡m":2472,"Ġqui":2473,"Ġphi":2474,"HÃ´m":2475,"uk":2476,"ĠdÃ¡ng":2477,"ĠTrang":2478,"op":2479,"Ġmá»ĩt":2480,"ri":2481,"Ġnáº¯m":2482,"ĠBush":2483,"ĠBl":2484,"ĠNgay":2485,"ĠHuá»³nh":2486,"Ġváº¿t":2487,"ko":2488,"ge":2489,"Le":2490,"ox":2491,"ĠhÃ¢m":2492,"ĠtháºŃp":2493,"Ġcá»Ŀ":2494,"ĠlÃ¢m":2495,"Ġ300":2496,"ĠmÅ©i":2497,"ĠÄĲá»Ļi":2498,"Ġ29":2499,"ĠtrÆ°Æ¡ng":2500,"ĠTrÆ°á»Łng":2501,"ĠHy":2502,"Ġbá»¯a":2503,"ĠrÄĥng":2504,"Ġchá»ĳi":2505,"Ġmá»¹":2506,"taly":2507,"ĠLoan":2508,"Ġtreo":2509,"Ġrá»Ńa":2510,"Ġchá»«ng":2511,"Ġnguyá»ĩn":2512,"iáº¿c":2513,"21":2514,"24":2515,"Ġtráº¡i":2516,"ĠtÃºi":2517,"ĠMy":2518,"ĠMá»Ĺi":2519,"ĠMadrid":2520,"Ġquang":2521,"ĠÄĲá»Ļ":2522,"ĠcÆ¡m":2523,"05":2524,"Ġlá»Ĺ":2525,"Tá»«":2526,"Ġ70":2527,"ĠCamp":2528,"ĠhÃło":2529,"500":2530,"Ġlinh":2531,"Ġbá»Ļt":2532,"Ġngá»±":2533,"Ġruá»Ļt":2534,"Ġgan":2535,"Ġpháº«u":2536,"ĠCol":2537,"ĠBrazil":2538,"Ġnháº¥n":2539,"NhÆ°ng":2540,"AND":2541,"ĠHÃ£y":2542,"elona":2543,"Ġá»§y":2544,"ĠtrÆ°ng":2545,"ĠLÄĲBÄĲ":2546,"ĠdáºŃy":2547,"ĠgiÃ³":2548,"ĠxÄĥng":2549,"amin":2550,"á»ŀ":2551,"ast":2552,"ĠtrÃ´ng":2553,"Ìģ":2554,"Ġu":2555,"ĠAS":2556,"ĠtÆ°á»Ŀng":2557,"Ġbá»Ŀ":2558,"ĠTá»ķ":2559,"gi":2560,"ĠnÃ©t":2561,"ĠRi":2562,"Ġáº¤n":2563,"ĠMicrosoft":2564,"ĠÄĳuá»ķi":2565,"NÄĥm":2566,"Ġ90":2567,"ect":2568,"Ġkhuáº©n":2569,"á»Ľp":2570,"Ġvá»Ŀi":2571,"ĠmÃ¹i":2572,"áºŃc":2573,"ĠkhuyÃªn":2574,"Ġmá»ıi":2575,"ĠkhuÃ´n":2576,"ĠsÃ´i":2577,"Ġgháº¿":2578,"ws":2579,"ĠgÆ°Æ¡ng":2580,"Ġthá»ķ":2581,"ĠWin":2582,"ax":2583,"ĠMáº¡nh":2584,"Ġbá»¥ng":2585,"ĠthÃ´n":2586,"ĠNÃ³":2587,"ham":2588,"ĠVÄ©nh":2589,"Ġvong":2590,"ĠBÃ¡o":2591,"ĠSan":2592,"ĠCon":2593,"ech":2594,"Ġkháº©n":2595,"Bá»Ļ":2596,"ico":2597,"ĠRob":2598,"ĠRonal":2599,"LNA":2600,"ien":2601,"ĠbáºŃc":2602,"ĠHÆ¡n":2603,"Ġvá»ı":2604,"CÅ©ng":2605,"ĠCan":2606,"bur":2607,"á»Ľt":2608,"Ġngá»įt":2609,"ĠdÃ¢m":2610,"ĠVal":2611,"ĠbÃ²":2612,"ĠlÃłnh":2613,"tÃ´":2614,"Æ¯":2615,"Ã©n":2616,"ĠVÄĲV":2617,"ĠThiÃªn":2618,"Ġtrá»ĳn":2619,"Ġtrá»¯":2620,"Ġlá»įt":2621,"Ġchim":2622,"FA":2623,"Ġnháº£y":2624,"ĠtrÃºc":2625,"ĠHÃłng":2626,"Ġmáº½":2627,"alia":2628,"á»Ļm":2629,"ĠÄĲoÃłn":2630,"Ġhá»§y":2631,"ĠVÃ¢n":2632,"ĠKá»³":2633,"ĠtÄ©nh":2634,"ĠngÃłn":2635,"ĠÄĳáº¥y":2636,"ĠlÆ°á»£c":2637,"ĠPhilip":2638,"ĠLiverpool":2639,"ĠKhoa":2640,"st":2641,"ĠxÆ°a":2642,"ĠbÃ©o":2643,"Ã¹m":2644,"Ġ2002":2645,"ĠHá»ĵi":2646,"ĠkÃŃn":2647,"rain":2648,"ĠNghá»ĩ":2649,"ĠPhÃºt":2650,"ĠTAND":2651,"ĠDÃ¹":2652,"Chá»ĭ":2653,"ĠMon":2654,"ĠbÃ£i":2655,"ow":2656,"ach":2657,"ff":2658,"ĠLÆ°Æ¡ng":2659,"mar":2660,"ustr":2661,"ug":2662,"Ġgame":2663,"ester":2664,"Ġngon":2665,"Ġduyá»ĩt":2666,"ĠDá»±":2667,"ĠGD":2668,"ĠtáºŃt":2669,"ĠHÄĲ":2670,"ĠÄĳiá»ĩu":2671,"Ġgiá»įng":2672,"ĠDav":2673,"inho":2674,"ĠJuventus":2675,"25":2676,"ĠgiÃ¢y":2677,"Ġhuá»ĳng":2678,"ĠÄĳáºŃu":2679,"ĠQuÃ¢n":2680,"Ġcháº¡m":2681,"Ġgá»Ĺ":2682,"ĠPr":2683,"ĠngÃ£":2684,"ĠÄĳá»īnh":2685,"ĠnÃªu":2686,"Ġhá»©a":2687,"istan":2688,"ĠThá»©":2689,"ĠThÆ¡":2690,"ĠTrá»įng":2691,"ĠmÃ£n":2692,"ĠBá»ĵ":2693,"ĠÄĲiá»ĩn":2694,"Ġbáº¯n":2695,"ĠdÆ°á»£c":2696,"Ġgiá»ıi":2697,"Ġhá»Ļp":2698,"ĠbÃ£o":2699,"ĠlÃ¢y":2700,"ohn":2701,"ĠItaly":2702,"ĠnghÃ¬n":2703,"ini":2704,"ĠDu":2705,"ĠLÃºc":2706,"01":2707,"Ġquá»¹":2708,"ĠEU":2709,"bum":2710,"ĠÄĲá»Ĺ":2711,"estine":2712,"ustralia":2713,"Ġmá»ķ":2714,"ĠCao":2715,"Ġhiáº¿m":2716,"ĠsÃºng":2717,"ĠKáº¿t":2718,"Ġhá»©ng":2719,"Ġsu":2720,"Ġtá»©":2721,"ĠÄĳáº³ng":2722,"ĠPet":2723,"Ġkg":2724,"á»ıi":2725,"ĠLai":2726,"ĠPMU":2727,"Ãªnh":2728,"Ġtháº£i":2729,"Ġhá»ĵn":2730,"KS":2731,"League":2732,"ĠlÆ°ng":2733,"ĠPalestine":2734,"ĠtÃ´":2735,"ĠBá»Łi":2736,"ĠkhÃŃch":2737,"ĠlÃ£ng":2738,"iger":2739,"ĠquÃł":2740,"ĠChÃŃ":2741,"ĠThá»Ŀi":2742,"ĠLÃło":2743,"Ġráº»":2744,"ĠTiÃªn":2745,"ĠVáºŃy":2746,"ĠtrÃºng":2747,"ĠThÃ´ng":2748,"ĠlÃ´ng":2749,"Ġphá»©c":2750,"á»ıng":2751,"Ġthang":2752,"ĠPhong":2753,"Má»¹":2754,"Ġsá»ķ":2755,"Ġdao":2756,"ari":2757,"ĠVÃµ":2758,"ĠÃ´tÃ´":2759,"pines":2760,"Ġtrá»ĳng":2761,"Ġkhiá»ĥn":2762,"ĠThá»¥y":2763,"Ġ45":2764,"ĠGiáº£i":2765,"dows":2766,"Ġbom":2767,"Ġ197":2768,"ver":2769,"ĠthÃ©p":2770,"entina":2771,"ĠÄĳÃ¡o":2772,"aul":2773,"ĠAb":2774,"áº«y":2775,"Ġviá»ħn":2776,"ĠchÃło":2777,"ĠtrÃŃch":2778,"ĠRiÃªng":2779,"ĠvÆ°á»Ŀn":2780,"Ġbá»ĳn":2781,")-":2782,"Ġtráº§m":2783,"Ġbáº¡o":2784,"krain":2785,"ĠMU":2786,"ĠÄĳá»±":2787,"ĠBÃªn":2788,"Ġxá»©ng":2789,"ĠtÃ¹y":2790,"ock":2791,"ĠÄĲá»ĳi":2792,"Ġsa":2793,"rael":2794,"Ġngá»«ng":2795,"Ġdinh":2796,"Ġ35":2797,"á»µ":2798,"ity":2799,"ĠkhÃ³c":2800,"ĠCÆ°á»Ŀng":2801,"site":2802,"Ġthan":2803,"ĠQuyáº¿n":2804,"ĠthÃ¹":2805,"ĠCam":2806,"Ġ31":2807,"Ġtá»ĳn":2808,"199":2809,"TO":2810,"Ġla":2811,"ĠnhÅ©ng":2812,"22":2813,"ĠSch":2814,"ĠBarcelona":2815,"ene":2816,"á»§i":2817,"ĠTÆ°":2818,"ĠCáº£":2819,"ary":2820,"ĠtrÃ²n":2821,"ĠnÃłng":2822,"ĠÆ¡n":2823,"ĠÄĳe":2824,"Ġtan":2825,"ĠchÃŃn":2826,"ĠPhÆ°á»Ľc":2827,"ĠGiao":2828,"ĠAi":2829,"ÌĢ":2830,"ĠtrÃłn":2831,"ĠdÆ°á»Ŀng":2832,"ĠHen":2833,"ĠÄĲáº·c":2834,"ĠVá»ģ":2835,"era":2836,"ĠTN":2837,"%,":2838,"Ġtrá»ĵng":2839,"ĠTrÃªn":2840,"ĠÄĳá»±ng":2841,"Ġnáº¯ng":2842,"illa":2843,"Nhiá»ģu":2844,"ngÃły":2845,"Ġgáº¡o":2846,"ÄĲiá»ģu":2847,"03":2848,"ĠHáº¡nh":2849,"Ġbá»Ľt":2850,"Viá»ĩc":2851,"Ġnháº¯n":2852,"Ġ2000":2853,"Báº¡n":2854,"ĠlÃ£i":2855,"Ġbang":2856,"ĠViet":2857,"ĠThá»§y":2858,"uchia":2859,"ĠUkrain":2860,"ĠEuro":2861,"ngÆ°á»Ŀi":2862,"ers":2863,"ĠGiÃ¡":2864,"60":2865,"mail":2866,"ĠtoÃł":2867,"Ġalbum":2868,"xpress":2869,"ĠhÃ¹ng":2870,"Ġdá»įc":2871,"ĠngÅ©":2872,"ĠÄĲáº§u":2873,"Ġbá»ķng":2874,"raf":2875,"SG":2876,"Ġláº¯p":2877,"ĠVá»¥":2878,"ĠCho":2879,"02":2880,"Ġmiáº¿ng":2881,"Ġvua":2882,"ĠNgÃ´":2883,"Ì£":2884,"ĠTháº£o":2885,"enko":2886,"ĠRoma":2887,"Ġkhá»Ľp":2888,"ĠAm":2889,"Ġtá»ıa":2890,"á»īnh":2891,"ww":2892,"ĠThá»±c":2893,"ĠAnd":2894,"Ġáº¢nh":2895,"ĠÄĳáºŃm":2896,"ĠlÃŃnh":2897,"ĠAustralia":2898,"ĠgÃ³i":2899,"ĠtÃ¢y":2900,"Ġláº»":2901,"ĠWindows":2902,"vn":2903,"ĠDuy":2904,"Ġphá»ıng":2905,"ĠThá»ĥ":2906,"ĠNhÃ¢n":2907,"TráºŃn":2908,"Vá»ģ":2909,"Ġsá»©":2910,"Ġváº½":2911,"ĠNháº¥t":2912,"HÃł":2913,"ĠkiÃªn":2914,"Ġthoáº£i":2915,"ĠkhoÃ¡n":2916,"ĠIsrael":2917,"ĠPhilippines":2918,"ĠÄĳá»ĳt":2919,"Ã½t":2920,"ĠAd":2921,"ĠÄĳáºŃp":2922,"ĠCl":2923,"Ġtráº¥n":2924,"ĠHA":2925,"ĠThÃ¡p":2926,"©t":2927,"ĠtÃºc":2928,"Ġcu":2929,"ĠTáº¥n":2930,"ate":2931,"ĠFran":2932,"ĠkÃªnh":2933,"ĠtÃºy":2934,"ĠvÃµ":2935,"Ġthuyá»ģn":2936,"Ġbá»įn":2937,"ĠmÃ¡t":2938,"Ġgiáº£ng":2939,"áº±n":2940,"ĠÃļ":2941,"tel":2942,"Ġtáº£":2943,"04":2944,"ĠÄĲáº·ng":2945,"Ġmuá»ĳi":2946,"Ġnhi":2947,"ĠtrÃł":2948,"kg":2949,"Ġgiáº¥u":2950,"Káº¿t":2951,"ĠnhÃ¡nh":2952,"28":2953,"Ġláº·ng":2954,"ĠCáº§u":2955,"Ġngá»¥":2956,"á»įa":2957,"ĠTD":2958,"Ġáº©n":2959,"Ġthiá»ĥu":2960,"Æ°á»£n":2961,"ĠAs":2962,"Ġ.":2963,"Ġtráº¡m":2964,"ma":2965,"ĠÄĲiá»ĥn":2966,"Ġhoáº£ng":2967,"CÃ²n":2968,"ĠII":2969,"ĠcÃ£i":2970,"ĠsÃłn":2971,"ĠLá»Ļc":2972,"edl":2973,"ĠkhÃ¡t":2974,"iz":2975,"ĠthÃ¡ch":2976,"ĠCháº³ng":2977,"ĠgiÃły":2978,"ĠNÃ´ng":2979,"Ġwebsite":2980,"art":2981,"how":2982,"ĠdÃŃnh":2983,"á»ĭa":2984,"Ġcá»ı":2985,"Ġtha":2986,"ĠnhÆ°á»£ng":2987,"Ġmá»±c":2988,"40":2989,"ib":2990,"ĠSá»ĳ":2991,"ĠlÃ£m":2992,"Ġfile":2993,"ĠsÄĥn":2994,"sk":2995,"ĠlÅ©":2996,"Æ°á»¡i":2997,"ĠÃ´m":2998,"Ġtiá»ģm":2999,"ada":3000,"ĠQuá»³nh":3001,"ĠCampuchia":3002,"Ġtang":3003,"ĠtÃ¢n":3004,"ĠDÃ¢n":3005,"ĠFer":3006,"ĠthÆ°á»£ng":3007,"ĠrÃ¡c":3008,"ĠKhu":3009,"ĠLáº¡p":3010,"ĠcÆ°Æ¡ng":3011,"ĠdÃłn":3012,"enn":3013,"da":3014,"ĠtrÃło":3015,"ael":3016,"ĠPhÃºc":3017,"In":3018,"Ġngá»«a":3019,"06":3020,"Express":3021,"Ġcháº·ng":3022,"Ġngáº¡c":3023,"Ġlá»įc":3024,"Ġtáº¯m":3025,"ĠÄĳÃ£i":3026,"Ġtrá»įn":3027,"ĠtÃ¡":3028,"ĠtÃŃ":3029,"Hai":3030,"ens":3031,"Ġtháº£m":3032,"encia":3033,"ek":3034,"Ġgiáº¥c":3035,"arl":3036,"ĠTÃłu":3037,"ĠVKS":3038,"Ġche":3039,"Ġ400":3040,"lor":3041,"ĠmÃ³c":3042,"ĠTDTT":3043,"ĠTÃ¬nh":3044,"ĠYÃªn":3045,"To":3046,"Ġcáº£ng":3047,"nExpress":3048,"Ġdáº¯t":3049,"oáº£ng":3050,"Ġhá»ıng":3051,"Ġbá»ģ":3052,"Æ¡m":3053,"ĠgiáºŃt":3054,"ĠsÃ¡nh":3055,"ĠRo":3056,"nÄĥm":3057,"mp":3058,"ject":3059,"ĠtráºŃt":3060,"ĠsÃ³t":3061,"ĠxÃ¢m":3062,"ĠThÆ°á»Ŀng":3063,"ĠcÃ¡t":3064,"Ġvit":3065,"ĠJohn":3066,"ĠgiáºŃn":3067,"ĠCuá»Ļc":3068,"Ġngáº¡ch":3069,"ĠHiáº¿u":3070,"ĠSp":3071,"ork":3072,"Ġcanh":3073,"Ġkhiáº¿u":3074,"Ã©m":3075,"ley":3076,"Ġbáº£y":3077,"ĠngáºŃp":3078,"ĠChÆ°Æ¡ng":3079,"uc":3080,"ĠlÃ´":3081,"Ġdá»įa":3082,"ĠphÃ¡i":3083,"ĠthÆ¡m":3084,"Ġvitamin":3085,"Ġbáº¿p":3086,"ĠMáº·c":3087,"Ġmá»¡":3088,"ĠDavid":3089,"khÃ´ng":3090,"ĠRiedl":3091,"Ġmáº¡n":3092,"Ġkhá»ĳng":3093,"ĠhÆ°":3094,"Ġtrá»Ļm":3095,"ĠSinh":3096,"Ġlá»ĵ":3097,"ĠTrá»ĭnh":3098,"Ġnhá»ĭp":3099,"und":3100,"Ġhoang":3101,"ĠÄĳáº¡p":3102,"ashi":3103,"Ġkiá»ĩm":3104,"outh":3105,"Ġcá»¡":3106,"',":3107,"orn":3108,"Ġbáº¯c":3109,"Ġchuá»Ļt":3110,"Ġnhá»±a":3111,"ĠBiÃªn":3112,"ĠnhÃ¬":3113,"ĠSLNA":3114,"ĠQuáº£n":3115,"ĠphÃº":3116,"ĠtÃ¡o":3117,"Ġsá»¥":3118,"ĠNiÃªn":3119,"ĠghÃ©p":3120,"á»£p":3121,"Ġ2001":3122,"á»©a":3123,"QÄĲT":3124,"chenko":3125,"ĠSong":3126,"ĠUn":3127,"Sá»±":3128,"Ġva":3129,"ĠVÆ°Æ¡ng":3130,"ĠSe":3131,"ĠÄĳiá»ĥn":3132,"ĠchÃ³":3133,"Ġdiá»ĩt":3134,"Ġhá»ķ":3135,"SC":3136,"Ġmuá»Ļn":3137,"ĠHam":3138,"Ġlá»¡":3139,"ondon":3140,"ath":3141,"ĠTráº»":3142,"Ġnon":3143,"ĠTT":3144,"From":3145,"ĠBer":3146,"ĠbÃ¡m":3147,"Ġkhá»ķng":3148,"con":3149,"ĠÄĳÃłnh":3150,"ĠLao":3151,"ĠÄĳáº¯t":3152,"ĠLam":3153,"ĠvÃŃ":3154,"ĠlÃłn":3155,"ani":3156,"ank":3157,"ĠChiáº¿n":3158,"ĠUkraina":3159,"ĠbÃ¹ng":3160,"Ġná»ģ":3161,"ubject":3162,"26":3163,"ĠhÃ´":3164,"ĠNai":3165,"ĠTháº¡nh":3166,"Æ°á»Ľt":3167,"Ġsay":3168,"Con":3169,"ĠmÃ©t":3170,"Ġuy":3171,"ĠGo":3172,"cÃ³":3173,"ĠnhÃ£n":3174,"ĠHáºŃu":3175,"ĠMich":3176,"EC":3177,"Ġchá»§ng":3178,"ĠLondon":3179,"ĠCÃ¡ch":3180,"ĠbÃ¬":3181,"Ġbáº¡ch":3182,"Ġtri":3183,"iano":3184,"ĠthÃ³i":3185,"Ġvá»Ł":3186,"45":3187,"ĠToÃłn":3188,"ĠDel":3189,"rafat":3190,"Ġdáº¡":3191,"ĠÃ¡i":3192,"ĠtiÃªm":3193,"ĠPháº§n":3194,"ĠhÃ´i":3195,"anmar":3196,"27":3197,"ĠCÄĲ":3198,"Æ°Æ¡n":3199,"Ġkhoáº»":3200,"oney":3201,"XX":3202,"Ġ150":3203,"ĠnhÃłng":3204,"Ġthá»Ŀ":3205,"ey":3206,"tin":3207,"Ġtháº£":3208,"Ġhu":3209,"ĠbáºŃn":3210,"ĠHCV":3211,"Ġchua":3212,"ĠÄĲan":3213,"ĠÄĳáº¿":3214,"Ġliá»ģu":3215,"ĠhÃłm":3216,"Ġmáº£nh":3217,"ĠTot":3218,"Ġdá»ĩt":3219,"Ġtáº¯t":3220,"Ġkhuyáº¿t":3221,"âĢľ":3222,"lymp":3223,"ĠTriá»ģu":3224,"nam":3225,"ĠCal":3226,"Ġváº£i":3227,"ĠÃĿ":3228,"Ġcá»ķng":3229,"Ġkem":3230,"Ġnghiá»ĩn":3231,"ĠDN":3232,"SÃ¡ng":3233,"Ġbá»ĳi":3234,"Ġtrá»¥c":3235,"ĠgiÃ£n":3236,"ĠxÃ³a":3237,"ĠThá»į":3238,"Ġráº¯n":3239,"ei":3240,"Ġngá»±c":3241,"ĠdÃ¢u":3242,"ĠSÄ©":3243,"Ġbá»ĳc":3244,"ĠÄĲÆ°á»£c":3245,"ĠxÃł":3246,"Chiá»ģu":3247,"NhÃł":3248,"Ġháº¹p":3249,"Ġgá»įn":3250,"va":3251,"Ġháº§m":3252,"Ġcháº½":3253,"Ġnháº¡y":3254,"ĠTiger":3255,"ĠVF":3256,"Ġlang":3257,"ĠArafat":3258,"gentina":3259,"07":3260,"BC":3261,"29":3262,"Ġphá»ķi":3263,"ĠxuÃ¢n":3264,"sson":3265,"ĠcÆ°á»Ľc":3266,"Ġmá»ı":3267,"xi":3268,"Ġváº£":3269,"ĠBec":3270,"ĠWTO":3271,"Ġthiá»ĩp":3272,"DÄĲ":3273,"erry":3274,"ĠlÃ²":3275,"ĠthÄĥng":3276,"Báº£ng":3277,"Tá»ķng":3278,"Ġo":3279,"ÄĲÃ³":3280,"ĠHá»įc":3281,"ĠDung":3282,"Ġáº©m":3283,"Ġháº£o":3284,"ĠxÃ¡ch":3285,"ĠEl":3286,"ĠtÃłng":3287,"ĠbÃª":3288,"Ngay":3289,"ĠthÃ´":3290,"ĠCr":3291,"Ġmáº¿n":3292,"Ġdá»ĵn":3293,"ero":3294,"ĠLy":3295,"ĠSc":3296,"ĠNÃ³i":3297,"ĠLáº¡t":3298,"ĠtÃ¡ch":3299,"Ġbia":3300,"ĠHÃ³a":3301,"Ġmá»ĵ":3302,"Thá»§":3303,"ĠngÃ³n":3304,"á»ĳm":3305,"ane":3306,"Trung":3307,"Ġkhá»©":3308,"Ġlá»ĩch":3309,"VN":3310,"Ġvang":3311,"Ngh":3312,"á»ĩt":3313,"Ġgá»ĳi":3314,"Ġsáº¯m":3315,"Ġ,":3316,"ĠCN":3317,"SN":3318,"eal":3319,"ĠtÃłn":3320,"Ġvinh":3321,"Ġvá»Ļi":3322,"Ġhiáº¿n":3323,"ĠGiÃ¡o":3324,"thÃ¡ng":3325,"áº¹o":3326,"ĠRonaldo":3327,"Ġbáº¿n":3328,"Ġhá»¥":3329,"ĠBen":3330,"Ġsá»£i":3331,"ĠSo":3332,"ĠTo":3333,"ĠduyÃªn":3334,"ĠmÆ°u":3335,"ĠCQÄĲT":3336,"ĠÃļc":3337,"Ġcua":3338,"ĠÄĳiá»ĩp":3339,"ĠtrÃ´i":3340,"ĠLa":3341,"eng":3342,"lin":3343,"ĠÃ¡m":3344,"Ġxáº¡":3345,"go":3346,"na":3347,"yo":3348,"Ġleo":3349,"ĠHÃ´m":3350,"Ġvid":3351,"Chá»ī":3352,"amsu":3353,"Ġnháº¡t":3354,"ĠsÃ¡u":3355,"ĠMau":3356,"Ġná»ĵng":3357,"Ġvoi":3358,"VÃ¬":3359,"ĠTháºŃm":3360,"80":3361,"ĠBáº±ng":3362,"Ġmá»ĩnh":3363,"Giá»":3364,"gh":3365,"ĠcÃłi":3366,"ĠniÃªm":3367,"ony":3368,"ice":3369,"Ġvideo":3370,"ĠÄĳá»ĩ":3371,"áº«m":3372,"Ġmá»ıng":3373,"ĠPer":3374,"Ġcáº¥t":3375,"Ġtour":3376,"ĠNghá»ĭ":3377,"ĠtrÆ°a":3378,"ÄĲáº¿n":3379,"Ġngá»Ļ":3380,"ĠbÃ´ng":3381,"ĠKáº¿":3382,"Cuá»Ļc":3383,"Do":3384,"ĠchÃ¡n":3385,"ĠSy":3386,"ty":3387,"ĠVÅ©ng":3388,"ĠÄĳai":3389,"Chá»§":3390,"ica":3391,"aco":3392,"ashing":3393,"Ġgá»£i":3394,"Ġlá»ıng":3395,"ĠNghÄ©a":3396,"xin":3397,"ashington":3398,"Ġkhen":3399,"áº¹t":3400,".-":3401,"31":3402,"Ġtrá»Ļn":3403,"ano":3404,"ĠBarca":3405,"HH":3406,"Ġthá»§ng":3407,"ĠMyanmar":3408,"Ġcá»ĳt":3409,"IV":3410,"ĠÄĳÃ¢m":3411,"ĠTam":3412,"Ġbá»ģn":3413,"ba":3414,"uel":3415,"ĠmÃ¹":3416,"rog":3417,"ĠSerie":3418,"ĠOlymp":3419,"Ġbá»¥i":3420,"ĠmÆ°á»£n":3421,"ĠkhÃ©o":3422,"ĠCÃ¡i":3423,"ĠLG":3424,"Ġsan":3425,"ĠValencia":3426,"land":3427,"Ġha":3428,"ĠdÃ²":3429,"ya":3430,"Thá»±c":3431,"Ġkiá»ģu":3432,"ayern":3433,"Ġthuáº«n":3434,"Ar":3435,"BÃ¬nh":3436,"Ġcá»ĳng":3437,"trong":3438,"Em":3439,"VD":3440,"cast":3441,"ĠchÃºc":3442,"ĠmÃły":3443,"ĠchÃ¹a":3444,"avar":3445,"GL":3446,"2002":3447,"TrÃªn":3448,"ĠXÃ¢y":3449,"ĠGr":3450,"age":3451,"á»ĭn":3452,"ĠEd":3453,"AC":3454,"Ġtruyá»ĩn":3455,"ĠgÃ¡nh":3456,"ĠÄĳá»©c":3457,"ĠCD":3458,"Ġ36":3459,"ĠPhá»¥":3460,"gt":3461,"ĠkhÃ¢u":3462,"ĠnhuáºŃn":3463,"Ġá»ĳc":3464,"ĠMáº¡ch":3465,"ĠÄĳá»ĵn":3466,"Ġcm":3467,"ĠchÄĥng":3468,"ĠPC":3469,"igh":3470,"ĠTim":3471,"ÃŃa":3472,"ĠsÆ¡n":3473,"ÄĲá»ĳi":3474,"ash":3475,"la":3476,"ĠÄĳáº¡n":3477,"Ġdá»Ļi":3478,"Ġxáº¿":3479,"ID":3480,"Ġváº¥t":3481,"ino":3482,"Ġ32":3483,"hoo":3484,"ĠmÃºa":3485,"Ġá»©c":3486,"ĠCÃºp":3487,"ke":3488,"kham":3489,"LA":3490,"ĠÄĲÃ£":3491,"ĠThÆ°á»£ng":3492,"NhÆ°":3493,"ogle":3494,"ĠLá»£i":3495,"ĠQua":3496,"ĠÄĳeo":3497,"ÄĲiá»ĥm":3498,"ĠEr":3499,"Ãºn":3500,"ĠHIV":3501,"ĠMc":3502,"NguyÃªn":3503,"ood":3504,"les":3505,"Ġshow":3506,"Ġhoan":3507,"ĠWashington":3508,"zech":3509,"PhÃ¡t":3510,"bia":3511,"Ġcáº©n":3512,"ĠLÃłm":3513,"ĠThe":3514,"Ġhá»¥t":3515,"Ġá»Ľt":3516,"ĠxÃŃ":3517,"are":3518,"castle":3519,"ĠTiáº¿p":3520,"Ġthá»£":3521,"ĠÄĲÆ°á»Ŀng":3522,"ĠÄĲá»Ļng":3523,"ĠTháºŃt":3524,"Ġeuro":3525,"ĠKong":3526,"ChÃŃnh":3527,"eu":3528,"Ġchinh":3529,"Ġbi":3530,"Ġtráº§n":3531,"Ġheo":3532,"ĠThÃ¡ng":3533,"ĠChÆ°a":3534,"ĠVnExpress":3535,"ĠPháº£i":3536,"ose":3537,"ĠCanada":3538,"let":3539,"ĠOs":3540,"ĠchÄĥn":3541,"ka":3542,"Ġváº¹n":3543,"ĠgiÃ²":3544,"ĠSV":3545,"DÃ¹":3546,"ĠCH":3547,"ĠvÃº":3548,"ĠchÃ¬m":3549,"ĠCity":3550,"Ġphiá»ģn":3551,"?\".":3552,"ĠÄĳÃ³i":3553,"ĠrÃło":3554,"33":3555,"chester":3556,"ive":3557,"ĠHong":3558,"Ġáº£o":3559,"Ġcáº¯p":3560,"ĠHenry":3561,"Ġ:":3562,"ĠmÃłng":3563,"ĠÃ¡c":3564,"ĠVan":3565,"ĠLin":3566,"ÄĲáº¡i":3567,"ĠTNHH":3568,"ĠCá»Ļng":3569,"ĠKiÃªn":3570,"Ġ75":3571,"ĠláºŃt":3572,"Ġná»Ł":3573,"ĠRooney":3574,"ĠgiÆ°á»Ŀng":3575,"ĠthÃ¡o":3576,"ĠxÃ³m":3577,"ca":3578,"ĠCuá»ĳi":3579,"Ġhá»Ł":3580,"ĠbuÃ½t":3581,"Ġhuynh":3582,"HLV":3583,"ĠArgentina":3584,"ĠKiá»ģu":3585,"ation":3586,"dam":3587,"32":3588,"ĠÄĲa":3589,"ĠvÆ°Æ¡n":3590,"ĠÄĲTDÄĲ":3591,"ĠthÆ°á»Ľc":3592,"ĠSubject":3593,"Thá»Ŀi":3594,"Ġsoáº¡n":3595,"ĠTá»ĳi":3596,"ĠBol":3597,"ĠHS":3598,"TS":3599,"ĠbÃºt":3600,"Ġxinh":3601,"Ġlá»©a":3602,"tein":3603,"ĠtrÃ¹m":3604,"Ġtiá»ĩc":3605,"ĠTS":3606,"ĠXin":3607,"eld":3608,"BÃł":3609,"Ġsex":3610,"ert":3611,"TVT":3612,"Ġthoáº£":3613,"35":3614,"ĠCáºŃp":3615,"ĠSÃ¡ng":3616,"ĠYork":3617,"70":3618,"ĠnÆ°á»Ľng":3619,"iá»ħu":3620,"li":3621,"Ã£nh":3622,"ĠCzech":3623,"ĠNhung":3624,"ĠHÄĲXX":3625,"ĠÆ°a":3626,"ĠMá»įi":3627,"ĠOanh":3628,"Ġtá»¥ng":3629,"ĠnÃºt":3630,"ĠcÃ³c":3631,"ĠBáº¿n":3632,"Ġnáº¡i":3633,"Ã¹y":3634,"ĠLH":3635,"ĠQuy":3636,"ford":3637,"má»Ļt":3638,"ĠmÃ³ng":3639,"Ġnáº¥m":3640,"ĠPak":3641,"Ġchá»ĳt":3642,"Ġ196":3643,"ith":3644,"09":3645,"Vá»¥":3646,"nham":3647,"ĠQuan":3648,"ĠSent":3649,"ĠHá»£p":3650,"Ġ65":3651,"ĠlÃ£o":3652,"08":3653,"Ġga":3654,"ĠMáº·t":3655,"sp":3656,"ĠBV":3657,"ĠHiá»ģn":3658,"ĠDÃ¹ng":3659,"á»Ĺng":3660,"iga":3661,"34":3662,"Ġ&":3663,"Ġcai":3664,"Ġmi":3665,"100":3666,"ĠÄĳÃł":3667,"ĠÄĳáº¯p":3668,"ĠChu":3669,"Máº·c":3670,"Ġmáº¡o":3671,"ĠLáº§n":3672,"ĠDi":3673,"Ġngá»±a":3674,"ĠBÃŃ":3675,"ivo":3676,"ĠÄĳáº»":3677,"ĠthÃ¢m":3678,"Ġdá»ĳi":3679,"ĠMat":3680,"ĠChÃ¡nh":3681,"Ġlá»¥":3682,"CN":3683,"ĠCÃ¹ng":3684,"Ġmá»Ŀ":3685,"eport":3686,"sin":3687,"Ġcay":3688,"ĠVÃło":3689,"Dá»±":3690,"GiÃ¡":3691,"za":3692,"Ġvá»ĭt":3693,"ĠÄĳam":3694,"Ġbáº¿":3695,"tenham":3696,"Ġdá»ĭu":3697,"ĠTHPT":3698,"ĠMichael":3699,"ĠbÆ¡i":3700,"ĠngÆ°á»¡ng":3701,"ĠBeckham":3702,"Ġcháº©n":3703,"ĠdÄ©":3704,"illi":3705,"ĠGoogle":3706,"eportivo":3707,"Tiá»ģn":3708,"ĠthÃ¹ng":3709,"Ġngáº§m":3710,"ĠCÄĲV":3711,"ĠLÆ°u":3712,"ĠTrÃŃ":3713,"gar":3714,"ha":3715,"ĠGl":3716,"Ìī":3717,"Ġde":3718,"ĠBÆ°u":3719,"ĠGTVT":3720,"Ġmá»įc":3721,"uáº§n":3722,"ĠbÃ¡t":3723,"ĠGiá»Ŀ":3724,"day":3725,"ĠMor":3726,"ĠlÃºa":3727,"ĠAM":3728,"Ġ55":3729,"ĠBÃ¡c":3730,"!\".":3731,"ĠAg":3732,"Ġnháº«n":3733,"illar":3734,"de":3735,"ĠSA":3736,"ĠDVD":3737,"ĠngÆ°ng":3738,"ĠBayern":3739,"Ġrock":3740,"ĠÃģnh":3741,"SA":3742,"EAN":3743,"der":3744,"Ġthe":3745,"ĠTÃ´n":3746,"Ġthuá»·":3747,"Ġlá»Ļn":3748,"ĠAir":3749,"CÃ¡ch":3750,"Ġtriá»ĩt":3751,"ant":3752,"2001":3753,"Ġáº¥p":3754,"Thá»©":3755,"ota":3756,"Ġtá»§":3757,"ĠhÃ²":3758,"ĠngÆ¡i":3759,"ĠVC":3760,"ĠDe":3761,"Ġhung":3762,".,":3763,"ĠTráºŃn":3764,"ĠgiÃ¡p":3765,"Ġ+":3766,"ĠsÆ°u":3767,"ĠCÃł":3768,"ĠLÃł":3769,"real":3770,"tress":3771,"IA":3772,"ira":3773,"ĠlÃ´i":3774,"ĠKháº£i":3775,"Ġcá»±":3776,"Ġláº¡m":3777,"ana":3778,"ĠBag":3779,"ĠchÃ¬":3780,"ĠnÃ¡t":3781,"Ġthoáº£ng":3782,"CS":3783,"ler":3784,"Ġgene":3785,"ĠtrÃ¡ng":3786,"lex":3787,"ĠÄĲK":3788,"ĠGÄĲT":3789,"ĠkhÃ³i":3790,"Ġhuá»·":3791,"car":3792,"Ġtiá»ĩm":3793,"Ġcáº¯m":3794,"Ġ1999":3795,"ĠASEAN":3796,"giá»":3797,"ĠCor":3798,"Ġong":3799,"ĠThÃ©p":3800,"Ġ34":3801,"ĠRáº¥t":3802,"orto":3803,"ost":3804,"Ġbá»ıng":3805,"Ġchai":3806,"ĠPl":3807,"Ġxoay":3808,"CÃ¹ng":3809,"pe":3810,"Ġ38":3811,"ĠParis":3812,"ĠOlympic":3813,"ĠlÆ°á»¡i":3814,"Ġ600":3815,"Ġ250":3816,"ĠKiá»ĥm":3817,"ĠRá»ĵi":3818,"eor":3819,"...,":3820,"Ġ33":3821,"Ġof":3822,"wn":3823,"Ġmáº¯m":3824,"Ġtrinh":3825,"ille":3826,"VÃło":3827,"Ġvu":3828,"ĠVFF":3829,"198":3830,"illarreal":3831,"rist":3832,"ĠSad":3833,"ĠvÆ°Æ¡ng":3834,"Ġ1998":3835,"ĠTÃº":3836,"IFA":3837,"los":3838,"oo":3839,"ĠchÃ©p":3840,"Tháº¿":3841,"ola":3842,"Ġnáº£y":3843,"ĠnghiÃªng":3844,"azio":3845,"Ġtáº©y":3846,"ĠrÃ£i":3847,"Ġ800":3848,"ago":3849,"ĠSi":3850,"ÄĲÆ°á»£c":3851,"ĠAng":3852,"ĠthoÃ¡ng":3853,"Ġ120":3854,"Ġham":3855,"ĠhoÃ£n":3856,"ÄĲá»ĵng":3857,"ingham":3858,"Ġngáº¯m":3859,"ĠTÃ¹ng":3860,"ĠtÃŃm":3861,"Ġtáº¿t":3862,"ĠmÃ¬":3863,"verton":3864,"Ġmen":3865,"Ġkhe":3866,"ĠmÃ¢u":3867,"ĠHoÃłi":3868,"An":3869,"ĠTuyáº¿t":3870,"BÃªn":3871,"Ġná»ĵi":3872,"ĠkhoÃ¡i":3873,"line":3874,"ĠÄĲA":3875,"...\".":3876,"ĠRonald":3877,"bro":3878,"HN":3879,"Ġláº¥p":3880,"ĠrÅ©":3881,"ĠBo":3882,"Ġbáº¯p":3883,"ĠCharl":3884,"á»Ńu":3885,"ĠGáº§n":3886,"ĠBTC":3887,"ĠSang":3888,"ĠChung":3889,"Giáº£i":3890,"ĠnháºŃu":3891,"VÃł":3892,"Ġháº¯n":3893,"Ġngá»įn":3894,"ĠShar":3895,"ĠTuá»ķi":3896,"ĠSa":3897,"yl":3898,"Ġ37":3899,"Nguyá»ħn":3900,"tt":3901,"ĠlÄĥn":3902,"ĠPakistan":3903,"Ġthuáº§n":3904,"ĠngÃ¢m":3905,"ĠNÃªn":3906,"ans":3907,"ĠChuyá»ĩn":3908,"ĠKhoáº£ng":3909,"99":3910,"ĠMob":3911,"ahoo":3912,"uz":3913,"ĠlÃ³t":3914,"CÆ¡":3915,"ĠNhi":3916,"ĠkhoÃ¡c":3917,"kho":3918,"ĠbÆ¡m":3919,"ĠHar":3920,"ram":3921,"Ġlong":3922,"á»¥n":3923,"ann":3924,"DC":3925,"Ġbá»Ļi":3926,"ĠÄĳá»¥":3927,"ĠHáº¡":3928,"chá»ī":3929,"ĠBÃłi":3930,"erb":3931,"Ġchip":3932,"ĠThuá»µ":3933,"idd":3934,"ovic":3935,"Ġstress":3936,"ĠSun":3937,"nguyÃªn":3938,"ĠvÃ¡n":3939,"Ġná»¥":3940,"Ġtá»ĵi":3941,"ĠFIFA":3942,"ĠManchester":3943,"ear":3944,"ĠdÃ£":3945,"ĠHP":3946,"ĠPaul":3947,"att":3948,"avares":3949,"uan":3950,"Ġláº¥n":3951,"ĠTavares":3952,"ĠCS":3953,"ĠÄĲá»«ng":3954,"ĠxÆ¡":3955,"ráºŃp":3956,"wen":3957,"Ľn":3958,"Ġláº¯c":3959,"ĠCa":3960,"ova":3961,"Ġtháº§m":3962,"ĠchÃªnh":3963,"ĠbÃ¡":3964,"ĠThá»ĳng":3965,"ĠSam":3966,"aka":3967,"HÄĲ":3968,"36":3969,"300":3970,"Ġoan":3971,"....":3972,"ĠEx":3973,"ĠTá»±":3974,"pp":3975,"Ġmáº»":3976,"ĠCSG":3977,"ĠHoÃłn":3978,"ena":3979,"ĠYáº¿n":3980,"Ġvan":3981,"ĠvÃ¢y":3982,"Ġtháº¥m":3983,"ĠlÃ¹ng":3984,"Ġbá»įc":3985,"Ġbá»Ĺ":3986,"EFA":3987,"sinh":3988,"ĠcÃ²i":3989,"Ġtháº¯t":3990,"Ġmá»Ļng":3991,"Ġnáº¿p":3992,"ĠgiÃ£":3993,"Ġdá»Ł":3994,"ĠTM":3995,"ĠSil":3996,"ĠQuÃ½":3997,"ĠthÃły":3998,"ĠlÃ¹i":3999,"ĠBu":4000,"ĠMá»Ľi":4001,"Ġláº·p":4002,"ĠCá»¥":4003,"ĠBiá»ĥn":4004,"Ġbá»Ĺng":4005,"Ġphu":4006,"ĠHuyá»ģn":4007,"Ġphe":4008,"Ġhoáº¡i":4009,"Ġtuá»ĩ":4010,"Viá»ĩt":4011,"ĠThiáº¿t":4012,"Ġ64":4013,"orts":4014,"ĠHAGL":4015,"ĠNÆ°á»Ľc":4016,"ĠHáº±ng":4017,"ĠÄĲÃºng":4018,"ĠSl":4019,"ĠCarlos":4020,"Ġj":4021,"á»ĭt":4022,"ĠlÃ©o":4023,"ĠSte":4024,"Ġghen":4025,"ĠÄĳá»¥ng":4026,"Ġlá»Ļi":4027,"ĠChá»£":4028,"ĠBÃ¢y":4029,"ĠÄĲáº¡o":4030,"ĠWest":4031,"ited":4032,"Ġngá»Ļt":4033,"Ġdá»ĳc":4034,"Ġhoáº¡":4035,"Ġ39":4036,"ĠphÃ¡o":4037,"ĠMun":4038,"ĠDá»ĭch":4039,"ĠGer":4040,"ĠtuÃ¢n":4041,"Chelsea":4042,"''":4043,"Ãģ":4044,"ĠmÄĥng":4045,"ĠNhu":4046,"ĠThá»«a":4047,"PhÃºt":4048,"ĠÄĳuÃ´i":4049,"Ġkhuy":4050,"ĠhoÃłnh":4051,"ala":4052,"Ġrá»§":4053,"ĠHÃ£ng":4054,"Ġkhoan":4055,"bank":4056,"ĠCP":4057,"ĠTrÃł":4058,"ThÃ¡i":4059,"ĠcáºŃy":4060,"ThÃ¡ng":4061,"75":4062,"tor":4063,"£n":4064,"eh":4065,"ĠgÃ£y":4066,"Ġngá»£i":4067,"ĠdáºŃp":4068,"ĠUEFA":4069,"ĠIntel":4070,"igo":4071,"express":4072,"burg":4073,"ĠcÃºp":4074,"ĠnÃ´n":4075,"Ġgáº¯t":4076,"ĠNewcastle":4077,"áº»o":4078,"HA":4079,"Ġgay":4080,"ĠPro":4081,"Ġdoáº¡":4082,"ĠUá»·":4083,"Ho":4084,"ĠhÆ°ng":4085,"Ġpháº¿":4086,"ĠTom":4087,"ĠBáº¡ch":4088,"ĠÄĳá»ĩm":4089,"Ġdá»įn":4090,"Ġráº¯c":4091,"ĠNhÃ³m":4092,"Ġáº¢ráºŃp":4093,"so":4094,"Ġim":4095,"Ġlá»Ł":4096,"ĠVilla":4097,"ĠDanh":4098,"QG":4099,"ĠdÃ¢ng":4100,"ĠShev":4101,"Ġnho":4102,"ĠHáº§u":4103,"ĠSÃ´ng":4104,"ĠRos":4105,"ney":4106,"ĠCá»ķ":4107,"ĠRonaldinho":4108,"Ġtháº¯c":4109,"Ġbáº©n":4110,"Ġrá»¥":4111,"Ġpin":4112,"ix":4113,"tá»«":4114,"Ġi":4115,"ĠÄĳá»Ľn":4116,"ĠquÃ©t":4117,"ĠVÆ°á»£ng":4118,"ĠThi":4119,"Ġsá»ĳc":4120,"Ġ''":4121,"CH":4122,"dor":4123,"res":4124,"Ġbá»Ļc":4125,"Ġchuá»Ĺi":4126,"ters":4127,"Ġthá»ķi":4128,"oun":4129,"ĠThÃºy":4130,"ĠOl":4131,"ĠTÃŃnh":4132,"any":4133,"Ġfan":4134,"44":4135,"TÃ¬nh":4136,"ĠÄĲinh":4137,"ĠGeor":4138,"vnexpress":4139,"á»ĥn":4140,"Ġmá»¥n":4141,"ĠÄĲÄĥng":4142,"Ġ46":4143,"IDS":4144,"istel":4145,"38":4146,"HÃ£y":4147,"ĠchÃ³t":4148,"Ġcá»§ng":4149,"ĠHe":4150,"Ġ48":4151,"Ġlui":4152,"Ġxá»ī":4153,"ĠMay":4154,"PhÃ¡p":4155,"uay":4156,"Ġro":4157,"ĠNá»¯":4158,"ĠBÃ³ng":4159,"ĠHoÃł":4160,"ĠÄĳáº¯c":4161,"ĠÄĳÃ¹a":4162,"Ġson":4163,"ĠLoáº¡i":4164,"ĠFA":4165,"omp":4166,"37":4167,"Ġtia":4168,"ĠVÃŃ":4169,"ĠThÆ°":4170,"ĠVáº¥n":4171,"ĠKhanh":4172,"ĠPeter":4173,"istelro":4174,"TH":4175,"ĠÃ¢n":4176,"Ġlam":4177,"ĠchÃ´n":4178,"Ġbáº¥m":4179,"ÃŃu":4180,"ĠNhá»Ŀ":4181,"mo":4182,"ulham":4183,"ĠACB":4184,"IC":4185,"PEC":4186,"NhÃ³m":4187,"ĠÄĳÃ´la":4188,"ĠÄĳáº¯ng":4189,"ĠthÃ¡nh":4190,"Ġthá»į":4191,"âĢĻ":4192,"ĠYahoo":4193,"eder":4194,"ĠÆ¡i":4195,"áº¿m":4196,"ĠÄĳá»ĵi":4197,"Ban":4198,"ĠtÃª":4199,"ĠchiÃªu":4200,"Ġmáº·n":4201,"ThÃ´ng":4202,"ĠCNTT":4203,"istelrooy":4204,"ĠRod":4205,"van":4206,"ĠBang":4207,"ĠMÃ¹a":4208,"ĠKhÃ¡ch":4209,"aza":4210,"ux":4211,"ovich":4212,"ĠUnited":4213,"ĠSaddam":4214,"Nam":4215,"ĠgÅ©i":4216,"ĠSÆ°":4217,"Ġlá»ģ":4218,"oli":4219,"irm":4220,"hd":4221,"Ġ?":4222,"Ġáº¡":4223,"ĠthÃ¡p":4224,"ĠnÃłn":4225,"Ġrá»§i":4226,"Ġpro":4227,"mer":4228,"ĠnhÆ°á»Ŀng":4229,"air":4230,"ĠPorto":4231,"iss":4232,"Ġ700":4233,"PhÃ³":4234,"ĠPrem":4235,"ck":4236,"Ġnháº§m":4237,"ĠCá»©":4238,"ĠPan":4239,"ĠUy":4240,"ĠhÃł":4241,"ĠbÃ³n":4242,"Ġyáº¿t":4243,"ĠBul":4244,"400":4245,"ner":4246,"Ġhuyá»ģn":4247,"ĠTÃ²a":4248,"Ġmáº£ng":4249,"ĠkhÃ´i":4250,"ĠVI":4251,"ĠBH":4252,"Cho":4253,"irmingham":4254,"NG":4255,"ĠCro":4256,"DA":4257,"ĠcÆ°á»¡ng":4258,"ĠCáº©m":4259,"ĠÄĲiá»ĥm":4260,"mouth":4261,"Ġcong":4262,"ĠÄĳÃª":4263,"ĠÄĳá»©t":4264,"ace":4265,"Ġhá»Ĺn":4266,"berg":4267,"ĠAlex":4268,"ivi":4269,"Ġtáº£ng":4270,"Ġnhá»©c":4271,"ĠnÃ©m":4272,"Ã¹n":4273,"ĠGÃ²":4274,"Ġwww":4275,"Ġven":4276,"ĠNistelrooy":4277,"ĠkiÃªm":4278,"Ġvá»įt":4279,"ourinho":4280,"ĠSant":4281,"ĠtÃ´ng":4282,"ĠmÆ°á»Ŀi":4283,"Ġráº¡ng":4284,"ĠBá»ĭ":4285,"Bá»ĩnh":4286,"gon":4287,"km":4288,"ĠTQ":4289,"Ġlá»£n":4290,"Ġrung":4291,"ĠHÃłnh":4292,"ĠtÃºng":4293,"ĠThiá»ĩn":4294,"ĠKerry":4295,"ara":4296,"TháºŃt":4297,"Ġdá»Ŀi":4298,"cel":4299,"ĠxÃŃch":4300,"Ġsá»¥p":4301,"90":4302,"Ġrá»±c":4303,"ĠVillarreal":4304,"ĠMá»Ł":4305,"ĠLiga":4306,"ĠGu":4307,"ĠphÃ¬":4308,"ĠSá»¹":4309,"ĠthÆ°a":4310,"ĠlÄĥng":4311,"Ġrá»Ļn":4312,"ĠDiá»ħn":4313,"ander":4314,"Arsenal":4315,"įa":4316,"ĠvÆ°á»Ľng":4317,"Ġtháº¡ch":4318,"ĠlÆ°á»Ľt":4319,"ĠdÅ©ng":4320,"ĠNa":4321,"iev":4322,"Ġráº¡p":4323,"Ġtá»ıi":4324,"ĠxÆ°á»Łng":4325,"Ġmá»ĵi":4326,"ĠQH":4327,"ĠÄĳÃ¡y":4328,"ĠMonaco":4329,"ugh":4330,"SLNA":4331,"dio":4332,"Ġkáº½":4333,"ĠtrÄĥng":4334,"Ġnháº¯m":4335,"ĠgiÃ¡n":4336,"ĠSao":4337,"Ġquyáº¿n":4338,"Ġquyá»ĥn":4339,"ĠkhoÃ¡":4340,"ĠcÃ´n":4341,"ortsmouth":4342,"Bá»ĭ":4343,"ĠháºŃn":4344,"ĠgÃ¬n":4345,"ĠMex":4346,"ĠBaghd":4347,"Bar":4348,"ior":4349,"ĠxÃ´":4350,"Ġxoa":4351,"ĠTráº¯ng":4352,"ĠMourinho":4353,"ĠDeportivo":4354,"ĠCo":4355,"ĠGary":4356,"46":4357,"ĠÄĳiá»ģn":4358,"ĠMunich":4359,"43":4360,"Ġtáº¡t":4361,"ĠbÆ°u":4362,"ĠCÃ¢u":4363,"ĠThá»ķ":4364,"mann":4365,"ĠTottenham":4366,"ĠÄĳiÃªn":4367,"ĠchÃª":4368,"ĠkhÃ©p":4369,"Ġdáº¡o":4370,"ĠShevchenko":4371,"Háº£i":4372,"ĠMark":4373,"ium":4374,"Ġcá»į":4375,"Ġtrá»Ļi":4376,"ida":4377,"800":4378,"ja":4379,"ĠláºŃn":4380,"ĠlÃŃt":4381,"ĠsÆ°á»Ľng":4382,"Ġgáº¡ch":4383,"Ġhá»ıa":4384,"ĠVin":4385,"Ġtivi":4386,"ĠvÄ©":4387,"ĠhÃ²n":4388,"ĠxÃ´ng":4389,"ĠSal":4390,"ĠAc":4391,"ĠTriá»ĩu":4392,"Sá»ĳ":4393,"ĠtrÃ¢u":4394,"ĠdÃ¡n":4395,"ĠMo":4396,"ĠLá»ĩ":4397,"ĠNhÆ¡n":4398,"ark":4399,"ĠkhoÃ¡ng":4400,"ĠWal":4401,"rac":4402,"azz":4403,"ĠphÆ¡i":4404,"burn":4405,"BÃłn":4406,"ĠBÃłn":4407,"ĠÄĲáº¡t":4408,"ĠChiá»ģu":4409,"ĠNháº¡c":4410,"ight":4411,"Ġláº·n":4412,"ĠTiáº¿ng":4413,"ĠLev":4414,"ind":4415,"ĠKá»¹":4416,"Ġchui":4417,"LÃłm":4418,"ĠHol":4419,"ĠLee":4420,"ĠPremier":4421,"Ġtháº¯n":4422,"Ġhá»įng":4423,"Ġ195":4424,"Ġdá»«a":4425,"ĠAdr":4426,"Al":4427,"ĠTrá»ĭ":4428,"Ġ2010":4429,"ĠAndre":4430,"ĠÃł":4431,"Ġváº¡ch":4432,"ĠTá»Ń":4433,"ĠMÃ¬nh":4434,"ĠWilli":4435,"Ġchá»įc":4436,"uá»ĵn":4437,"ĠTel":4438,"end":4439,"ĠQuáº£":4440,"ĠbuÃ´ng":4441,"ĠBaghdad":4442,"cÆ¡":4443,"ĠtrÆ°á»£t":4444,"ĠLá»ħ":4445,"Æ°á»Łi":4446,"Fone":4447,"Ġdáº¡n":4448,"ĠÄĳá»Ĺ":4449,"ĠNor":4450,"ĠVina":4451,"ĠMÃ£":4452,"ĠLazio":4453,"ĠMartin":4454,"600":4455,"ĠlÆ°á»¡ng":4456,"á»ĳp":4457,"á»§a":4458,"edia":4459,"ĠkhÃ´n":4460,"Ġxáº£":4461,"Ġ42":4462,"Ġxi":4463,"ĠJe":4464,"Ġtá»¥t":4465,")...":4466,"lu":4467,"Ġá»§i":4468,"ĠÄĳÃºc":4469,"Ġtráº¯c":4470,"Ġsp":4471,"Ġtá»įa":4472,"ĠAD":4473,"ĠÃģo":4474,"42":4475,"Ġcáº¡n":4476,"ÄĲá»©c":4477,"ĠQuyáº¿t":4478,"TrÆ°á»Ŀng":4479,"garia":4480,"Ġnhuyá»ħn":4481,"ĠnÃ¢u":4482,"iá»ģng":4483,"ĠMá»¥c":4484,"ĠSony":4485,"iddles":4486,"Cuá»ĳi":4487,"Ġkiá»ĩt":4488,"ĠnhÆ°á»£c":4489,"Ġgai":4490,"que":4491,"ĠÄĲá»ģ":4492,"Ġ1997":4493,"Cáº£":4494,"Táº¥t":4495,"Ġcl":4496,"ĠMos":4497,"iat":4498,"Ġbuá»ĵng":4499,"ackburn":4500,"Ġmanh":4501,"ĠHay":4502,"ĠThÃªm":4503,"aksin":4504,"ello":4505,"ĠmÅ©":4506,"ĠPhÆ°á»£ng":4507,"ĠJose":4508,"ĠhÃłn":4509,"ĠchÃ¢m":4510,"ĠThay":4511,"Ġlá»ĵng":4512,"Ġtamsu":4513,"ĠGiÃ¡ng":4514,"Ġ85":4515,"ĠOwen":4516,"MA":4517,"TM":4518,"me":4519,"ĠCas":4520,"ĠÄĲÃ¡ng":4521,"ĠSen":4522,"ĠNhÄ©":4523,"emen":4524,"ĠÃ¢u":4525,"Ĥn":4526,"ĠÄĳá»±c":4527,"ĠVáº¥p":4528,"ĠMB":4529,"ĠphÃŃm":4530,"ĠCole":4531,"Há»Ļi":4532,"Má»Ĺi":4533,"nhÆ°":4534,"ĠbÃº":4535,"ĠMP":4536,"ĠPir":4537,"Ġchuá»Ļng":4538,"CÃ´":4539,"ĠnhÃ©":4540,"Ġrá»¡":4541,"ĠBet":4542,"ĠMexico":4543,"ĠvÃ£":4544,"ĠmÃ¢y":4545,"itt":4546,"ĠchÃºa":4547,"SV":4548,"XH":4549,"Ġkhiáº¿m":4550,"!âĢĿ.":4551,"bao":4552,"wood":4553,"ĠtrÃłng":4554,"ĠtrÃ¡n":4555,"ĠGS":4556,"oham":4557,"brough":4558,"ĠBÃ¡":4559,"ĠThaksin":4560,"ĠKar":4561,"Ġox":4562,"ĠÄĳáº±ng":4563,"ĠBern":4564,"ĠSai":4565,"ĠRá»ĭa":4566,"Inter":4567,"iddlesbrough":4568,"Ġcáº¥y":4569,"Ġlau":4570,"ĠcháºŃt":4571,"ĠrÃ¡o":4572,"ĠVic":4573,"ĠChiáº¿c":4574,"isco":4575,"Lu":4576,"Ġtaxi":4577,"ĠXuáº¥t":4578,"Khoáº£ng":4579,"Qua":4580,"Ġá»ĵn":4581,"ĠÄĳÃ²n":4582,"Ġtrá»į":4583,"Ġkhao":4584,"ĠvÃłnh":4585,"ĠVÃłng":4586,"ĠLiÃªm":4587,"ĠKiáº¿n":4588,"Man":4589,"ĠgÃ£":4590,"ĠxÃ¡":4591,"ÄĲáº§u":4592,"Thanh":4593,"'),":4594,"SB":4595,"ĠhÃ¡i":4596,"ĠnÃ©n":4597,"ont":4598,"ĠTHCS":4599,"ĠBolton":4600,"ĠTV":4601,"ĠquÃ¡i":4602,"Ãºm":4603,"ĠRich":4604,"usse":4605,"Ġváº·t":4606,"Ġná»©t":4607,"Ġpháº³ng":4608,"ĠBÃŃch":4609,"ĠThÃ¡nh":4610,"ival":4611,"Ġhiá»ģn":4612,"Ġhiáº¿u":4613,"ĠÄĲá»ĭa":4614,"ĠhoÃłi":4615,"ĠTruyá»ģn":4616,"org":4617,"ĠNghiÃªn":4618,"65":4619,"BÆ°á»Ľc":4620,"sa":4621,"uyen":4622,"ĠVi":4623,"ĠLá»±c":4624,"ĠAf":4625,"ĠEverton":4626,"eda":4627,"Ġnhá»¥c":4628,"ĠsÆ°Æ¡ng":4629,"ĠLat":4630,"eco":4631,"ĠLHQ":4632,"39":4633,"LiÃªn":4634,"inese":4635,"okyo":4636,"bon":4637,"di":4638,"Ġno":4639,"ĠShi":4640,"ide":4641,"ĠHuá»ĩ":4642,"Ġcuá»ĵng":4643,"Hu":4644,"HÆ¡n":4645,"Ġon":4646,"Ġti":4647,"ĠquáºŃt":4648,"ĠPier":4649,"ĠNhÃ¬n":4650,"ChÆ°Æ¡ng":4651,"RS":4652,"Real":4653,"¯a":4654,"ĠthÃ¨m":4655,"Ġgas":4656,"Ġchá»Ľ":4657,"erk":4658,"Ġ44":4659,"olf":4660,"ushchenko":4661,"khoáº£ng":4662,"ĠkhÆ¡i":4663,"ĠngÆ°":4664,"ĠÄĳá»įng":4665,"ĠCáº£ng":4666,"ÄĲÃ£":4667,"Ġbar":4668,"ĠmÃ²":4669,"ÄĲÃªm":4670,"Ġ52":4671,"ĠJul":4672,"Ġchanh":4673,"ĠnÃ£":4674,"quáºŃn":4675,"ĠÄĲÃ´i":4676,"ĠAt":4677,"ĠNghi":4678,"LÃł":4679,"táº¥n":4680,"ware":4681,"Ġnhá»Ł":4682,"ĠGáº¡ch":4683,"evilla":4684,"ĠFranc":4685,"BÃ¡c":4686,"Ġnháº·t":4687,"ĠngÃµ":4688,"Ġ49":4689,"ThÃłnh":4690,"ĠthoÃ¡i":4691,"idane":4692,"ella":4693,"Ġhiáº¿p":4694,"ĠphÃ´i":4695,"ives":4696,"sau":4697,"Ġac":4698,"ĠcÃ¡p":4699,"ĠTá»īnh":4700,"ĠÄĳá»Ľi":4701,"ĠÄĲi":4702,"Ġhoi":4703,"ĠOp":4704,"ĠPark":4705,"acher":4706,"ĠLyon":4707,"ĠTrinh":4708,"Ġkhoai":4709,"Ġngoan":4710,"//":4711,"lines":4712,"Ġtá»ĳng":4713,"ĠÄĳun":4714,"ChÆ°a":4715,"HÃłng":4716,"gus":4717,"Ġvac":4718,"Ġhiá»ĥn":4719,"ĠxÃ¡t":4720,"ĠBÃ¡ch":4721,"ĠÄĳiÃªu":4722,"thÃ¹ng":4723,"MU":4724,"TA":4725,"ĠSol":4726,"assage":4727,"lÃłm":4728,"Ìĥ":4729,"ĠHÃ¬nh":4730,"ĠHÄĲND":4731,"ttp":4732,"VÄĲ":4733,"dinese":4734,"Ġcá»ĳc":4735,"ĠlÃ¡t":4736,"Ġtrá»ħ":4737,"Ġngáº«u":4738,"ĠLáºŃp":4739,"Ġgiá»įt":4740,"ĠDa":4741,"Ġhá»ĳ":4742,"ĠhÆ°u":4743,"ĠSim":4744,"PhÆ°Æ¡ng":4745,"ĠbÃłng":4746,"Ġsc":4747,"ĠMÃł":4748,"ole":4749,"ĠErik":4750,"ĠCA":4751,"ĠÄĲÃªm":4752,"ĠSÃ¢n":4753,"ĠLuis":4754,"ĠGeorge":4755,"://":4756,"oe":4757,"ĠÃło":4758,"ĠTin":4759,"ĠchuÃ´ng":4760,"iforn":4761,"ghan":4762,"ifornia":4763,"red":4764,"ĠÄĳá»¥c":4765,"ĠBáº¡c":4766,"ĠBill":4767,"ĠVKSND":4768,"ĠAirlines":4769,"guson":4770,"Ġhang":4771,"ĠTáºŃp":4772,"ĠTokyo":4773,"ÃŃp":4774,"ink":4775,"ies":4776,"ĠÆ¯":4777,"ĠTÆ°á»Ŀng":4778,"ĠCai":4779,"Ġ56":4780,"ĠhÃ£i":4781,"ĠZidane":4782,"ĠÃªm":4783,"Ġax":4784,"ĠmÃ¨o":4785,"ĠdÆ°a":4786,"Ġ1990":4787,"Ġcá»Łi":4788,"Ġhero":4789,"Ġchay":4790,"ĠTiá»ĥu":4791,"ĠQuá»¹":4792,"NháºŃt":4793,"him":4794,"ĠcÆ°á»£c":4795,"ĠsÆ°ng":4796,"ĠBá»Ŀ":4797,"Ġbá»ĥ":4798,"oly":4799,"á»Ľn":4800,"ecce":4801,"ĠBulgaria":4802,"gg":4803,"ĠcÃºng":4804,"ĠlÆ¡":4805,"Ġphun":4806,"ĠxÃło":4807,"ĠMac":4808,"ĠKá»ĥ":4809,"ĠIr":4810,"Há»į":4811,"ĠlÃ¡ng":4812,"ĠbÃ´i":4813,"ĠBBC":4814,"ĠÄĲÃłn":4815,"ĠFab":4816,"BM":4817,"Ġmg":4818,"Ġse":4819,"Ġsen":4820,"ĠsÃºc":4821,"eron":4822,"Ġ1996":4823,"Ġheroin":4824,"Ġthá»īnh":4825,"ĠxÃ¬":4826,"ĠBro":4827,"Ġ53":4828,"ish":4829,"ĠTotti":4830,"ĠGÄĲTLA":4831,"AS":4832,"Juventus":4833,"ĠNo":4834,"ĠÄĲB":4835,"ĠThÃ¹y":4836,"ĠChrist":4837,"ĠThá»ĭnh":4838,"ĠAdriano":4839,"ghanistan":4840,"Tiáº¿n":4841,"ĠÃ¡":4842,"ĠÄĳáº¯n":4843,"Ġtháº±ng":4844,"ĠTay":4845,"ĠTháº¡ch":4846,"ĠLáº¡c":4847,"giá»Ŀ":4848,"Ġtre":4849,"ĠMot":4850,"ĠSáº½":4851,"ĠNgÆ°á»£c":4852,"ĠGar":4853,"Ġ2007":4854,"2000":4855,"ĠchÃ¨":4856,"ĠBe":4857,"ĠLib":4858,"ĠPháºŃt":4859,"Ġ47":4860,"etro":4861,"Ġcamera":4862,"Ġsá»¥t":4863,"Ġchuá»ĳi":4864,"eth":4865,"á»ĩn":4866,"lan":4867,"Ġtáº§n":4868,"ĠÄĳÃ¨":4869,"ĠchÃ©n":4870,"Ġbá»±c":4871,"Ġdai":4872,"aik":4873,"ĠSáº£n":4874,"ins":4875,"Ġ57":4876,"itter":4877,"Ġtop":4878,"una":4879,"ĠVietnam":4880,"lad":4881,"ĠThÄĥng":4882,"Ġlá»į":4883,"ĠPV":4884,"ĠPow":4885,"ĠAF":4886,"Ġ43":4887,"Ġngoáº¡n":4888,"Ġcanxi":4889,"ĠtÃ¹ng":4890,"ĠCel":4891,"ĠMÃ´i":4892,"Ġbá»ĵ":4893,"ĠPhÃ¹ng":4894,"Ġtoáº£":4895,"ridge":4896,"ussein":4897,"Ba":4898,"ĠÄĳuá»ĳi":4899,"ĠhÃ³c":4900,"ieri":4901,"Ġmuá»Ĺng":4902,"ĠCalifornia":4903,"ĠAfghanistan":4904,"tá»©c":4905,"ĠÄĲÃ´":4906,"amsung":4907,"ĠPetro":4908,"700":4909,"CP":4910,"SP":4911,"ĠMas":4912,"ĠLiÃªu":4913,"ardo":4914,"ĠEto":4915,"Ġur":4916,"ĠrÃ¡p":4917,"Ġ51":4918,"atia":4919,"bo":4920,"Ġtráº·c":4921,"Ġdáº¡i":4922,"ĠMuá»ĳn":4923,"ĠEn":4924,"Ġsoi":4925,"ĠAnton":4926,"ĠGiá»Ľi":4927,"ĠViáº¿t":4928,"ĠHamas":4929,"ĠCSÄĲT":4930,"47":4931,"Ġtháº£n":4932,"ĠmÃ£nh":4933,"acker":4934,"OC":4935,"Ġtru":4936,"ĠCap":4937,"ampard":4938,"ĠbÃ³p":4939,"?âĢĿ.":4940,"Ġkiá»ģm":4941,"ali":4942,"Ġ72":4943,"iorentina":4944,"ĠEriksson":4945,"ĠThiáº¿u":4946,"ĠSar":4947,"Trao":4948,"Äĳáº¡i":4949,"ĠvuÃ´ng":4950,"ĠTÄ©nh":4951,"ĠBrom":4952,"ond":4953,"ĠhoÃ³c":4954,"ĠAth":4955,"ĠFerguson":4956,"LÃºc":4957,"ward":4958,"ĠÄĳáº§m":4959,"chi":4960,"Pháº§n":4961,"ĠRobb":4962,"ĠÄĲKVÄĲ":4963,"ria":4964,"ĠBáº¥t":4965,"...)":4966,"Ġ41":4967,"Ġluá»ĵng":4968,"ĠXÃª":4969,"awi":4970,"ĠNhuáºŃn":4971,"shi":4972,"ĠÄĳáº¡m":4973,"Ġmod":4974,"Ġnhá»įn":4975,"ĠquÃ£ng":4976,"Ġrá»ĥ":4977,"ĠCÃ¡t":4978,"ĠYan":4979,"Ġcá»¥m":4980,"Ġá»ĳm":4981,"Ġháº¡ch":4982,"Ġrá»Ľt":4983,"ampton":4984,"ĠghÃ©t":4985,"ĠcháºŃu":4986,"ĠgÃ¡c":4987,"ĠJun":4988,"uve":4989,"48":4990,"Ġráº½":4991,"ĠCat":4992,"ĠLar":4993,"Ġrá»¥ng":4994,"49":4995,"he":4996,"Ġtriá»ģu":4997,"ĠngÃło":4998,"ĠTÃ´":4999,"ĠHussein":5000,"Tráº£":5001,"HO":5002,"Ġtáº¡ng":5003,"Ġcháº£":5004,"ĠbÃ³c":5005,"ĠtrÃ¢n":5006,"ĠrÃ¢u":5007,"ĠkhoÃ¡t":5008,"ĠUr":5009,"ust":5010,"ĠXÃ´":5011,"ĠDoanh":5012,"ĠAngel":5013,"aeda":5014,"ris":5015,"ĠMÃ¡y":5016,"arago":5017,"ĠloÃ©t":5018,"ĠTour":5019,"ĠLampard":5020,"ĠÄĳoan":5021,"Ġthoa":5022,"umacher":5023,"41":5024,"ĠlÃºn":5025,"Ġkar":5026,"Ġrao":5027,"eta":5028,"Ġdá»¡":5029,"Mal":5030,"TiÃªu":5031,"ĠvÄ©nh":5032,"Ġtrá»«ng":5033,"Ġsá»ıi":5034,"ĠEsp":5035,"top":5036,"BÃ¡o":5037,"Ġdiá»ĩu":5038,"ĠMil":5039,"ĠThÃ¢n":5040,"Ġprotein":5041,"TB":5042,"Xáº¿p":5043,"ĠViá»ħn":5044,"aragoza":5045,"ĠÃ´n":5046,"ĠTÆ°Æ¡ng":5047,"ĠNet":5048,"theo":5049,"ĠÄĳáº·n":5050,"Ġlá»Ļt":5051,"ĠmÃłi":5052,"ĠTu":5053,"ĠVá»ĭ":5054,"Ġtá»±a":5055,"VáºŃy":5056,"ĠchÃ©m":5057,"ĠmÃ¹ng":5058,"okia":5059,"Ġtiá»ħn":5060,"Ġniá»ĩu":5061,"Ã¬a":5062,"ĠRobert":5063,"ĠÆ°á»Ľp":5064,"ĠcÃłnh":5065,"ĠVá»«a":5066,"ĠViettel":5067,"Ġnang":5068,"Ġvá»ī":5069,"ĠrÃł":5070,"ĠCos":5071,"ĠKy":5072,"Ġ66":5073,"Ġpen":5074,"Huáº¿":5075,"Gáº§n":5076,"cm":5077,"ef":5078,"Ġml":5079,"Ġná»į":5080,"Ġthá»±":5081,"ĠMoham":5082,"phÃºt":5083,"Ġrá»ĩt":5084,"ĠLÃ£nh":5085,"ĠKhá»Łi":5086,"atr":5087,"Ġ78":5088,"ĠWeb":5089,"ÄĳÃ£":5090,"ull":5091,"Ġ1995":5092,"ĠÃ³c":5093,"Ġváº¡n":5094,"Ġhi":5095,"ĠÄĲÆ¡n":5096,"Ġgáº¡t":5097,"Ġdáº»o":5098,"ĠrÃ©t":5099,"cháº¡y":5100,"ĠBor":5101,"ĠÄĲáº¥t":5102,"ĠJav":5103,"ĠXuyÃªn":5104,"ĠghÃ©":5105,"Ġgá»¥c":5106,"ĠngÃ´":5107,"ĠxÃ¡m":5108,"ĠBáº¯t":5109,"ĠtuÃ½":5110,"ĠGrand":5111,"ĠlÆ°á»Ŀng":5112,"Ġhao":5113,"Ġbáº¥y":5114,"Ġmassage":5115,"Ġnhá»ĭ":5116,"áº¿ch":5117,"ĠTor":5118,"Ġ77":5119,"Ġlá»¥t":5120,"sh":5121,"Ġráº£i":5122,"ĠHá»ĩ":5123,"ama":5124,"Ġmá»ī":5125,"ĠNgÃ£i":5126,"Chuyá»ĩn":5127,"ĠGlitter":5128,"55":5129,"Báº£n":5130,"NÃ³i":5131,"Ġ58":5132,"ĩch":5133,"ĠrÃ¨n":5134,"ĠSamsung":5135,"ĠGh":5136,"cÆ¡va":5137,"VÃ²ng":5138,"Ġnáº£n":5139,"ĠMáº¹":5140,"ĠkhiÃªu":5141,"erto":5142,"ĠFPT":5143,"Ġnguá»Ļi":5144,"ordan":5145,"Ġbáº«y":5146,"ĠPhim":5147,"Ġ68":5148,"ado":5149,"náº¿u":5150,"xcÆ¡va":5151,"ĠvÃ¢n":5152,"ĠlÃºng":5153,"Ġná»ĳt":5154,"ĠHiá»ĥn":5155,"ĠArm":5156,"ĠAll":5157,"ernan":5158,"Qaeda":5159,"jan":5160,"Ġcáº¯n":5161,"Ġchat":5162,"Ġmáº§m":5163,"ĠCÃ¡":5164,"ĠVen":5165,"ĠBá»ī":5166,"ĠFrank":5167,"ĠLinux":5168,"Ġkhiáº¿p":5169,"Ġgá»ĳm":5170,"ĠKe":5171,"Ġviá»ĩt":5172,"Ġmá»ĳc":5173,"Ġnáº¡p":5174,"ĠdÃ£y":5175,"Ġchá»Ń":5176,"ĠSm":5177,"ĠIb":5178,"Ġ1993":5179,"ĠFerr":5180,"ĠBirmingham":5181,"ĠApp":5182,"ista":5183,"letico":5184,"AF":5185,"Bol":5186,"ci":5187,"ky":5188,"ĠÄĳá»ĳng":5189,"ĠlÃ¢n":5190,"Ġmá»ĭn":5191,"ĠKiá»ĩt":5192,"ĠDáº§u":5193,"Ġ62":5194,"ĠJon":5195,"ĠXÃŃ":5196,"Ġoxy":5197,"CSG":5198,"ren":5199,"ĠÆ°á»Ľt":5200,"Ġhttp":5201,"ĠMá»©c":5202,"ĠTrÃ¡i":5203,"ĠKu":5204,"ĠFigo":5205,"Ġ76":5206,"RiÃªng":5207,"ĠÄĳÃ¨o":5208,"Ġve":5209,"Ġchá»ĳn":5210,"ĠTÄĥng":5211,"Ġrá»ĳt":5212,"ĠMÃ´n":5213,"Ġká»ģ":5214,"ott":5215,"www":5216,"Láº§n":5217,"Xin":5218,"med":5219,"Ġcá»įc":5220,"Ġgá»«ng":5221,"Ġgiáº¿":5222,"ĠXÃ£":5223,"outhampton":5224,"CD":5225,"ee":5226,"uet":5227,"ĠMess":5228,"ates":5229,"Ġdá»Ĺ":5230,"ĠYushchenko":5231,"Ġ1994":5232,"Ġgiáº¿ng":5233,";&":5234,"ĠcÃ¡m":5235,"Ġnghá»ĭch":5236,"ĠSu":5237,"ĠGM":5238,"lywood":5239,"ĠNoel":5240,"Há»ĵi":5241,"Ġcá»ĵn":5242,"ĠVua":5243,"ĠSI":5244,"ĠJames":5245,"ĠStev":5246,"load":5247,"enger":5248,"SND":5249,"Ġao":5250,"Ġtuyáº¿t":5251,"Ġkhá»ī":5252,"Ġgam":5253,"ania":5254,"ĠVTV":5255,"enz":5256,"Ġ54":5257,"ĠluÃ¢n":5258,"ila":5259,"ĠFor":5260,"ĠFulham":5261,"ACB":5262,"HÃ£ng":5263,"nhá»¯ng":5264,"ĠMa":5265,"áº·m":5266,"ĠXP":5267,"anyol":5268,"Ġtháº¡c":5269,"phone":5270,"ĠVir":5271,"ĠCháº¯c":5272,"ÄĲÃł":5273,"ounce":5274,"New":5275,"ĠvÃ¡ch":5276,"ĠNokia":5277,"ĠxuÃ´i":5278,"ĠMiddlesbrough":5279,"uguay":5280,"Ġtam":5281,"ĠÄĳáº¥m":5282,"Ġgiá»ģng":5283,"Ġgiang":5284,"ĠBCH":5285,"ĠAh":5286,"ĠthÃ¬a":5287,"nes":5288,"Ġ!":5289,"Ġnáº¯p":5290,"ĠkhÃ¡i":5291,"ĠTrÆ°ng":5292,"ĠKH":5293,"ĠNháºŃn":5294,"Ġ67":5295,"ĠJuve":5296,"ĠhÃ£m":5297,"igan":5298,"estival":5299,"ĠCroatia":5300,"Liverpool":5301,"ĠMer":5302,"ĠDiá»ĩu":5303,"Ġam":5304,"ĠÄĳÃ²":5305,"ĠsÆ°á»Ŀn":5306,"Ġgu":5307,"ĠVáº¡n":5308,"ĠLiá»ĩu":5309,"ele":5310,"GiÃ¡m":5311,"ĠGDP":5312,"Ġtháº¥u":5313,"ĠgÃµ":5314,"ĠVá»£":5315,"ĠGaza":5316,"ĠVCK":5317,"Cáº§n":5318,"feld":5319,"iel":5320,"kok":5321,"Ġbáº©m":5322,"Ġvá»Ĺ":5323,"ĠNH":5324,"ĠVie":5325,"eland":5326,"ChÃło":5327,"omina":5328,"Ġuá»·":5329,"ĠMont":5330,"ĠCSGT":5331,"')":5332,"56":5333,"ĠlÃ¡ch":5334,"Ġhacker":5335,"ĠbÆ°á»Ľ":5336,"ĠmÃ²n":5337,"Ġset":5338,"Ġkhuáº¥t":5339,"ĠLi":5340,"int":5341,"ermo":5342,"ĠRam":5343,"rogba":5344,"ederer":5345,"54":5346,"NT":5347,"ĠsÃ´":5348,"ĠCá»Ńu":5349,"Ã²m":5350,"Ġ59":5351,"Ġ63":5352,"oto":5353,"ĠNghe":5354,"Ġluá»Ļc":5355,"ĠTháº¥y":5356,"AM":5357,"ĠngáºŃm":5358,"ĠTÃ¡m":5359,"Ġruá»Ļng":5360,"esterol":5361,"Danh":5362,"Ġkhong":5363,"Ġngá»¡":5364,"ĠTá»·":5365,"Ġxao":5366,"ĠTre":5367,"ĠRa":5368,"ĠÃĶ":5369,"Chiáº¿n":5370,"ĠBlair":5371,"cÃ´ng":5372,"ĠRaul":5373,"by":5374,"ĠÄĳÃ¹i":5375,"Pháº£i":5376,"Ġghe":5377,"via":5378,"ĠvÃ¡":5379,"ĠxÃłi":5380,"ĠBiáº¿t":5381,"Ġ2008":5382,"--":5383,"ied":5384,"ĠmÃŃ":5385,"ĠrÆ°á»¡i":5386,"etti":5387,"ĠQuÃ¡":5388,"ombia":5389,"aga":5390,"Ġvacxin":5391,"tic":5392,"ĠchÃ¡nh":5393,"Ġnha":5394,"ĠnhÄĥn":5395,"ĠkhoÄĥn":5396,"Thu":5397,"omas":5398,"ĠYo":5399,"ĠBetis":5400,"%).":5401,"CT":5402,"DI":5403,"Ġcá»Ľ":5404,"Ġsuá»ĳi":5405,"ĠLÃ£":5406,"ett":5407,"ure":5408,"Ġmuá»Ĺi":5409,"Quáº£ng":5410,"Ġkáº¹o":5411,"Ġngáº§n":5412,"ĠMi":5413,"onda":5414,"ĠNguyá»ĩt":5415,"Ġtá»±u":5416,"ĠsuÃ½t":5417,"ĠMobile":5418,"Má»Ľi":5419,"bi":5420,"Ġnhá»ĵi":5421,"Ġdang":5422,"ĠDom":5423,"ĠEs":5424,"Nga":5425,"ĠBremen":5426,"Ġhá»ķng":5427,"Ġaxit":5428,"ĠXÃªÃºt":5429,"ĠbÃ£":5430,"ĠxÃ´i":5431,"ĠPortsmouth":5432,"ĠDrogba":5433,"ale":5434,"ĠFl":5435,"Ġcar":5436,"Ġmau":5437,"Ġmá»Ļc":5438,"ĠKl":5439,"aren":5440,"ĠUSB":5441,"ĠKho":5442,"Å©a":5443,"usen":5444,"ĠWenger":5445,"St":5446,"col":5447,"ks":5448,"ĠlÃª":5449,"Ġchen":5450,"ĠmÆ°Æ¡i":5451,"ĠKÃ´ng":5452,"Ġbá»«ng":5453,"ĠKhai":5454,"Ġ79":5455,"ĠJan":5456,"utin":5457,"erkusen":5458,"ĠtÃ¡m":5459,"ĠÄĳinh":5460,"Ġchá»ĩch":5461,"ĠDÆ°á»Ľi":5462,"ĠBangkok":5463,"Tiáº¿p":5464,"celona":5465,"Ġman":5466,"Ġdáº¹p":5467,"Ġrá»Ļ":5468,"ĠÄĲiá»ģn":5469,"aoke":5470,"ĠCháº¥t":5471,"áº»m":5472,"oyota":5473,"Barcelona":5474,"Ġtáº¥u":5475,"ĠtÃ³m":5476,"Ġcháº£i":5477,"Ġmá»§":5478,"Ġsá»į":5479,"Ġphá»Ł":5480,"ĠMel":5481,"Ġbá»ĵn":5482,"its":5483,"ĠWilliams":5484,"ĠSaigon":5485,"Ġváº¯t":5486,"Ġbá»įt":5487,"Ġngáº¥t":5488,"Ġngá»įc":5489,"Ġvá»Ľt":5490,"ĠHD":5491,"ĠÄĳáº¿m":5492,"Ġdáº±n":5493,"ĠBÄĲ":5494,"Ġtoa":5495,"utt":5496,"ĠMatxcÆ¡va":5497,"GS":5498,"Ġlen":5499,"ĠTuyÃªn":5500,"Ġrong":5501,"ĠHan":5502,"Ġchol":5503,"ĠThÃº":5504,"ĠKá»·":5505,"Ġtuá»³":5506,"ĠIBM":5507,"ĠHollywood":5508,"ĠkiÃªng":5509,"ĠbÄĥn":5510,"Ġquá»µ":5511,"ĠPomina":5512,"ÄĲáº·c":5513,"Ġand":5514,"oster":5515,"afe":5516,"ĠParma":5517,"ĠchiÃªn":5518,"Ġkáº¹t":5519,"ĠBel":5520,"Ġkhoe":5521,"ata":5522,"ĠFederer":5523,"Há»įc":5524,"box":5525,"ient":5526,"uj":5527,"ĠCáº¥p":5528,"ĠCáº£m":5529,"ĠCá»Ńa":5530,"ĠLÄĥng":5531,"ĠxoÃ¡":5532,"ĠBlackburn":5533,"Gia":5534,"val":5535,"ĠsÃ©t":5536,"Ġphai":5537,"ĠBS":5538,"ĠThuá»ĳc":5539,"ĠPhá»§":5540,"Ġ95":5541,"tre":5542,"iatis":5543,"ĠsáºŃp":5544,"Ġquáº¡t":5545,"ĠSav":5546,"ĠJi":5547,"USD":5548,"pi":5549,"zal":5550,"ĠÄĳáº¯m":5551,"ĠvÃ³c":5552,"ĠvÃ²i":5553,"ĠthÃ²i":5554,"ĠhÃŃt":5555,"ĠchÃ¡o":5556,"Ġcháº£o":5557,"ĠSÃ¡u":5558,"ÄĳÆ°á»£c":5559,"akh":5560,"ĠStam":5561,"ĠchÃ¬a":5562,"NH":5563,"Quá»ĳc":5564,"ger":5565,"ray":5566,"ĠTa":5567,"Ġrá»ħ":5568,"ĠSÃ³c":5569,"Báº¥t":5570,"Háº§u":5571,"MÃ¡y":5572,"Ġuá»ĳn":5573,"ĠCáºŃu":5574,"Chiáº¿c":5575,"Ġ130":5576,"ĠRichard":5577,"Ġcholesterol":5578,"Val":5579,"cÃ¡i":5580,"Ġgom":5581,"Ġxay":5582,"ĠVy":5583,"ĠVáºŃn":5584,"cho":5585,"Ġ82":5586,"ĠHoáº·c":5587,"Ġtoan":5588,"Ġ900":5589,"ĠAntonio":5590,"53":5591,"VnExpress":5592,"wich":5593,"ĠdÃ©p":5594,"ĠDell":5595,"Ġloa":5596,"cá»ķ":5597,"ĠkÃ¨":5598,"Ġphiáº¿n":5599,"ĠHung":5600,"á»£t":5601,"Ġemail":5602,"evic":5603,"ĠMald":5604,"59":5605,"jax":5606,"ĠthÃ¡m":5607,"Ġquáº§y":5608,"Ġráº¡ch":5609,"ĠVá»ĭnh":5610,"Thá»ĭ":5611,"ilbao":5612,"Ġ04":5613,"ĠbÃ¹n":5614,"ukovich":5615,"76":5616,"EF":5617,"Tá»ĳi":5618,"ĠchÃŃch":5619,"Ġmm":5620,"ĠBas":5621,"ise":5622,"igeria":5623,"Ca":5624,"lay":5625,"ĠNA":5626,"rahim":5627,"Ġ84":5628,"Ġ86":5629,"ship":5630,"52":5631,"Ġtao":5632,"ĠbÄĥm":5633,"Ġnhung":5634,"ĠLang":5635,"ĠGre":5636,"orm":5637,"ĠAlber":5638,"ski":5639,"BA":5640,"Má»įi":5641,"tÄĥng":5642,"ĠphÃłn":5643,"ĠVÃ²ng":5644,"ĠOr":5645,"ngh":5646,"ĠtrÆ¡n":5647,"Ġnguyá»ĩt":5648,"pháº£i":5649,"ĠTuyá»ĥn":5650,"Ġnghiá»ĩt":5651,"ĠTho":5652,"ĠLáº¡i":5653,"ĠSevilla":5654,"Ġ360":5655,"ĠghÃª":5656,"ocied":5657,"TCC":5658,"Ġkaraoke":5659,"ociedad":5660,"TÃ¢n":5661,"ĠTuáº§n":5662,"Ġxáº»":5663,"ĠMu":5664,"ĠSaf":5665,"ĠFlor":5666,"Ġ87":5667,"ĠSARS":5668,"Ġchá»Ľp":5669,"ĠCosta":5670,"ĠdÃ¨":5671,"ĠTerry":5672,"ĠCIA":5673,"ĠGil":5674,"...).":5675,"ĠJack":5676,"Ġ99":5677,"dex":5678,"ĠBÆ°á»Ľc":5679,"Ġbá»©t":5680,"ĠGon":5681,"asuna":5682,"ĠMotor":5683,"ved":5684,"Ġrun":5685,"ĠHel":5686,"ÄĲá»ģ":5687,"ĠVNPT":5688,"ĠJuan":5689,"ĠOn":5690,"otti":5691,"aha":5692,"%/":5693,"58":5694,"TÃŃnh":5695,"cini":5696,"Ġeo":5697,"Ġáº§m":5698,"ĠtÃ¡ng":5699,"Ġnhá»ĭn":5700,"ĠTá»ĳ":5701,"Ġgiáº·t":5702,"Ġ69":5703,"ade":5704,"NghiÃªn":5705,"Giá»Ľi":5706,"ĠCharlton":5707,"Ġkhuya":5708,"Ġvá»īa":5709,"Ai":5710,"KH":5711,"my":5712,"ĠÄĳÃłng":5713,"ĠnhÃ£":5714,"ĠsÃ¢m":5715,"Ġkhá»ĳc":5716,"ĠrÃ£":5717,"Ġrá»ī":5718,"ĠNgÃł":5719,"ĠGen":5720,"ĠXanh":5721,"oven":5722,"sky":5723,"MS":5724,"rard":5725,"áº¢":5726,"ĠchÃ©o":5727,"ayne":5728,"ÄĲá»«ng":5729,"GiÃ¡o":5730,"ernando":5731,"CÃ¢u":5732,"ĠtÄĥm":5733,"ĠÄĳáº¡c":5734,"ĠKr":5735,"Tráº§n":5736,"act":5737,"apova":5738,"rogen":5739,"wnload":5740,"ĠExp":5741,"TÃ¢y":5742,"ĠÃª":5743,"Ġkhá»Ń":5744,"Ġngá»©a":5745,"Ġ110":5746,"ĠDÆ°á»£c":5747,"oran":5748,"ĠHÃłm":5749,"Khu":5750,"ĠAbd":5751,"ĠlÃµi":5752,"ĠbÃºn":5753,"ĠLad":5754,"áº½n":5755,"ĠKiatis":5756,"aser":5757,"ĠTMN":5758,"SÃ¢n":5759,"Ġa":5760,"nhÃł":5761,"Ġhoáº¡n":5762,"ĠChile":5763,"oma":5764,"edon":5765,"obot":5766,"ĠAston":5767,"Indonesia":5768,"ĠiP":5769,"ĠVieira":5770,"%)":5771,"lus":5772,"ĠtÃ²":5773,"Ġtest":5774,"ĠÄĤn":5775,"Ġháº»m":5776,"Ġnhan":5777,"Ġsáº¿p":5778,"ĠMiá»ģn":5779,"ĠAz":5780,"ĠDeco":5781,"ÄĲH":5782,"ĠWil":5783,"Ġonline":5784,"CÃ¡i":5785,"Mar":5786,"ves":5787,"Ġviáº¿ng":5788,"Ġdáº·n":5789,"ĠNigeria":5790,"ete":5791,"Ġinch":5792,"iena":5793,"Ġacid":5794,"QT":5795,"ĠlÃ¡nh":5796,"ĠmáºŃp":5797,"ĠCass":5798,"ĠVo":5799,"ĠSá»©c":5800,"eri":5801,"PhÃ²ng":5802,"iego":5803,"ÄĲVN":5804,"ĠPiero":5805,"51":5806,"Ġnhiáº¿p":5807,"Ġnan":5808,"ĠSat":5809,"ĠRu":5810,"ĠFestival":5811,"Ġ98":5812,"agli":5813,"ĠOld":5814,"Ġchá»£t":5815,"TPHCM":5816,"ĠUruguay":5817,"Cáº£nh":5818,"Par":5819,"iro":5820,"won":5821,"Ġá»§":5822,"Ġnuá»ĳt":5823,"Ġ1980":5824,"erby":5825,"ĠYanukovich":5826,"\"...":5827,"ĠNV":5828,"ĠHiá»ĩu":5829,"chá»§":5830,"ĠMak":5831,"ĠAv":5832,"ĠAIDS":5833,"ĠTraf":5834,"ĠCha":5835,"Ġ71":5836,"ings":5837,"ĠkhÃŃa":5838,"ĠRobben":5839,"ĠApple":5840,"MÃ¬nh":5841,"ĠchÃ¨o":5842,"Ġkeo":5843,"ĠphiÃªu":5844,"ĠTur":5845,"ĠchoÃ¡ng":5846,"...âĢĿ.":5847,"ĠFiorentina":5848,"á»Ľc":5849,"NhÃ¢n":5850,"ampdor":5851,"Ġpop":5852,"ĠAbb":5853,"ĠSamuel":5854,"ampdoria":5855,"AIDS":5856,"ĠnhÃ¡t":5857,"ĠFir":5858,"itar":5859,"BS":5860,"Bl":5861,"fica":5862,"we":5863,"Ġbo":5864,"ĠmÃŃa":5865,"Ġrang":5866,"ĠBridge":5867,"ĠMáºŃu":5868,"ĠChÃºa":5869,"ĠRey":5870,"Minh":5871,"din":5872,"gu":5873,"port":5874,"Ġláº§u":5875,"ĠNic":5876,"ĠRaf":5877,"abeu":5878,"Ġlá»¥a":5879,"ĠPowell":5880,"Ġchá»Ńi":5881,"Hoa":5882,"Ráº¥t":5883,"Sinh":5884,"nan":5885,"xÃ£":5886,"ĠÄĳÃŃnh":5887,"ĠnÆ°Æ¡ng":5888,"Ġnuá»ĳi":5889,"Ġquota":5890,"ĠChuyÃªn":5891,"olo":5892,"edved":5893,"ulin":5894,"isto":5895,"ĠÃļt":5896,"ĠBernabeu":5897,"ĠIbrahim":5898,"huyá»ĩn":5899,"Ġtáº·c":5900,"Ġsá»«ng":5901,"Ġnáº¡o":5902,"Ġdá»ĵi":5903,"ĠTham":5904,"ÄĲÃºng":5905,"arta":5906,"Ġ61":5907,"ĠvÃµng":5908,"ĠIII":5909,"Ká»ĥ":5910,"Sh":5911,"si":5912,"ĠthÃŃnh":5913,"ĠAPEC":5914,"ĠGates":5915,"ĠXbox":5916,"LuáºŃt":5917,"ĠvÃ´i":5918,"Ġvuá»ĳt":5919,"Ġphanh":5920,"ĠTáº¡":5921,"Äĥk":5922,"ĠVá»ĩ":5923,"Ġ350":5924,"ĠUdinese":5925,"Ġ180":5926,"hoáº·c":5927,"ĠRoberto":5928,"ĠAbu":5929,"orno":5930,"ĠPremiership":5931,"rich":5932,"ĠtrÄ©":5933,"Ġnhá»įc":5934,"Ġxen":5935,"ĠHÃ¢n":5936,"ĠMin":5937,"ĠThur":5938,"ĠPhÃŃa":5939,"ĠKhÃ´i":5940,"Ġvá»ĭnh":5941,"oles":5942,"Ġ74":5943,"ĠchiÃªm":5944,"Ġcuá»Ļn":5945,"ĠhÃ©t":5946,"Ġgáº§y":5947,"ĠCung":5948,"ĠBÃ©":5949,"ĠBos":5950,"ĠTháº¥t":5951,"imera":5952,"eting":5953,"ĠZeal":5954,"ĠCHDC":5955,"ĠÄĳu":5956,"ĠxÃ¡o":5957,"ĠHa":5958,"ĠVai":5959,"ĠKaka":5960,"ĠQuyá»ģn":5961,"ĠGiáº¥y":5962,"ĠSharapova":5963,"ĠGerrard":5964,"\"?":5965,"ll":5966,"ĠtÆ°á»Ľc":5967,"Ġgá»Łi":5968,"ĠViÃªn":5969,"ĠPutin":5970,"ĠKiev":5971,"ĠPhÃ³ng":5972,"alty":5973,"Ġtá»ĳp":5974,"ĠXe":5975,"Ġtá»¥i":5976,"bá»ĭ":5977,"ĠlÃ©n":5978,"Ġnhai":5979,"Ġná»ĥ":5980,"ĠLáº¡ng":5981,"ĠSund":5982,"Thá»ĥ":5983,"aster":5984,"Ġ73":5985,"HoÃłng":5986,"ĠTrafford":5987,"68":5988,"Hiá»ĩp":5989,"VÄĥn":5990,"ield":5991,"ps":5992,"strong":5993,"Ġlung":5994,"Ġchiáº¿t":5995,"Ġlá»Ŀ":5996,"Ġ83":5997,"ĠCalisto":5998,"agliari":5999,"ĠZealand":6000,"67":6001,"Kim":6002,"Milan":6003,"bell":6004,"ĠbÃ¡ch":6005,"ĠnÃªm":6006,"Ġquáº¥y":6007,"Ġranh":6008,"ĠNÄĥng":6009,"ĠAP":6010,"ĠChinh":6011,"ĠIvan":6012,"Trá»Ł":6013,"icardo":6014,"uela":6015,"Hz":6016,"Ġchuá»Ļc":6017,"Ġsáº¡t":6018,"ĠTiÃªu":6019,"ĠnghÃªnh":6020,"Ġtui":6021,"á»ıa":6022,"lorer":6023,"Váº¥n":6024,"ĠHonda":6025,"omm":6026,"thuá»Ļc":6027,"ente":6028,"umi":6029,"ĠColombia":6030,"ĠIreland":6031,"ĠiPod":6032,"CÃ¡":6033,"Sá»Ł":6034,"Tin":6035,"hiá»ĩn":6036,"mad":6037,"ron":6038,"Ġváº¥p":6039,"Ġsáº¥y":6040,"ĠCá»§":6041,"Ġlá»«ng":6042,"Ãµm":6043,"ĠcÃ¡u":6044,"ĠÄĲTQG":6045,"ij":6046,"ĠmÃ´ng":6047,"ĠngÃ¡n":6048,"ĠNay":6049,"ĠVáº«n":6050,"ĠBá»©c":6051,"over":6052,"ĠClin":6053,"Ġpenalty":6054,"CC":6055,"MB":6056,"bl":6057,"oáº¡n":6058,"win":6059,"yn":6060,"Ġ)":6061,"ĠÄĳÅ©a":6062,"Ġkhan":6063,"ĠCá»±u":6064,"ĠHigh":6065,"ĠGB":6066,"ĠGTCC":6067,"Ġ88":6068,"ĠHCB":6069,"ĠMancini":6070,"ĠCres":6071,"Ġclip":6072,"ĠTÃ¡c":6073,"ĠVA":6074,"ĠMag":6075,"ĠkhiÃªm":6076,"ĠPSV":6077,"ĠKháº£":6078,"ĠJer":6079,"itz":6080,"andal":6081,"Ġ1992":6082,"ohan":6083,"ĠBenfica":6084,"ĠGonzal":6085,"'s":6086,"57":6087,"HP":6088,"Tay":6089,"ct":6090,"vÃ¬":6091,"Ġtáº»":6092,"Ġcal":6093,"ĠvÃ¡y":6094,"ĠxÃ³t":6095,"ĠTrÄĥng":6096,"Ġ81":6097,"trÃ¡i":6098,"ault":6099,"ric":6100,"rig":6101,"Ġsá»¹":6102,"ĠxÆ°á»Ľng":6103,"ĠCÄĥn":6104,"ĠHass":6105,"ĠBao":6106,"ĠMah":6107,"alke":6108,"etafe":6109,"Cháº³ng":6110,"ĠJo":6111,"ĠbÃ©n":6112,"avel":6113,"ĠAlb":6114,"ĠLHP":6115,"BÃłi":6116,"yon":6117,"ĠnhÃŃ":6118,"Ġdáº£i":6119,"Ġngháº½n":6120,"esco":6121,"ĠRum":6122,"Ġ450":6123,"ĠOscar":6124,"ientes":6125,"Valencia":6126,"'(":6127,"KT":6128,"py":6129,"ve":6130,"vÃł":6131,"Ġtáº¥p":6132,"ĠNev":6133,"ĠTrÃ¢m":6134,"esse":6135,"imex":6136,"trÃªn":6137,"ike":6138,"bury":6139,"ĠVictor":6140,"Ġbong":6141,"ĠmiÃªu":6142,"ĠgÃ¢n":6143,"ĠBáº£y":6144,"ĠBall":6145,"ĠGiÃ¡p":6146,"old":6147,"eck":6148,"ĠBrun":6149,"ĠAmer":6150,"ĠPhá»¥ng":6151,"ĠCrespo":6152,"EM":6153,"NÄĲ":6154,"Sang":6155,"Sing":6156,"ĠvÃ¡c":6157,"Ġnáº¥y":6158,"ĠVH":6159,"oni":6160,"erson":6161,"edo":6162,"ĠThuáº¿":6163,"Ġ140":6164,"Ġpoly":6165,"ĠMarc":6166,"ĠZaragoza":6167,"ĠToÃ¡n":6168,"ĠPires":6169,"62":6170,"HáºŃu":6171,"LG":6172,"VT":6173,"no":6174,"wan":6175,"ĠsÃłnh":6176,"ĠKur":6177,"Tham":6178,"Ġ09":6179,"197":6180,"ext":6181,"ĠxoÃ¡y":6182,"ĠSchumacher":6183,"ĠSmith":6184,"IT":6185,"PC":6186,"be":6187,"Ġcháº¡p":6188,"Ġmáº¯ng":6189,"ĠCá»ĳ":6190,"ĠHáº£o":6191,"ĠVÃłi":6192,"ĠLÆ°á»£ng":6193,"ĠNgÃ´i":6194,"ĠChÄĥm":6195,"ĠNhÆ°á»¡ng":6196,"Ġthá»ĭnh":6197,"agan":6198,"Ġduoc":6199,"ĠThuá»·":6200,"ieu":6201,"Br":6202,"dick":6203,"ni":6204,"rik":6205,"ĠÃºy":6206,"nger":6207,"ĠbÆ¡":6208,"Ġme":6209,"Ġngáº·t":6210,"ĠTÃŃn":6211,"ĠNedved":6212,"ĠComp":6213,"ĠVáºŃt":6214,"ĠVid":6215,"ĠMÃ³n":6216,"ĠÄĲÃłm":6217,"ĠSá»Ń":6218,"ÄĲá»įc":6219,"Ġ89":6220,"ĠInd":6221,"Äĳá»ĳi":6222,"ĠgÃ³t":6223,"ĠPalace":6224,"ĠScholes":6225,"ĠPeru":6226,"BÄĲVN":6227,"GB":6228,"láº§n":6229,"ny":6230,"yc":6231,"Ġtáº©u":6232,"ĠnÃŃu":6233,"Ġgang":6234,"Ġday":6235,"Ġdáº§m":6236,"ĠNou":6237,"ĠMá»Ļc":6238,"ĠTrÃºc":6239,"ĠCampbell":6240,"64":6241,"BT":6242,"Cá»¥":6243,"MÃ¹a":6244,"sá»ĳ":6245,"tiá»ģn":6246,"ĠSiÃªu":6247,"á»ķn":6248,"ĠJac":6249,"NháºŃn":6250,"cow":6251,"ĠUkraine":6252,"ĠCHDCND":6253,"Italy":6254,"ĠcÃ²":6255,"ĠÄĳan":6256,"Ġtro":6257,"ĠgÃ²":6258,"ĠngÃłi":6259,"ĠphÃ´":6260,"ĠSeo":6261,"ĠPas":6262,"ĠChá»©ng":6263,"eller":6264,"ĠAsh":6265,"ĠExplorer":6266,"Cáº§u":6267,"NK":6268,"nÃ³ng":6269,"tÆ°Æ¡ng":6270,"ze":6271,"ĠthÃª":6272,"Ġlive":6273,"ĠrÃ¡ch":6274,"ĠMong":6275,"ĠTrÃ£i":6276,"ĠPhá»ĳ":6277,"ember":6278,"ĠKháº¯c":6279,"isa":6280,"61":6281,"63":6282,"TÆ°Æ¡ng":6283,"bek":6284,"ston":6285,"Ã©c":6286,"ĠsÃ²ng":6287,"Ġsá»Ŀ":6288,"Ġvá»©t":6289,"ĠThiá»ģu":6290,"ĠSG":6291,"ĠGall":6292,"Ġvisa":6293,"roup":6294,"uba":6295,"ĠbÃ¬a":6296,"ĠLibÄĥng":6297,"ĠHungary":6298,"ĠClinton":6299,"95":6300,"ven":6301,"Ġser":6302,"ĠTamsu":6303,"ĠCháº¥n":6304,"ĠDis":6305,"ĠDani":6306,"ĠWe":6307,"ĠWayne":6308,"Äĳá»Ļi":6309,"uma":6310,"anium":6311,"AN":6312,"Ġlá»ĳc":6313,"ĠhÄĥng":6314,"ĠCÃłng":6315,"ĠÄĲá»ı":6316,"ĠLau":6317,"ÄĲoÃłn":6318,"oll":6319,"ĠJordan":6320,"ĠMaria":6321,"elli":6322,"asser":6323,"SCL":6324,"EE":6325,"Sáº½":6326,"che":6327,"ĠKon":6328,"ÄĲi":6329,"ĠGiai":6330,"Ġ160":6331,"ffice":6332,"ĠBenit":6333,"ĠLeverkusen":6334,"Subject":6335,"Ġ=":6336,"ĠÄĳÃ¡i":6337,"ĠlÆ°á»£n":6338,"Ġnhá»Ļn":6339,"ĠLá»Ŀi":6340,"onso":6341,"ĠRy":6342,"obile":6343,"awa":6344,"ĠlÅ©y":6345,"ĠSyria":6346,"ĠMobi":6347,"ĠBuff":6348,"ĠLatvia":6349,"Ġviá»ģn":6350,"ĠvÃ£n":6351,"Ġrobot":6352,"ĠxÃ©":6353,"ĠCháº¿":6354,"Ġcac":6355,"onald":6356,"ĠSiro":6357,"ĠJean":6358,"ĠGarcia":6359,"ĠArmstrong":6360,"NÆ°á»Ľc":6361,"tar":6362,"xem":6363,"ĠkÃ¬m":6364,"Ġsáº¹o":6365,"ĠTáº¡o":6366,"ĠNHÄĲ":6367,"ĠPha":6368,"KhÃ¡ch":6369,"iri":6370,"ĠmuÃ´n":6371,"ĠPrimera":6372,"Ġjazz":6373,"Diá»ħn":6374,"YT":6375,"cÃ¡c":6376,"Ġáº¡t":6377,"Ġhen":6378,"Ġmá»ĳt":6379,"ĠngÃ²i":6380,"Ġder":6381,"ĠquÃ¡t":6382,"ĠNáº¡n":6383,"ĠCO":6384,"chÆ°a":6385,"ĠMedia":6386,"ĠÄĲá»ĳng":6387,"ĠThá»¥":6388,"ĠGP":6389,"ĠRog":6390,"hop":6391,"ezuela":6392,"lav":6393,"ster":6394,"ĠtÆ°á»Ľi":6395,"Ġxáº¥p":6396,"use":6397,"ĠQuáº¿":6398,"khÃ¡ch":6399,"stem":6400,"ennis":6401,"''.":6402,"ĠADN":6403,"Ġmodel":6404,"mir":6405,"ÃĿ":6406,"Ġcard":6407,"ĠtrÃºt":6408,"ĠphÃ¡c":6409,"ĠMÆ°á»Ŀi":6410,"ĠLá»ĭch":6411,"ĠKSND":6412,"ĠChá»ĵng":6413,"ĠLÄĲBÄĲVN":6414,"Ġspam":6415,"ĠAtletico":6416,"Ġlá»¯":6417,"ĠnhÅ©":6418,"pháº§n":6419,"ĠBá»ĳ":6420,"ĠÄĲáº¯c":6421,"ĠSP":6422,"ĠSor":6423,"ĠTri":6424,"NhÃ¬n":6425,"ĠHuÃ¢n":6426,"esta":6427,"ĠMorientes":6428,"ĠRoddick":6429,"ĠAthens":6430,"ĠFerrari":6431,"Newcastle":6432,"66":6433,"Cá»±u":6434,"Loáº¡i":6435,"ura":6436,"ĠhÃ´ng":6437,"ĠTinh":6438,"ĠgiÃ²n":6439,"ĠÄĲá»ĵ":6440,"Ġthuá»Ł":6441,"ĠDiego":6442,"Ġyen":6443,"Ġkhoáº£nh":6444,"ĠKhiÃªm":6445,"ThÃªm":6446,"ĠQuÃ¡n":6447,"ĠODA":6448,"ĠÃĤm":6449,"Quan":6450,"ĠCharles":6451,"ĠÄĲBSCL":6452,"ĠEspanyol":6453,"ĠGonzalez":6454,"93":6455,"HÃłn":6456,"ĠtÆ¡":6457,"Ġchá»¯ng":6458,"ĠkÃ©p":6459,"ĠTony":6460,"Ġxáº£o":6461,"ĠÄĲÃ¡":6462,"Ġhoc":6463,"ĠloÃ£ng":6464,"Tháº¯ng":6465,"ĠthiÃªng":6466,"ĠYÃªu":6467,"ĠNghiá»ĩp":6468,"BÄĲiá»ĥm":6469,"ĠHCÄĲ":6470,"ĠSITC":6471,"Báº¯t":6472,"Tá»ķ":6473,"gra":6474,"tuáº§n":6475,"Ġbáº¡t":6476,"Ġderby":6477,"Ġrá»ĳn":6478,"ĠBÃ´ng":6479,"ĠBal":6480,"ĠLáº¥y":6481,"ĠSon":6482,"ake":6483,"off":6484,"ĠIbrahimovic":6485,"88":6486,"gio":6487,"ĠcÆ°ng":6488,"ĠchÃ¹m":6489,"ĠTO":6490,"anco":6491,"ĠMass":6492,"Tráº»":6493,"1999":6494,"ĠPlay":6495,"ĠSilva":6496,"ĠMoscow":6497,"Singapore":6498,"Ġcáº¡o":6499,"Ġháº£":6500,"ĠhÆ°á»Ľc":6501,"Ġngáº£":6502,"ĠTÃ¬m":6503,"ĠBur":6504,"ĠLÃ£ng":6505,"ĠPe":6506,"ÄĲÃ´i":6507,"ĠWhi":6508,"Ġinter":6509,"ĠAbram":6510,"coni":6511,"ational":6512,"ĠMilos":6513,"ĠBenitez":6514,"Ġni":6515,"ĠgáºŃy":6516,"ĠÄĳá»Ŀ":6517,"ait":6518,"ĠMáº¥y":6519,"Ġkhoang":6520,"atra":6521,"ĠFr":6522,"estrogen":6523,"giáº£i":6524,"ĠSharon":6525,"cÃ²":6526,"gart":6527,"Ġtáº¡":6528,"Ġgá»Ļi":6529,"ĠBell":6530,"ĠÄĲang":6531,"ĠLou":6532,"aus":6533,"ĠDes":6534,"Ġká»µ":6535,"ĠFC":6536,"ablo":6537,"Ġ1975":6538,"celotti":6539,"92":6540,"JC":6541,"Tot":6542,"Ġcá»Ĺ":6543,"Ġthá»ĳt":6544,"ĠngÆ¡":6545,"ĠKing":6546,"royo":6547,"ĠFre":6548,"ogna":6549,"ĠGiá»¯a":6550,"ĠUyÃªn":6551,"lusconi":6552,"Laren":6553,"cá»§a":6554,"Ġvao":6555,"Ġnáº¿m":6556,"ĠquÃŃ":6557,"ĠCM":6558,"cher":6559,"ĠBuá»ķi":6560,"ĠPatr":6561,"ĠAjax":6562,"ĠChÃ¢n":6563,"olari":6564,"ĠXÃ©t":6565,"otland":6566,"ĠBerg":6567,"iveshow":6568,"ĠMilosevic":6569,"CB":6570,"So":6571,"des":6572,"Ġhuyá»ĩt":6573,"Ġsá»įc":6574,"Ġgr":6575,"Ġrá»ĵng":6576,"ĠMus":6577,"ĠKT":6578,"Ġká»ĩ":6579,"ĠLaden":6580,"ĠReyes":6581,"Tottenham":6582,"Lá»ħ":6583,"Quyáº¿t":6584,"hÃłng":6585,"Ġliá»ħu":6586,"Ġgáº¥u":6587,"Ġngá»Ńa":6588,"ĠToyota":6589,"chiáº¿c":6590,"ĠMe":6591,"ĠThomas":6592,"ĠNguyen":6593,"ĠKoi":6594,"ement":6595,"ĠRoy":6596,"ĠAncelotti":6597,"Ġvá»¯a":6598,"HAGL":6599,"900":6600,"DT":6601,"EU":6602,"ĠÃºt":6603,"ĠÄĳáºŃy":6604,"ĠlÃŃu":6605,"ĠTR":6606,"ĠHew":6607,"áº¯k":6608,"chuyá»ĩn":6609,"ĠSáº¯c":6610,"ory":6611,"ĠHoÃ¡":6612,"essenger":6613,"%),":6614,"bour":6615,"tta":6616,"ĠáºŃp":6617,"Ġngá»ı":6618,"ĠTá»ĳt":6619,"ĠTech":6620,"Ġquá»·":6621,"ĠCÆ°Æ¡ng":6622,"ĠChÃºc":6623,"ĠDinh":6624,"ĠFDI":6625,"ĠFrance":6626,"Nghá»ĩ":6627,"bá»Ļ":6628,"Ġsáº¥u":6629,"Ġnao":6630,"ĠngÃ¢y":6631,"Ġquáº¥n":6632,"ĠHáº¡t":6633,"ĠTrá»±c":6634,"ĠTriá»ĥn":6635,"ĠKiáº¿m":6636,"ĠhÃ£nh":6637,"ivorno":6638,"ĠArroyo":6639,"ĠAlan":6640,"ĠSchalke":6641,"Giá»Ŀ":6642,"ĠxÃŃu":6643,"ĠYoung":6644,"per":6645,"tá»ķng":6646,"Ġngáº¡t":6647,"Ġxiáº¿c":6648,"ĠCÃ¢y":6649,"ĠCen":6650,"ĠVit":6651,"Ġnghiá»ģn":6652,"ĠLuÃ¢n":6653,"ĠLá»Ľn":6654,"ĠNgÃłnh":6655,"ĠFernando":6656,"Ġchá»įi":6657,"ĠLuc":6658,"ĠCrist":6659,"ĠToÃł":6660,"Ġuranium":6661,"FF":6662,"Máº·t":6663,"ĠtÃº":6664,"ĠÄĳÃ¡n":6665,"ĠMC":6666,"ĠÄĲáºŃu":6667,"ĠLecce":6668,"aulo":6669,"err":6670,"ĠGá»Ńi":6671,"Ġtype":6672,"uly":6673,"oud":6674,"ezeg":6675,"eney":6676,"Ġkhuynh":6677,"Bolton":6678,"ĠMobiFone":6679,"TG":6680,"TÃ¬m":6681,"cÃ´":6682,"ĠgiÃłn":6683,"ĠPa":6684,"ĠTrao":6685,"ĠKen":6686,"ĠRub":6687,"ĠBlu":6688,"ĠChristian":6689,"ezeguet":6690,"lam":6691,"tain":6692,"vic":6693,"Ġcáº©m":6694,"Ġnhiá»ħu":6695,"ĠdÃª":6696,"ĠdÃ¬":6697,"ĠLS":6698,"ĠChiá»ĥu":6699,"ĠGal":6700,"ĠQL":6701,"ĠRan":6702,"ĠIA":6703,"Ġnhuá»Ļm":6704,"Ġscandal":6705,"ĠSeoul":6706,"71":6707,"Cl":6708,"pol":6709,"Ġbin":6710,"ĠbÆ°á»Łi":6711,"Ġmiá»ĩt":6712,"Ġxáº¯n":6713,"ĠBáºŃt":6714,"ĠLÃ¡":6715,"Ġhor":6716,"Ġvá»¥n":6717,"ĠKhÃ¡n":6718,"ĠQuÃ¡ch":6719,"ĠAli":6720,"ĠAndy":6721,"CO":6722,"DL":6723,"II":6724,"Lá»ĭch":6725,"uong":6726,"Ġlaser":6727,"Ġbanh":6728,"Ġtrá»ĩ":6729,"Ġthá»¥c":6730,"ante":6731,"ĠBá»ĳn":6732,"ĠMSN":6733,"ĠThÃŃ":6734,"ĠNguá»ĵn":6735,"ĠIE":6736,"oshi":6737,"Äĳá»ĵng":6738,"ife":6739,"ĠScolari":6740,"ixel":6741,"ĠHighbury":6742,"DÃ¹ng":6743,"Deportivo":6744,"Vá»£":6745,"Âł":6746,"Ġtem":6747,"Ġtáº¥c":6748,"Ġtháº¯p":6749,"Ġbáº»":6750,"ĠtrÃªu":6751,"ĠnÃ¡o":6752,"Ġgolf":6753,"Ġthá»ģm":6754,"ĠBÃ¡nh":6755,"ĠÄĲN":6756,"ĠThiÃªm":6757,"ĠWHO":6758,"seille":6759,"ĠRodrig":6760,"ial":6761,"kin":6762,"rÃºt":6763,"ĠkiÃªu":6764,"ĠnhÃ¡i":6765,"ĠTan":6766,"Ġrá»Ĺng":6767,"ĠHN":6768,"Ġ(!":6769,"audio":6770,"ĠPent":6771,"ĠWigan":6772,"Phá»¥":6773,"ĠAlonso":6774,"ega":6775,"ĠBerlusconi":6776,"ĠTimes":6777,"ĠBHL":6778,"ĠCatal":6779,"Má»¥c":6780,"Muá»ĳn":6781,"Ġbáº¡":6782,"Ġráº¡n":6783,"ĠThan":6784,"ĠRicardo":6785,"ĠThá»ĭt":6786,"Ġins":6787,"ĠCapello":6788,"Hy":6789,"Tá»·":6790,"gas":6791,"ker":6792,"xÃª":6793,"áº¤":6794,"ĠmÃ¬n":6795,"Ġsáº£o":6796,"ĠnÃ©":6797,"Ġgiun":6798,"ĠCÃ¡nh":6799,"ĠMax":6800,"ĠThoa":6801,"ĠTrÃ¢n":6802,"ĠKhang":6803,"eds":6804,"Ġ1991":6805,"Æ¯T":6806,"izar":6807,"ĠSinhanco":6808,"ĠStamford":6809,"Lecce":6810,"gan":6811,"ĠcÃły":6812,"ĠlÃ³c":6813,"ĠmÃ©p":6814,"ĠtrÃ³t":6815,"ĠVÃ´":6816,"icrosoft":6817,"ĠFel":6818,"ĠSlam":6819,"Ġmá»īm":6820,"Ġinternet":6821,"háº¡ng":6822,"ts":6823,"Ġváº·n":6824,"Ġbá»į":6825,"Ġmail":6826,"ĠtrÃ¹":6827,"ĠngÃłng":6828,"ĠdÃło":6829,"Ġthá»ı":6830,"Æ°á»Ľn":6831,"Ġbá»ĭt":6832,"ĠKáº»":6833,"ĠDÆ°":6834,"ĠâĢĿ":6835,"ĠKhÃ³":6836,"ĠGigg":6837,"ahn":6838,"TVN":6839,"ĠRome":6840,"1998":6841,"ĠVCD":6842,"Malaysia":6843,"Ġhorm":6844,"ĠGiggs":6845,"AP":6846,"Sch":6847,"tÃ´ng":6848,"yd":6849,"ĠÄĳá»ĳn":6850,"ĠThai":6851,"ĠLo":6852,"onic":6853,"Ġdownload":6854,"Ġyáº¿m":6855,"Charl":6856,"ito":6857,"osh":6858,"aptop":6859,"Ġlá»Ńng":6860,"ED":6861,"Everton":6862,"Fulham":6863,"ced":6864,"ru":6865,"vá»Ľi":6866,"ĠbÃ¡u":6867,"ĠÄĲáº±ng":6868,"ĠPablo":6869,"ĠTrezeguet":6870,"ĠFord":6871,"acete":6872,"ĠReagan":6873,"ĠNews":6874,"Song":6875,"cÃ²n":6876,"zumi":6877,"Ġkáº¹p":6878,"Ġtriáº¿t":6879,"ĠtrÄĥn":6880,"Ġnáº¿n":6881,"ĠTÃªn":6882,"Ġrá»Ĺi":6883,"ĠNS":6884,"ance":6885,"ĠChÃ¡u":6886,"ĠDy":6887,"ĠGra":6888,"ĠPhÃ¢n":6889,"ĠRed":6890,"Ġtuá»Ļt":6891,"ĠÃģi":6892,"ĠVenezuela":6893,"bekistan":6894,"82":6895,"Ġáº©u":6896,"Ġcá»«":6897,"ĠÄĳao":6898,"ĠvÃ¹i":6899,"Ġhá»Ļt":6900,"ĠkÃ¨n":6901,"Ġráº«y":6902,"ĠHer":6903,"ĠBÃ¨":6904,"ĠDÄ©":6905,"ĠDuyÃªn":6906,"esl":6907,"ase":6908,"Chi":6909,"ĠFar":6910,"ĠXem":6911,"ĠBaros":6912,"ĠBrit":6913,"ĠKhuÃª":6914,"kaard":6915,"dinand":6916,"IP":6917,"LÃª":6918,"NE":6919,"xe":6920,"Ġá»ĵ":6921,"ĠtÃ¡t":6922,"ĠthÃł":6923,"Ġli":6924,"Ġphao":6925,"Ġráº§m":6926,"ĠrÆ¡m":6927,"ĠCty":6928,"ĠHal":6929,"ĠIP":6930,"ĠhoÃ¡TiÃªu":6931,"ĠStar":6932,"ivers":6933,"ĠManila":6934,"ehran":6935,"sfeld":6936,"ĠtÃ©":6937,"ĠÄĳáº£":6938,"ĠchÃ³i":6939,"ĠbÃºa":6940,"Ġmáº§u":6941,"Ġnhá»ĩn":6942,"ĠTG":6943,"Ġxá»ĳp":6944,"ĠCop":6945,"ĠBilbao":6946,"ĠAy":6947,"ĠKá»ĭch":6948,"ĠDon":6949,"ÄĲá»Ļng":6950,"ĠÃįt":6951,"Ġ08":6952,"eva":6953,"ĠWales":6954,"ĠSafin":6955,"%;":6956,"hmann":6957,"Ġáº¥u":6958,"nhÃ¢n":6959,"Ġthá»ĳi":6960,"ĠmiÃªn":6961,"ĠkhÄĥng":6962,"ĠkhÃ¡nh":6963,"ĠBin":6964,"Ġgiá»¥c":6965,"orf":6966,"Ġhá»ĩt":6967,"ĠXÆ°Æ¡ng":6968,"NgÃ¢n":6969,"Ġ1986":6970,"ĠRij":6971,"Ġ1970":6972,"yahoo":6973,"ĠNeville":6974,"ĠJacqu":6975,"('":6976,"85":6977,"Báº£o":6978,"tá»±":6979,"Ġvo":6980,"Ġle":6981,"Ġliveshow":6982,"Ġhon":6983,"Ġsil":6984,"Ġgáº·t":6985,"ĠVol":6986,"ĠRÃµ":6987,"Ġngoáº·t":6988,"Äĳáº§u":6989,"Ġ01":6990,"ĠsuÃ´n":6991,"Lá»Ŀi":6992,"TN":6993,"Xuáº¥t":6994,"cua":6995,"dy":6996,"Ġmini":6997,"ĠBÃłng":6998,"ĠBÃŃnh":6999,"ĠSociedad":7000,"andro":7001,"ĠMarch":7002,"oca":7003,"abi":7004,"out":7005,"ushu":7006,"udj":7007,"ĠFerdinand":7008,"ĠMotorola":7009,"ĠAbramovich":7010,"ĠKoizumi":7011,"Lev":7012,"field":7013,"ĠÆ°ng":7014,"ĠvÄĥng":7015,"Ġnháº¥p":7016,"Ġchocol":7017,"ĠLop":7018,"ĠSá»ĳng":7019,"ĠSaha":7020,"erland":7021,"ĠVND":7022,"Äĳá»ĥ":7023,"PhiÃªn":7024,"Ġxuá»ĵng":7025,")(":7026,"LÃ½":7027,"TÃ¡c":7028,"mi":7029,"Ġbl":7030,"ĠnÃłnh":7031,"Ġngáº¯t":7032,"Ġphá»ĵng":7033,"ĠTy":7034,"ĠrÃ²":7035,"Ġráº£nh":7036,"ĠPra":7037,"ĠDJ":7038,"enb":7039,"enault":7040,"Ġcá»¥t":7041,"illas":7042,"Ġ1988":7043,"stan":7044,"ĠBerlin":7045,"ĠAMD":7046,"ĠSantos":7047,"racle":7048,"ĠÆ¯á»Ľc":7049,"ĠRijkaard":7050,"BV":7051,"ki":7052,"Ġcuá»ĳng":7053,"Ġtháº¡o":7054,"Ġláº«y":7055,"Ġkháº¯t":7056,"Ã³p":7057,"ĠNÆ¡i":7058,"ĠLos":7059,"ĠWar":7060,"ĠAnnan":7061,"iff":7062,"ĠbÆ°á»Ľm":7063,"Ġtestoster":7064,"KA":7065,"Ġz":7066,"Ġcáº©u":7067,"Ġtháº¯m":7068,"Ġthiáº¿p":7069,"ĠchÃł":7070,"Ġchá»ĳc":7071,"ĠchÆ°ng":7072,"ĠBD":7073,"ĠBÃ¡n":7074,"ĠSouthampton":7075,"Thay":7076,"Nguá»ĵn":7077,"Ġchuá»ĵng":7078,"ific":7079,"ĠScotland":7080,"ĠTomas":7081,"ĠRoger":7082,"Ġinsulin":7083,"EP":7084,"Roma":7085,"Tuá»ķi":7086,"ds":7087,"gá»ĵm":7088,"má»Ĺi":7089,"ĠlÆ°á»Ŀi":7090,"ĠlÅ©ng":7091,"Ġtá»ħ":7092,"ĠBon":7093,"ĠChÃº":7094,"ĠDar":7095,"ĠDick":7096,"ĠIX":7097,"The":7098,"Chu":7099,"evin":7100,"ĠLehmann":7101,"ĠSingh":7102,"ĠCassano":7103,"Há»ĩ":7104,"Microsoft":7105,"XVN":7106,"gr":7107,"xy":7108,"Ġáº¿ch":7109,"Ġtrá»ķ":7110,"Ġnáº¡c":7111,"Ġvá»Ŀ":7112,"ĠgiÆ¡":7113,"Ġthá»ģ":7114,"ĠMÃłu":7115,"ĠLj":7116,"ĠSJC":7117,"ĠChÃłng":7118,"ĠDiá»ĩp":7119,"ĠDáºŃu":7120,"ĠGáº·p":7121,"ĠGudj":7122,"aghi":7123,"reak":7124,"ode":7125,"uti":7126,"ĠOsasuna":7127,"ĠCasillas":7128,"uttgart":7129,"ĠPentium":7130,"84":7131,"Buá»ķi":7132,"Portsmouth":7133,"jico":7134,"ĠcÆ°a":7135,"Ġcháº±ng":7136,"Ġmáº©u":7137,"ĠTehran":7138,"Ġhá»Ŀ":7139,"ais":7140,"ĠMáº¡ng":7141,"ĠThá»Ľi":7142,"ĠLÃ¢n":7143,"ĠPle":7144,"ĠTrÃ¬nh":7145,"ĠChá»įn":7146,"Thá»¥y":7147,"Philip":7148,"irus":7149,"ĠMallor":7150,"ohnsen":7151,"Index":7152,"ĠHewitt":7153,"ĠMallorca":7154,"?\",":7155,"Australia":7156,"Cá»©":7157,"RO":7158,"sá»±":7159,"ĠtÆ°ng":7160,"Ġláº©n":7161,"Ġlá»Ļng":7162,"ĠhÃ¡o":7163,"ĠNik":7164,"ĠRang":7165,"ĠUng":7166,"trÆ°á»Ľc":7167,"ĠBank":7168,"ĠFrancisco":7169,"79":7170,"Gá»Ńi":7171,"Rob":7172,"Vá»ĭ":7173,"Ġ...":7174,"Ġnhá»§":7175,"ĠnhÃºng":7176,"Ġsim":7177,"ĠdÆ°ng":7178,"ĠTá»©":7179,"ĠxÃª":7180,"ĠVieri":7181,"ĠnhÃłm":7182,"ĠnÃ³n":7183,"ĠWim":7184,"ĠYuk":7185,"thÆ°á»Ŀng":7186,"Äĳi":7187,"ĠVIP":7188,"ĠKiatisuk":7189,"ĠIAEA":7190,"Ġchocolate":7191,"Bra":7192,"MT":7193,"¨ng":7194,"ĠÆ¡":7195,"Ġcá»ĳi":7196,"Ġhat":7197,"ĠchÆ°á»Ľc":7198,"ĠphÃł":7199,"ĠNad":7200,"ĠxÆ°ng":7201,"ĠBáº£ng":7202,"ĠMÃ´ng":7203,"ĠSain":7204,"aro":7205,"eman":7206,"TrÆ°á»Łng":7207,"ĠWat":7208,"Ġtoi":7209,"Ġ92":7210,"Quáº£":7211,"Ġkáº½m":7212,"ĠJava":7213,"ĠAbbas":7214,"esliga":7215,"69":7216,"Ná»¯":7217,"mua":7218,"tamsu":7219,"ĠthiÃªu":7220,"Ġbiáº¿u":7221,"ĠnháºŃm":7222,"ĠCuba":7223,"ĠHÃ³c":7224,"ĠBÃ£i":7225,"iá»ĥng":7226,"ĠSuá»ĳt":7227,"ĠTráº¡m":7228,"Ġnhá»Ŀn":7229,"ietnam":7230,"ude":7231,"ĠAlexander":7232,"ĠAFC":7233,"Ġtruong":7234,"ĠGudjohnsen":7235,"89":7236,"lÃª":7237,"zaghi":7238,"Ġnhá»ķ":7239,"ĠTÆ°á»Łng":7240,"Ġxá»ĭt":7241,"Ġbá»ĵng":7242,"arq":7243,"NgÃ´i":7244,"ĠPalermo":7245,"undesliga":7246,"athin":7247,"ĠNghiÃªm":7248,"ĠBuffon":7249,"BÃ¢y":7250,"West":7251,"Ġá»ıi":7252,"Ġquáº©n":7253,"ĠHill":7254,"ĠGiuly":7255,"ĠJen":7256,"trick":7257,"illip":7258,"ĠZam":7259,"ĠSerbia":7260,"Ġ1984":7261,"ĠEric":7262,"ĠSteven":7263,"ĠCatalan":7264,"?(":7265,"DÆ°á»Ľi":7266,"GÄĲT":7267,"HÃ¬nh":7268,"HÃłnh":7269,"Xem":7270,"zbekistan":7271,"ĠvÆ¡":7272,"Ġchao":7273,"Ġná»Ļ":7274,"Ġkhinh":7275,"Ġgá»Ľm":7276,"ĠTá»ĳng":7277,"Ġxá»Ļn":7278,"ĠHÆ°á»Ŀng":7279,"ĠÄĲá»Ļc":7280,"Æ°Æ¡m":7281,"ÄĲÃ´ng":7282,"esley":7283,"ĠOt":7284,"ÄĳÆ°á»Ŀng":7285,"ÄĳÃ¡nh":7286,"ump":7287,"reira":7288,",...":7289,"Long":7290,"Sao":7291,"bu":7292,"Ġteo":7293,"Ġsá»ĩt":7294,"Ġngáº¥m":7295,"ĠTum":7296,"ĠNN":7297,"ĠNob":7298,"ĠBob":7299,"ĠLim":7300,"ĠLCD":7301,"ĠRáº«y":7302,"ĠChirac":7303,"ribank":7304,"aikos":7305,"ĠDaniel":7306,"cuador":7307,"athinaikos":7308,"My":7309,"Mobile":7310,"__":7311,"ĠÆ°":7312,"Ġnhá»įt":7313,"ĠTá»Ľi":7314,"ĠTun":7315,"Æ°á»Ŀm":7316,"ĠNe":7317,"ĠNi":7318,"cht":7319,"ĠMill":7320,"ĠLáº§u":7321,"ĠCheney":7322,"ĠnhÃło":7323,"eno":7324,"ĠEv":7325,"thay":7326,"ĠHuáº¥n":7327,"ĠMarseille":7328,"iana":7329,"ĠHÄĲQT":7330,"Ġguitar":7331,"ĠOnline":7332,"72":7333,"Mich":7334,"SS":7335,"oph":7336,"tÃªn":7337,"zi":7338,"ĠÄĳiáº¿u":7339,"Ġnáº¡":7340,"ĠTal":7341,"ĠSri":7342,"ery":7343,"ĠDida":7344,"imir":7345,"Ġvá»¥ng":7346,"ĠJa":7347,"ĠHoward":7348,"adona":7349,"aguay":7350,"ovak":7351,"combank":7352,"ĠDuff":7353,"ĠRumsfeld":7354,"ĠPatrick":7355,"ĠRanieri":7356,"Birmingham":7357,"Du":7358,"cÃ¹ng":7359,"ml":7360,"mm":7361,"wa":7362,"ÄĤn":7363,"ĠHá»·":7364,"ĠTháº§y":7365,"ĠnÄĥn":7366,"ĠKash":7367,"ĠDam":7368,"ĠQuyÃªn":7369,"ĠEle":7370,"KhÃ¡nh":7371,"QuÃ¡":7372,"ĠTTXVN":7373,"namo":7374,"ĠShiite":7375,"TBN":7376,"Aston":7377,"Báº¯c":7378,"Dav":7379,"LC":7380,"Mc":7381,"Quy":7382,"uf":7383,"wait":7384,"Ġhip":7385,"Ġtruáº¥t":7386,"ĠgÃ¡y":7387,"quy":7388,"Ġquáº¿":7389,"ĠCT":7390,"ĠBM":7391,"ĠÄĲÃ¡nh":7392,"ĠLip":7393,"ThÆ°a":7394,"asa":7395,"edorf":7396,"lins":7397,"ĠKeane":7398,"arqawi":7399,"ÃĶ":7400,"ĠcÃło":7401,"ĠcÃºc":7402,"Ġvne":7403,"ĠsÃ¡p":7404,"Ġná»Ľi":7405,"ĠÄĲÆ°Æ¡ng":7406,"ĠLÃ²":7407,"onen":7408,"ĠCháº¥p":7409,"ĠDid":7410,"Ġbá»Ľi":7411,"ĠPhÃ¹":7412,"esar":7413,"ĠWi":7414,"Ġxoang":7415,"ĠCDMA":7416,"HÄĲXX":7417,"ĠAngeles":7418,"ĠLouis":7419,"Dá»ĭch":7420,"Lazio":7421,"Ġbáº¹p":7422,"ĠngÃ¹i":7423,"ĠTháº§n":7424,"ĠGetafe":7425,"ÄĲÆ°á»Ŀng":7426,"Ġtuá»ĵng":7427,"ĠIM":7428,"ĠÃĲ":7429,"ardi":7430,"ardino":7431,"iku":7432,"Ġ1985":7433,"giÃ¢y":7434,"ears":7435,"ĠBrown":7436,"valho":7437,"ĠTurin":7438,"\":":7439,"Máº¹":7440,"NÃ³":7441,"Ġom":7442,"ĠvÃ¡ng":7443,"Ġmot":7444,"Ġriáº¿t":7445,"ĠCÃº":7446,"ĠÄĲoan":7447,"ĠSáº¯p":7448,"ĠChia":7449,"Ġbá»«a":7450,"ĠquyÃªn":7451,"ishi":7452,"Ngoáº¡i":7453,"ital":7454,"Nháº¡c":7455,"ĠLanka":7456,"ĠCarvalho":7457,"ĠSeedorf":7458,"eira":7459,"ĠMaldives":7460,"BÆ°u":7461,"DF":7462,"NÃªn":7463,"báº¯t":7464,"Ġnung":7465,"Ġgieo":7466,"ĠBi":7467,"ĠÄĲiá»ĩp":7468,"ĠÄĲá»©ng":7469,"ĠPac":7470,"ĠPenn":7471,"ĠATM":7472,"ĠKevin":7473,"ÄĲÃłi":7474,"emi":7475,"iago":7476,"Thiáº¿u":7477,"KhÃ¡c":7478,"SCT":7479,"ĠOpen":7480,"fred":7481,"lÃł":7482,"udo":7483,"ĠcÃ´i":7484,"Ġváº«y":7485,"ĠTuyáº¿n":7486,"ĠrÃ²ng":7487,"Ġngháº¹t":7488,"ĠPT":7489,"ĠRice":7490,"Ngá»įc":7491,"Ġkhá»ıa":7492,"ĠOracle":7493,"Ġplay":7494,"ĠRomania":7495,"ĠbÃªtÃ´ng":7496,"ĠWilliam":7497,"ĠAlberto":7498,"bledon":7499,"Charlton":7500,"ĠLopez":7501,"78":7502,"Sáº£n":7503,"gin":7504,"set":7505,"way":7506,"xÃ¬":7507,"Ġcáº³ng":7508,"Ġmáº¡":7509,"ĠnhÃ©t":7510,"ĠTuáº¥t":7511,"Ġrá»ķ":7512,"Äĥc":7513,"ĠVáº£i":7514,"ĠStr":7515,"ĠPo":7516,"ĠPGS":7517,"ĠDÃ²ng":7518,"ĠnÃ³c":7519,"ĠWed":7520,"ĠWith":7521,"ave":7522,"uman":7523,"2010":7524,"Ġxoáº¯n":7525,"ersburg":7526,"SCO":7527,"ĠAgribank":7528,"ladimir":7529,"ĠMasters":7530,"áº¢nh":7531,"ĠWimbledon":7532,"!\"":7533,"Tuáº§n":7534,"XP":7535,"oot":7536,"ĠsÃ²":7537,"Ġná»ī":7538,"Ġkhá»ĳn":7539,"ĠrÆ°á»Ľc":7540,"ĠHÃło":7541,"ĠBut":7542,"ĠMTV":7543,"ĠThÃ´n":7544,"Ġ220":7545,"ĠPost":7546,"ĠPjico":7547,"ĠKol":7548,"ĠGroup":7549,"ĠRáº¡ch":7550,"ily":7551,"uso":7552,"ĠJim":7553,"ĠInzaghi":7554,"TTH":7555,"exas":7556,"Argentina":7557,"ĠLarsson":7558,"?\"":7559,"Má»©c":7560,"khi":7561,"pan":7562,"rent":7563,"ĠÄĳÃ´n":7564,"ĠÄĳáº«m":7565,"ĠvÆ¡i":7566,"Ġláº¡ng":7567,"Ġláº±n":7568,"ĠmÆ°á»Ľn":7569,"Ġnga":7570,"ĠNiá»ģm":7571,"Ġxá»ķ":7572,"ĠxÄĥm":7573,"ĠBundesliga":7574,"ĠMÃ£i":7575,"ĠMut":7576,"á»¥ng":7577,"Ġ(?":7578,"ĠSup":7579,"ĠPao":7580,"ĠNhá»Ľ":7581,"ÄĲáº¡o":7582,"arraf":7583,"Trang":7584,"uss":7585,"ĠXNK":7586,"assi":7587,"egg":7588,"ĠBHYT":7589,"ĠAcer":7590,"ĠBallack":7591,"Kinh":7592,"hh":7593,"kov":7594,"national":7595,"Ġlaptop":7596,"ĠsÃºp":7597,"Ġpháº«n":7598,"ĠNat":7599,"ĠBá»Ńu":7600,"ĠÄĲÃ´n":7601,"ĠAch":7602,"ĠDiá»ħm":7603,"ĠPhiÃªn":7604,"olog":7605,"ĠFall":7606,"aki":7607,"ove":7608,"ĠMart":7609,"usharraf":7610,"eroon":7611,"ĠMessi":7612,"wondo":7613,"Ser":7614,"ToÃłn":7615,"Vá»«a":7616,"XB":7617,"han":7618,"vua":7619,"Ġlá»±u":7620,"Ġmáº£i":7621,"Ġmark":7622,"ĠTáº§n":7623,"ĠVÆ°á»Ŀn":7624,"amb":7625,"ĠSky":7626,"ĠKat":7627,"ĠDOC":7628,"ÄĲá»ĭa":7629,"...\"":7630,"Thuá»ĳc":7631,"TrÃ¡i":7632,"Ġtá»īa":7633,"ĠOÃ¡nh":7634,"PhÃº":7635,"ĠStuttgart":7636,"ĠGMD":7637,"ĠCristiano":7638,"74":7639,"98":7640,"hay":7641,"uter":7642,"Ġuáº¥t":7643,"Ġhá»ĳt":7644,"Ġbiáº¿m":7645,"ĠVÄĲ":7646,"ĠVia":7647,"ĠMessenger":7648,"ĠDÆ°á»Ŀng":7649,"ÄĲÃ¡nh":7650,"ĠUzbekistan":7651,"ĠID":7652,"ĠJoe":7653,"edu":7654,"ĠPirlo":7655,"ĠMohammed":7656,"ĠPleiku":7657,"Báº±ng":7658,"Mon":7659,"Southampton":7660,"cÅ©ng":7661,"loáº¡i":7662,"ĠmÃ¢m":7663,"Ġdá»©a":7664,"phen":7665,"ĠrÃ¡n":7666,"ĠPaulo":7667,"Ġradio":7668,"...),":7669,"ĠtoÃ¡t":7670,"ĠGilardino":7671,"Blackburn":7672,"ĠYukos":7673,"Brazil":7674,"Os":7675,"gia":7676,"Ġlay":7677,"ĠmÃ¡c":7678,"ĠmÃ¨":7679,"ĠnÃ´":7680,"ĠTai":7681,"ĠCaf":7682,"ĠThá»¥c":7683,"ĠTrÃ¬":7684,"ĠIl":7685,"Ġ750":7686,"ĠJak":7687,"Äĳáº·c":7688,"doom":7689,"Ġfor":7690,"Quá»³nh":7691,"Ġ1987":7692,"ĠBlue":7693,"Ġláº»o":7694,"ĠTimor":7695,"ĠJacques":7696,"Ġtestosterone":7697,"Udinese":7698,"Viá»ĩn":7699,"luc":7700,"Ġthá»ĳn":7701,"Ġháº¯t":7702,"ĠmÃŃt":7703,"Ġnit":7704,"Ġgá»įt":7705,"ĠngÃ³":7706,"eneg":7707,"Ġkhoanh":7708,"ĠRui":7709,"ĠFrid":7710,"idis":7711,"ĠArray":7712,"ĠMaradona":7713,"ĠMessina":7714,"Parma":7715,"73":7716,"?-":7717,"CI":7718,"DÃ¢n":7719,"Ġcomp":7720,"ĠÄ©":7721,"ĠvÃ©t":7722,"Ġhá»ĳc":7723,"Ġtrá»įc":7724,"ĠTÃ¹y":7725,"ĠNar":7726,"ĠMÃª":7727,"ĠTráº£":7728,"ĠTrÃ¡nh":7729,"ĠChan":7730,"ĠFat":7731,"acing":7732,"talia":7733,"Ġ1982":7734,"1997":7735,"ovakia":7736,"94":7737,"CÄĥn":7738,"Fran":7739,"HK":7740,"OS":7741,"ook":7742,"Ġtáº©m":7743,"Ġlá»ĳp":7744,"ĠHTV":7745,"ĠQue":7746,"ĠQuáºŃn":7747,"ĠJang":7748,"dovic":7749,"ĠÃĤn":7750,"rix":7751,"ToÃł":7752,"ĠUnivers":7753,"ĠFriday":7754,"Ad":7755,"BÃŃ":7756,"Cá»¥c":7757,"SL":7758,"YÃªu":7759,"ĠuyÃªn":7760,"ĠÄĳÆ°Æ¡":7761,"Ġláº©u":7762,"ĠTB":7763,"ĠTá»«ng":7764,"ĠNov":7765,"ĠxÆ°á»Ľc":7766,"ĠxÃ´n":7767,"ĠVik":7768,"ĠLÄ©nh":7769,"ĠDan":7770,"ĠDong":7771,"esh":7772,"âĢĿ...":7773,"á»ım":7774,"Trá»įng":7775,"Chá»ĵng":7776,"ĠZh":7777,"Ġcopy":7778,"PTNT":7779,"indh":7780,"oshiba":7781,"ĠKashmir":7782,"TáºŃp":7783,"cy":7784,"fu":7785,"las":7786,"Ġcá»ĵng":7787,"ĠhÄĥm":7788,"ĠÄĳá»į":7789,"quang":7790,"ĠNÃłng":7791,"Ġhá»©c":7792,"ĠSampdoria":7793,"ĠDÅ©":7794,"arus":7795,"ican":7796,"Ġ240":7797,"ĠPerez":7798,"ĠCeltic":7799,"ĠJones":7800,"Ġcarbon":7801,"Ġmarketing":7802,"Bres":7803,"LO":7804,"MÃ³n":7805,"Willi":7806,"bÃ¬nh":7807,"bÃ¡n":7808,"ĠĠĊ":7809,"ĠvÃ²m":7810,"Ġluyáº¿n":7811,"Ġnoi":7812,"Ġdiá»ģu":7813,"ĠHÃ²n":7814,"ĠHá»ıi":7815,"ĠMá»ĳi":7816,"ĠMusharraf":7817,"erder":7818,"ÄĲÃłn":7819,"áº¹c":7820,"Ãµng":7821,"Ġthoi":7822,"itch":7823,"ign":7824,"Ġtá»¥y":7825,"udio":7826,"akaay":7827,"ĠVAT":7828,"At":7829,"FC":7830,"UBND":7831,"Wh":7832,"bat":7833,"hai":7834,"new":7835,"wang":7836,"ĠÃ¹n":7837,"ĠcháºŃp":7838,"ĠchÆ°á»Ľng":7839,"ĠsÃ¡o":7840,"Ġgáº§m":7841,"ĠTexas":7842,"quin":7843,"Ġreo":7844,"chiáº¿n":7845,"ĠThá»īnh":7846,"ungberg":7847,"ĠTrá»Ł":7848,"ÄĲÃ¡ng":7849,"oro":7850,"ition":7851,"Ġ96":7852,"uez":7853,"NLÄĲO":7854,"Ġ1983":7855,"Ġlá»ģu":7856,"Ġhormone":7857,"AD":7858,"AR":7859,"Máº¥y":7860,"QuÃ¢n":7861,"ft":7862,"kÃŃp":7863,"tra":7864,"ĠÄĳÃºp":7865,"ĠgáºŃt":7866,"ĠTop":7867,"ĠCy":7868,"ĠCagliari":7869,"ĠHá»ıa":7870,"ĠBiá»ĥu":7871,"ĠÄĲáº·t":7872,"ĠSouth":7873,"ascar":7874,"thÃłnh":7875,"try":7876,"Ġngá»§i":7877,"Ġ1989":7878,"earch":7879,"ĠAndrew":7880,"ĠKuwait":7881,"ĠAmerica":7882,"indhoven":7883,"Bá»ĵ":7884,"Rá»ĵi":7885,"WTO":7886,"fe":7887,"nic":7888,"ĠcÃ¹":7889,"ĠÄĳá»ĳ":7890,"Ġsá»Łi":7891,"ĠngÃ¡y":7892,"ĠTC":7893,"ĠquáºŃy":7894,"aya":7895,"ĠMáº«n":7896,"ĠTháº¡c":7897,"aobi":7898,"ĠSiena":7899,"ĠItalia":7900,"ĠKhÃ¡c":7901,"rol":7902,"ĠWood":7903,"ĠJenn":7904,"Ġ93":7905,"ĠThuÃ½":7906,"anda":7907,"achi":7908,"Ġ1979":7909,"EFL":7910,"ĠNSÆ¯T":7911,"83":7912,"Bay":7913,"XÃ©t":7914,"coli":7915,"word":7916,"ĠlÃ¹n":7917,"ĠchÃ¨n":7918,"Ġna":7919,"ĠTuyá»ģn":7920,"ĠMÃ¹i":7921,"ĠMakaay":7922,"ĠSung":7923,"ĠAra":7924,"Ġthun":7925,"ĠIg":7926,"ĠIm":7927,"ĠKhÃ¡m":7928,"Ġkhuáº¥y":7929,"ĠGiáº£":7930,"ĠJam":7931,"thá»Ŀi":7932,"agel":7933,"ĠLuxem":7934,"ierry":7935,"ĠColle":7936,"ĠDavis":7937,"ĠCameroon":7938,"ĠSyd":7939,"ĠSVÄĲ":7940,"ĠBuÃ´n":7941,"áº¤n":7942,"cedes":7943,"ĠLjungberg":7944,"ĠSaint":7945,"Brescia":7946,"ji":7947,"work":7948,"Ġthung":7949,"ĠrÆ°á»£t":7950,"ĠCÃ¡n":7951,"ĠMir":7952,"ĠLá»¯":7953,"ĠSom":7954,"áº«ng":7955,"ĠGand":7956,"elle":7957,"ĠKhá»ĳi":7958,"Triá»ĥn":7959,"uri":7960,"ĠcÃºi":7961,"TTQ":7962,"Ġnháº¹n":7963,"ĠSystem":7964,"ĠFrancesco":7965,"nesday":7966,"ĠSunderland":7967,"ĠWednesday":7968,"Há»ıi":7969,"QL":7970,"TuyÃªn":7971,"Villarreal":7972,"nt":7973,"rat":7974,"right":7975,"Ġmáº«n":7976,"ĠLÃ¢u":7977,"ĠKÃŃnh":7978,"ĠKahn":7979,"ĠChá»©":7980,"Ġbá»ĩ":7981,"âĢĿ:":7982,"ĠHoáº¡t":7983,"evo":7984,"talan":7985,"ĠPetersburg":7986,"ĠOtto":7987,"ĠPacific":7988,"ĠSydney":7989,"Bayern":7990,"Fi":7991,"Tuyá»ĥn":7992,"war":7993,"yware":7994,"ngá»¥":7995,"Ġcá»ıi":7996,"Ġváº¯c":7997,"Ġbá»¥c":7998,"Ġsáº«m":7999,"ĠgiÃ¹m":8000,"Æ°á»£m":8001,"ĠHaw":8002,"chiáº¿m":8003,"ĠDub":8004,"âĢĿ!":8005,"orge":8006,"ĠIV":8007,"ĠEindhoven":8008,"Äĳiá»ĥm":8009,"aves":8010,"ĠMary":8011,"tour":8012,"Ġ170":8013,"ĠTelec":8014,"ĠVinaphone":8015,"ĠJackson":8016,"Ġserver":8017,"\"!":8018,"Mai":8019,"Sp":8020,"TÃ¢m":8021,"WHO":8022,"Ġvung":8023,"Ġsal":8024,"Ġgá»ıi":8025,"Ġdáº·m":8026,"Ġphui":8027,"ĠTrÃłng":8028,"Ġyáº¿n":8029,"ĠtuÃ´ng":8030,"orld":8031,"Ġ1960":8032,"urt":8033,"unt":8034,"Äĳiá»ģu":8035,"ult":8036,"ream":8037,"aine":8038,"ifer":8039,"ffet":8040,"ĠbÆ°á»Ľu":8041,"ĠBÄĲS":8042,"ĠTOEFL":8043,"ĠDidier":8044,"LÃło":8045,"rin":8046,"Ġá»©":8047,"ĠbÃªnh":8048,"áº¥ng":8049,"Ġxáº¯t":8050,"ĠCáº§m":8051,"ĠBah":8052,"Ġgiá»ı":8053,"ĠDonald":8054,"ĠRáºŃp":8055,"ĠUá»ĳng":8056,"ĠLeon":8057,"ĠZe":8058,"150":8059,"oxin":8060,"uck":8061,"And":8062,"ĠHarv":8063,"ĠCairo":8064,"Net":8065,"sao":8066,"Ġcáº¥n":8067,"ĠhÃ©":8068,"Ġsáº£ng":8069,"Ġsho":8070,"Ġngá»¥c":8071,"ĠTak":8072,"ĠNesta":8073,"ĠLive":8074,"ĠSec":8075,"ĠPort":8076,"ĠPDA":8077,"inson":8078,"ĠKhÃª":8079,"ĠKhoan":8080,"etto":8081,"asp":8082,"olas":8083,"ĠInternational":8084,"ĠRobinho":8085,"1996":8086,"ĠOliv":8087,"ullah":8088,"ĠGandhi":8089,"Is":8090,"Káº¿":8091,"Ġváº¯n":8092,"Ġkiá»ĥng":8093,"ĠnáºŃu":8094,"ĠngÃ³ng":8095,"ĠTang":8096,"ĠTÃ²ng":8097,"ĠTol":8098,"Ġxua":8099,"ĠHiáº¿n":8100,"ĠBay":8101,"ĠSin":8102,"Ġhoáº£":8103,"ĠChar":8104,"hio":8105,"Khá»Łi":8106,"ĠMalaga":8107,"ekwondo":8108,"ĠSoph":8109,"Doanh":8110,"ĠnhoÃ¡ng":8111,"ĠtuÃ½p":8112,"Philippines":8113,"'',":8114,"IM":8115,"ht":8116,"sday":8117,"Ġcat":8118,"Ġcáº·n":8119,"Ġváº£y":8120,"ĠchÃ¡t":8121,"Ġmic":8122,"ĠnhÃ´m":8123,"ĠNap":8124,"ĠCech":8125,"ĠVer":8126,"ĠTrá»Ŀi":8127,"ĠKo":8128,"iak":8129,"ela":8130,"ĠKhan":8131,"ChÃºc":8132,"ĠGian":8133,"ati":8134,"ĠEcuador":8135,"apat":8136,"ĠSerge":8137,"ĠServer":8138,"ĠDelta":8139,"eiro":8140,"ĠStef":8141,"510":8142,"86":8143,"Dáº¡":8144,"Sevilla":8145,"VÃłi":8146,"Xe":8147,"tÃ´i":8148,"ĠlÃ¬":8149,"Ġbáº§y":8150,"Ġsáº·c":8151,"Ġdáº³ng":8152,"ĠCáº¯t":8153,"cha":8154,"ĠMiss":8155,"ĠSÆ°Æ¡ng":8156,"ĠAsia":8157,"ĠChal":8158,"ĠQK":8159,"elt":8160,"Chá»įn":8161,"Ġ91":8162,"ĠOut":8163,"ĠOPEC":8164,"Äĳang":8165,"ivia":8166,"ument":8167,"ipe":8168,"tech":8169,"ĠLudovic":8170,"oco":8171,"ĠMydoom":8172,"ĠValent":8173,"ĠGDÄĲT":8174,"ĠAmaobi":8175,"ĠPlaza":8176,"Bush":8177,"IS":8178,"sc":8179,"sters":8180,"ĠbÃ³i":8181,"Ġsáº¡p":8182,"Ġkha":8183,"phÆ°á»Ŀng":8184,"ĠrÃ¡t":8185,"ĠrÃ³t":8186,"ĠVis":8187,"ĠMur":8188,"ĠÄĲáº«y":8189,"ĠSuá»ĳi":8190,"ĠTriáº¿t":8191,"ĠKÃ½":8192,"ĠGÃ³c":8193,"ĠREE":8194,"iva":8195,"regas":8196,"essandro":8197,"toya":8198,"ĠChievo":8199,"Ġruá»ĵi":8200,"ĠSteve":8201,"ĠThursday":8202,"ĠVictoria":8203,"ĠMutu":8204,"talanta":8205,"DN":8206,"Sc":8207,"cuá»Ļc":8208,"td":8209,"uters":8210,"ys":8211,"ĠcÃµi":8212,"ĠvÃ²":8213,"Ġnháº£":8214,"Ġst":8215,"Ġsá»ī":8216,"ĠgÃłng":8217,"Ġngáº«m":8218,"Ġdong":8219,"ĠdÃ£i":8220,"Ġpho":8221,"Ġtá»³":8222,"ĠHá»ķ":8223,"ĠHor":8224,"ĠHáº¯n":8225,"ĠVáº£":8226,"ĠTráº¡i":8227,"ĠDá»«a":8228,"Ġ320":8229,"ĠRio":8230,"apt":8231,"Ġ230":8232,"Giao":8233,"Ġvá»ın":8234,"ĠAFP":8235,"ĠNASA":8236,"David":8237,"VKS":8238,"gate":8239,"konen":8240,"lash":8241,"Ġvun":8242,"Ġváº¹o":8243,"ĠTuÃ¢n":8244,"Ġquáº»":8245,"ĠrÄĥn":8246,"ĠNLÄĲ":8247,"ĠVa":8248,"ĠBÄĥng":8249,"ĠÄĲÄĥk":8250,"onna":8251,"ilm":8252,"avi":8253,"ĠAlbum":8254,"assword":8255,"ooth":8256,"ĠHee":8257,"----":8258,"ĠFlorida":8259,"ĠCafu":8260,"BÃ³ng":8261,"Ná»Ļi":8262,"Sai":8263,"gado":8264,"tÃłi":8265,"tact":8266,"vá»£":8267,"Ġá»ī":8268,"Ġcau":8269,"ĠtrÃ³i":8270,"ĠsÆ°á»Łi":8271,"Ġngáº©n":8272,"ĠTe":8273,"ĠToshiba":8274,"ĠrÃ¹a":8275,"ĠCard":8276,"ĠHQ":8277,"ĠVladimir":8278,"ĠBy":8279,"ĠMTTQ":8280,"Æ°Æ¡u":8281,"ĠLá»¥c":8282,"Ġmá»Ľ":8283,"ĠSaw":8284,"inn":8285,"ĠChÃ¹a":8286,"ĠPhá»ķ":8287,"atch":8288,"tráº»":8289,"ĠRehh":8290,"abri":8291,"giÃ¡":8292,"ĠMcC":8293,"ĠAgassi":8294,"ĠSunni":8295,"dioxin":8296,"ĠMartins":8297,"ĠMercedes":8298,"ĠRafael":8299,"ĠHassan":8300,"ĠWithe":8301,"ĠRehhagel":8302,"Camp":8303,"CQÄĲT":8304,"Há»ĵ":8305,"John":8306,"TÃłu":8307,"báº±ng":8308,"ping":8309,"Ġ/":8310,"Ġtá»§y":8311,"Ġmoi":8312,"Ġquai":8313,"ĠgiÃ¡ng":8314,"ĠgiÃªng":8315,"ĠCÃ´n":8316,"ĠCost":8317,"Ġhá»ħ":8318,"Ġchá»ķ":8319,"ĠBT":8320,"ĠThá»Ń":8321,"ĠPTTH":8322,"ĠNguy":8323,"ere":8324,"ĠChai":8325,"ĠNhiÃªn":8326,"ĠGui":8327,"ĠPhn":8328,"ĠQuáº§n":8329,"uno":8330,"ÄĳÆ¡n":8331,"Pháº¡m":8332,"ĠParaguay":8333,"ĠJohnson":8334,"Ġclick":8335,"ĠBrunei":8336,"ĠVideo":8337,"ascara":8338,"GÃ²":8339,"Mess":8340,"Váº«n":8341,"cáº£":8342,"ká»ĥ":8343,"tÃŃnh":8344,"Ġcá»Ļ":8345,"Ġlon":8346,"Ġlip":8347,"Ġlink":8348,"ĠhÅ©":8349,"Ġdáº«u":8350,"ĠCÆ¡n":8351,"ĠHuyá»ĩn":8352,"ĠVÃ¹ng":8353,"Ġ112":8354,"ĠMod":8355,"âĢ¢":8356,"ĠKaz":8357,"ator":8358,"ther":8359,"ĠReuters":8360,"ĠZan":8361,"Ġtrá»¥y":8362,"Ġmuon":8363,"ĠDavids":8364,"ĠCruz":8365,"ĠMoore":8366,"aikkonen":8367,"ĠGallas":8368,"ER":8369,"Game":8370,"cao":8371,"dá»±":8372,"lÆ°á»£t":8373,"ment":8374,"vin":8375,"vis":8376,"ĠtÃ©p":8377,"ĠkÃ¬nh":8378,"ĠkÃ¨o":8379,"Ġmascara":8380,"Ġnháº±n":8381,"pha":8382,"ĠTTVN":8383,"ĠVeron":8384,"ĠMik":8385,"ĠRAM":8386,"ĠKhÆ°Æ¡ng":8387,"Thi":8388,"ĠExpress":8389,"ĠWolf":8390,"ĠvÃ´lÃª":8391,"ĠOle":8392,"ĠOffice":8393,"Ġ115":8394,"ĠBlack":8395,"ĠMonday":8396,"ĠMontella":8397,"ĠViagra":8398,"87":8399,"Gh":8400,"Pal":8401,"ean":8402,"iola":8403,"tec":8404,"vÃ´":8405,"ĠtÃ²i":8406,"ĠthÃªu":8407,"Ġnhá»ĳt":8408,"Ġcá»§i":8409,"chuyÃªn":8410,"ĠBÃ¡t":8411,"ĠBá»įn":8412,"ĠThá»©c":8413,"ami":8414,"ĠSak":8415,"ĠSven":8416,"ĠPic":8417,"ÄĲa":8418,"ĠIC":8419,"Thiáº¿t":8420,"ilton":8421,"á»£n":8422,"ĠJin":8423,"ĠYang":8424,"ĠkÃ©n":8425,"ĠOhio":8426,"KhÃ³":8427,"ĠHuda":8428,"teur":8429,"ĠClij":8430,"Nghe":8431,"ĠCPU":8432,"instein":8433,"ĠTorres":8434,"ĠBritney":8435,"ĠNadal":8436,"CÄĲ":8437,"Lá»±c":8438,"mÃ´n":8439,"Ġestrogen":8440,"Ġcent":8441,"Ġtráº§u":8442,"ĠnhÄ©":8443,"Ġsá»§a":8444,"ĠgáºŃp":8445,"ĠquÄ©":8446,"Ġgiáº¥m":8447,"ĠNÃºi":8448,"ĠNep":8449,"ĠMÆ¡":8450,"ĠMits":8451,"ĠÄĲáº§m":8452,"ĠLÃłng":8453,"ĠLá»ĳi":8454,"esi":8455,"els":8456,"2007":8457,"icon":8458,"ĠGiÃłu":8459,"ato":8460,"tháº¯ng":8461,"ĠOk":8462,"Ġ113":8463,"ĠÃ´xy":8464,"ĠquÃ½t":8465,"asso":8466,"ĠValdes":8467,"ĠMontoya":8468,"Ġ1972":8469,"enna":8470,"ĠEll":8471,"Ġmá»ĵm":8472,"ĠLarry":8473,"ĠBelarus":8474,"ĠMaldini":8475,"sterdam":8476,"LTS":8477,"Zarqawi":8478,"bÃł":8479,"bay":8480,"rai":8481,"táº¡i":8482,"tion":8483,"ual":8484,"Ãįt":8485,"Ġtennis":8486,"ĠcáºŃt":8487,"ĠcÃ²ng":8488,"Ġbai":8489,"Ġneo":8490,"ĠnÃ¡ch":8491,"Ġgiáº±ng":8492,"ĠVigo":8493,"ĠMua":8494,"ĠLav":8495,"Ġmá»©t":8496,"inardi":8497,"ĠKCN":8498,"ence":8499,"arth":8500,"esc":8501,"ĠRau":8502,"ĠRes":8503,"ĠHoan":8504,"add":8505,"á»ģu":8506,"andy":8507,"ĠAlfred":8508,"âĢ¦âĢĿ.":8509,"icky":8510,"Giá»ĳng":8511,"Giá»¯a":8512,"ĠWhite":8513,"ĠClijsters":8514,"!âĢĿ":8515,"CÃ¢y":8516,"LÆ°u":8517,"Nor":8518,"Ra":8519,"Regg":8520,"Zaragoza":8521,"cÃ¡ch":8522,"Ġtháº±n":8523,"Ġhe":8524,"ĠhÃ¡n":8525,"Ġnhá»ī":8526,"ĠTCT":8527,"quel":8528,"Ġray":8529,"Ġráº§y":8530,"ĠVá»įng":8531,"ĠMáº¥t":8532,"Ġmá»³":8533,"ĠSus":8534,"ĠDec":8535,"ÄĲan":8536,"imer":8537,"ĠRec":8538,"Nhá»Ŀ":8539,"trung":8540,"Ġ128":8541,"ilefu":8542,"Ġ1981":8543,"Ġspyware":8544,"Manchester":8545,"ĠJavier":8546,"Schumacher":8547,"');":8548,"Bet":8549,"Can":8550,"Esp":8551,"OL":8552,"Sá»©c":8553,"Tá»Ŀ":8554,"oáº¡t":8555,"ĠÃ¡t":8556,"ĠmÃło":8557,"Ġdiá»ħu":8558,"ĠrÃłnh":8559,"Ġroi":8560,"ĠNG":8561,"ĠHT":8562,"ĠHá»Ĺ":8563,"ĠBáº§u":8564,"ĠÄĲá»īnh":8565,"á»¥i":8566,"Ġhoay":8567,"ĠAB":8568,"ĠPháº¥n":8569,"ĠRad":8570,"ChÃ¡u":8571,"ĠEng":8572,"ĠHot":8573,"oss":8574,"tráºŃn":8575,"trá»«":8576,"Phone":8577,"ector":8578,"ĠCann":8579,"1995":8580,"ĠChuáº©n":8581,"ĠFabregas":8582,"ĠBoro":8583,"ĠNATO":8584,"ĠNobel":8585,"Äĥcxin":8586,"Reggina":8587,"NS":8588,"ga":8589,"gáº§n":8590,"káº»":8591,"nay":8592,"sÃ¢n":8593,"uer":8594,"Ġcháº¯p":8595,"Ġbung":8596,"Ġsi":8597,"Ġsáº¯n":8598,"ĠngÃł":8599,"quez":8600,"Ġthá»«ng":8601,"ĠNXB":8602,"ĠBac":8603,"ĠBapt":8604,"ĠThierry":8605,"ĠLáº½":8606,"ĠLaw":8607,"ĠNhiá»ĩt":8608,"ĠNhiá»ĩm":8609,"ĠDao":8610,"ema":8611,"itan":8612,"Ġbuffet":8613,"ĠAmsterdam":8614,"anni":8615,"attuso":8616,"ĠAhmed":8617,"ĠMahm":8618,"tainer":8619,"illips":8620,"').":8621,".\"":8622,"BI":8623,"LÃ£nh":8624,"Siena":8625,"bar":8626,"dar":8627,"máº¥t":8628,"siÃªu":8629,"Ġcháº§n":8630,"ĠchiÃªng":8631,"Ġsáº£":8632,"Ġnáº¯n":8633,"ĠTá»ī":8634,"ĠCur":8635,"ĠVP":8636,"ĠnghÃ©n":8637,"ĠThua":8638,"ĠPers":8639,"ĠAp":8640,"ĠKlins":8641,"ĠChá»¯":8642,"ĠNhÃłn":8643,"enport":8644,"elele":8645,"Cháº¯c":8646,"isse":8647,"ĠWill":8648,"Ġ105":8649,"NgÆ°á»£c":8650,"ĠYong":8651,"ido":8652,"Äĳan":8653,"iani":8654,"ĠAsian":8655,"ĠSean":8656,"ĠRossi":8657,"ĠLibya":8658,"ĠCelta":8659,"ĠSaviola":8660,"BAR":8661,"Ġpolymer":8662,"ĠDisney":8663,"enborg":8664,"Michael":8665,"ĠViktor":8666,"ĠHarvard":8667,"iakos":8668,"250":8669,"77":8670,"HS":8671,"Liá»ĩu":8672,"Sent":8673,"ckh":8674,"eing":8675,"kamp":8676,"mÃ¡y":8677,"sá»ĳng":8678,"uar":8679,"ĠvÄĥcxin":8680,"ĠthÃ©t":8681,"Ġláº§y":8682,"ĠbÃ¨o":8683,"ĠmÃ¡ch":8684,"Ġsáº§u":8685,"Ġsuyá»ħn":8686,"ĠnáºŃp":8687,"Ġnáº·c":8688,"Ġdáº·t":8689,"Ġphen":8690,"ĠphÃ¨n":8691,"ĠráºŃp":8692,"ĠVista":8693,"ĠTháº©m":8694,"ĠChic":8695,"ĠChuyáº¿n":8696,"ĠGattuso":8697,"ÄĲiá»ĩn":8698,"ÄĲÃ¡p":8699,"emer":8700,"ĠRock":8701,"áº³m":8702,"ette":8703,"ĠThuáº§n":8704,"ĠHamburg":8705,"athan":8706,"ĠPasteur":8707,"\")":8708,"CÆ¡n":8709,"MÃłu":8710,"Porto":8711,"bá»ĵi":8712,"sien":8713,"vo":8714,"ĠkÃ©t":8715,"ĠtrÃ¨o":8716,"Ġkhiáº¿t":8717,"ĠrÃ´":8718,"ĠNá»Ĺi":8719,"ĠBÃ¡i":8720,"ĠMen":8721,"ĠÄĲáº¯k":8722,"Ġmá»ĵng":8723,"ĠKir":8724,"ĠUl":8725,"ĠKha":8726,"ild":8727,"ĠGiáº£ng":8728,"ĠFuj":8729,"ĠWall":8730,"ĠWoo":8731,"udetto":8732,"Ġ1976":8733,"ĠVirus":8734,"ĠMakelele":8735,"ĠAviv":8736,"ĠVHTT":8737,"Monaco":8738,"ĠBahrain":8739,"Biáº¿t":8740,"Cel":8741,"CáºŃu":8742,"DOC":8743,"Sampdoria":8744,"gie":8745,"háºŃu":8746,"lon":8747,"lÃŃt":8748,"mg":8749,"ÃĢ":8750,"Ġtie":8751,"Ġcá»Ļi":8752,"ĠÄĳÃ¹ng":8753,"Ġnhá»īnh":8754,"ĠgÆ°á»£ng":8755,"Ġque":8756,"ĠráºŃm":8757,"ĠrÃ£nh":8758,"ĠBus":8759,"ĠMetro":8760,"ĠÄĲá»ĳc":8761,"ĠÄĲá»ķi":8762,"ĠChá»©c":8763,"ĠDL":8764,"Ġlogo":8765,"esday":8766,"ime":8767,"Ġngoáº·c":8768,"ustin":8769,"ĠYu":8770,"khu":8771,"Ġinox":8772,"ĠChá»īnh":8773,"aily":8774,"ĠASEM":8775,"ĠFerreira":8776,"letic":8777,"ĠHarry":8778,"ĠTuesday":8779,"ĠAshley":8780,"bourg":8781,"Atletico":8782,"Betis":8783,"91":8784,"Bá»©c":8785,"Lá»£i":8786,"QH":8787,"gen":8788,"mund":8789,"ÃĬ":8790,"Ġtáº£o":8791,"nháº¥t":8792,"ĠkÃŃp":8793,"ĠbÃºp":8794,"Ġbiáº¿ng":8795,"ĠtrÃ²ng":8796,"Ġsá»¥c":8797,"ĠTá»ĭnh":8798,"ĠHáº¡n":8799,"ĠThÃŃch":8800,"ĠThÃ¡m":8801,"ĠLivorno":8802,"Ġbá»ĭch":8803,"ĠChá»¯a":8804,"usal":8805,"Ġcá»Ńu":8806,"Ġnhuáº§n":8807,"ĠRegg":8808,"ĠColin":8809,"Ġcá»«u":8810,"ĠTGÄĲ":8811,"QÄĲ":8812,"fa":8813,"nia":8814,"pin":8815,"zo":8816,"Ġlá»Ļc":8817,"Ġbe":8818,"ĠmáºŃu":8819,"ĠnhÃ¡y":8820,"Ġnáº§n":8821,"ĠCÃºc":8822,"ĠComm":8823,"cháº¥t":8824,"ĠBá»ı":8825,"ĠMang":8826,"ĠÄĲáº£o":8827,"á»¥p":8828,"ĠNgá»į":8829,"eop":8830,"ÄĲÆ¡n":8831,"ĠRaikkonen":8832,"...\",":8833,"Cha":8834,"ison":8835,"ĠWerder":8836,"tháº§n":8837,"Äĳá»Ļc":8838,"ulli":8839,"iew":8840,"berto":8841,"ĠIslam":8842,"avaro":8843,"ĠEdu":8844,"ĠhÃ²m":8845,"jaer":8846,"ĠRyan":8847,"ĠTelecom":8848,"ĠNepal":8849,"ĠReggina":8850,"81":8851,"97":8852,"Fiorentina":8853,"Ferr":8854,"LÃ¢m":8855,"bie":8856,"cal":8857,"Ġáº£":8858,"Ġháº«ng":8859,"Ġmeg":8860,"Ġngáº¡o":8861,"ĠTá»Ŀ":8862,"ĠHuyÃªn":8863,"Æ°á»Ľu":8864,"ĠBast":8865,"ĠMáº¡c":8866,"ĠMÅ©i":8867,"ĠÄĲua":8868,"ĠThÆ°a":8869,"ĠLas":8870,"ĠLÃ£o":8871,"ĠTranh":8872,"ĠNgÅ©":8873,"ĠChen":8874,"ĠDig":8875,"Ġ97":8876,"120":8877,"eban":8878,"rey":8879,"ĠShin":8880,"ĠEmerson":8881,"ĠTHCN":8882,"ucci":8883,"ankovic":8884,"ĠEdward":8885,"Ġ1968":8886,"brotta":8887,"Ãģo":8888,"ĠADSL":8889,"ĠÄĳá»Ŀm":8890,"ĠJennifer":8891,"tourist":8892,"Campuchia":8893,"hÆ¡n":8894,"lat":8895,"main":8896,"ÃĤ":8897,"ĠÄĳiá»ģm":8898,"ĠchÃłi":8899,"ĠchÃ²i":8900,"ĠsÃło":8901,"Ġná»©c":8902,"ĠTÃ´m":8903,"Ġri":8904,"ĠxÃ¹":8905,"ĠCast":8906,"ĠCesar":8907,"ĠVTC":8908,"ĠÄĲau":8909,"ĠChris":8910,"ĠDj":8911,"ĠDal":8912,"imi":8913,"imbank":8914,"ChÃº":8915,"ChÃ¢u":8916,"ĠJung":8917,"NgÃłnh":8918,"ulo":8919,"ĠMarco":8920,"ĠIss":8921,"ĠGiá»ĳng":8922,"own":8923,"ĠHenman":8924,"ĠAdv":8925,"skina":8926,"ĠHein":8927,"ĠVicente":8928,"ĠNHÄĲÃģ":8929,"NESCO":8930,"Chuáº©n":8931,"ĠCollege":8932,"quelme":8933,"ĠBaptista":8934,"?.":8935,"?âĢĿ":8936,"Col":8937,"DR":8938,"GA":8939,"TÃ²a":8940,"Tiáº¿ng":8941,"bus":8942,"band":8943,"cam":8944,"diá»ħn":8945,"had":8946,"ĠcÄĥm":8947,"ĠÄĳáº½":8948,"ĠliÃªu":8949,"ĠchÃłm":8950,"Ġsá»Ļ":8951,"Ġsá»©t":8952,"ĠngÃ²":8953,"Ġnganh":8954,"ĠngÃ¡ch":8955,"Ġvá»Ľ":8956,"ĠrÃªu":8957,"ĠNT":8958,"ĠCE":8959,"ĠCáº£i":8960,"ĠCre":8961,"chÆ¡i":8962,"ĠBig":8963,"ĠBab":8964,"ĠSto":8965,"ese":8966,"ĠReb":8967,"Ġ550":8968,"ThÃ¢n":8969,"ilo":8970,"Cháº¥t":8971,"ĠEVN":8972,"ols":8973,"Ġ05":8974,"ĠAlpi":8975,"ĠLeeds":8976,"ĠRoman":8977,"Quá»·":8978,"mart":8979,"ĠDavenport":8980,"........":8981,"ĠPanathinaikos":8982,"Alb":8983,"ĠAlbert":8984,"ĠNHÄĲA":8985,"ĠZambrotta":8986,"ĠUniversity":8987,"ĠZanetti":8988,"Sá»Ń":8989,"TAND":8990,"petro":8991,"ĠÄĳiá»ĥu":8992,"ĠmÃºt":8993,"Ġnhang":8994,"Ġnen":8995,"Ġdá»ım":8996,"Ã¢t":8997,"ĠNan":8998,"ĠHi":8999,"ĠHÆ°á»Ľng":9000,"chim":9001,"ĠSof":9002,"ĠSud":9003,"ĠDV":9004,"ĠPhá»¥c":9005,"imp":9006,"ĠRáº¡ng":9007,"ĠFox":9008,"ita":9009,"thá»§":9010,"agen":9011,"lecht":9012,"toni":9013,"ote":9014,"Kho":9015,"giÃ¡m":9016,"ĠBoeing":9017,"earer":9018,"ĠVinc":9019,"ĠMoz":9020,"ĠnoÃ£n":9021,"ĠAllawi":9022,"ĠDynamo":9023,"ĠLippi":9024,"ĠAchilefu":9025,"ĠFatah":9026,"Espanyol":9027,"ĠKlinsmann":9028,"ĠChicago":9029,"!).":9030,"NV":9031,"Náº¡n":9032,"TÃłi":9033,"bá»ĩnh":9034,"hÃłnh":9035,"lic":9036,"tá»īnh":9037,"ĠtÃł":9038,"Ġtáº±m":9039,"Ġhá»§":9040,"Ġtrá»ı":9041,"Ġnháº½":9042,"Ġnhá»«":9043,"ĠnÃ´i":9044,"ĠngÆ°Æ¡i":9045,"Ġquáº¥t":9046,"ĠHÃ¡n":9047,"ĠMáº«u":9048,"ĠÄĲáº¥y":9049,"ĠÄĲÃ¡m":9050,"ĠÄĲá»©a":9051,"ĠThÃ¬":9052,"iaz":9053,"Ġ420":9054,"ĠKhat":9055,"Nháº±m":9056,"thu":9057,"ĠAnfield":9058,"ĠÃģp":9059,"ako":9060,"ĠThuáºŃt":9061,"ĠNghá»ģ":9062,"ofi":9063,"Giai":9064,"ĠShearer":9065,"ĠBrian":9066,"ĠBluet":9067,"1993":9068,"ĠDelle":9069,"ĠSlovakia":9070,"ĠMohamed":9071,"ĠBoris":9072,"ĠGreen":9073,"ĠTechn":9074,"Middlesbrough":9075,"Ná»Ĺi":9076,"RE":9077,"báº¥t":9078,"cá»ĳ":9079,"eon":9080,"tan":9081,"Ġthiá»ģn":9082,"ĠchÃ¡c":9083,"Ġbá»Ł":9084,"ĠsÃłi":9085,"Ġnu":9086,"ĠCá»Ŀ":9087,"á»ĭu":9088,"ĠViÃªm":9089,"ĠBak":9090,"ĠMeg":9091,"ĠSÃ¡ch":9092,"ĠSenna":9093,"Ġgiá»Ł":9094,"ĠKal":9095,"ĠDáº¡":9096,"ĠDá»ĩt":9097,"enerb":9098,"ĠGame":9099,"ias":9100,"Ġcontainer":9101,"ĠRM":9102,"ĠKháº£o":9103,"ĠFred":9104,"ĠYasser":9105,"iguel":9106,"ĠZen":9107,"look":9108,"iflu":9109,"ĠBolivia":9110,"ĠBaggio":9111,"Malaga":9112,"vestre":9113,"ĠSatur":9114,"ĠIELTS":9115,"ĠRodriguez":9116,"ĠCopa":9117,"umancia":9118,"ĠButton":9119,"ĠJakarta":9120,"ĠMahmoud":9121,"ĠBluetooth":9122,"Mua":9123,"NHÄĲ":9124,"VÅ©":9125,"bÃ©o":9126,"hy":9127,"há»Ļp":9128,"ling":9129,"sov":9130,"ten":9131,"ues":9132,"Ġthen":9133,"Ġtháº³m":9134,"ĠbÃ¨n":9135,"ĠtrÃ¡":9136,"Ġtriá»ģn":9137,"Ġsáº¥m":9138,"Ġgáº¯m":9139,"Ġngá»¥y":9140,"ĠdÄĥm":9141,"Ġtá»Ľ":9142,"ĠHat":9143,"ĠVang":9144,"ĠMike":9145,"ĠPuy":9146,"ĠKn":9147,"ĠChÆ¡i":9148,"ĠChim":9149,"ĠDáº«u":9150,"Ġbá»ī":9151,"Ġloay":9152,"ĠRem":9153,"ĠOx":9154,"Phim":9155,"ahce":9156,"ĠTHA":9157,"ĠMyskina":9158,"ĠSantini":9159,"ĠGSM":9160,"ladesh":9161,"Bologna":9162,"ĠDecember":9163,"Cáº£m":9164,"Cagliari":9165,"Jordan":9166,"TR":9167,"Web":9168,"cine":9169,"cument":9170,"xx":9171,"Ãļ":9172,"Ġthong":9173,"Ġlanh":9174,"Ġcháº§u":9175,"Ġky":9176,"ĠnhÃłn":9177,"Ġsáº©y":9178,"ĠsÃ³i":9179,"Ġgo":9180,"Ġdáº¡t":9181,"ĠMáº¯t":9182,"ĠÄĲá»įc":9183,"ĠThÃ¬n":9184,"ĠTro":9185,"âĢĵ":9186,"ĠChá»ĳng":9187,"ĠJohan":9188,"ÄĳÆ°a":9189,"akis":9190,"ovo":9191,"uchma":9192,"ĠRiquelme":9193,"ĠTamiflu":9194,"ĠLink":9195,"ĠSiem":9196,"ĠSantander":9197,"celand":9198,"ĠÆ¯u":9199,"akhstan":9200,"ĠBergkamp":9201,"ĠVitamin":9202,"TGT":9203,"apattoni":9204,"ĠSawaco":9205,"ĠPhnom":9206,"Carl":9207,"Ger":9208,"Gian":9209,"KD":9210,"MC":9211,"TÃªn":9212,"VA":9213,"mÃł":9214,"master":9215,"Ġcáº±m":9216,"ĠlÃ¨o":9217,"Ġháº¥t":9218,"Ġsiáº¿t":9219,"ĠgÄĥng":9220,"ĠphÃ¡ch":9221,"Ġphá»Ľt":9222,"Ġgien":9223,"ĠgiÄĥng":9224,"ĠHá»©a":9225,"ĠPavel":9226,"ĠNhÃ¬":9227,"ĠDáº£i":9228,"ĠDus":9229,"ÄĲB":9230,"Tháº¥y":9231,"Chá»¯a":9232,"ĠQui":9233,"ĠEinstein":9234,"Äĳáº¡o":9235,"ĠArt":9236,"iko":9237,"bert":9238,"ĠMcLaren":9239,"ĠOliver":9240,"ĠDae":9241,"ĠTaylor":9242,"ĠPower":9243,"ĠAhmad":9244,"ĠGeneva":9245,"ĠPenh":9246,"enerbahce":9247,"ĠSaturday":9248,"CLB":9249,"DP":9250,"IE":9251,"Juan":9252,"Pr":9253,"Sá»ĳng":9254,"Suá»ĳt":9255,"TÃ´m":9256,"Tá»«ng":9257,"US":9258,"Us":9259,"ras":9260,"tÃ¬nh":9261,"ĠĠ":9262,"ĠvÃ£ng":9263,"ĠlÃµm":9264,"Ġnháº¥c":9265,"ĠsÆ°a":9266,"Ġnick":9267,"Ġgram":9268,"phÃ³":9269,"ĠTÆ°á»£ng":9270,"ĠBN":9271,"ĠBest":9272,"ĠAu":9273,"ĠDáº§n":9274,"ĠDra":9275,"ĠGill":9276,"arm":9277,"ĠRÆ°á»£u":9278,"ĠGiáº£m":9279,"thá»±c":9280,"ÄĳÃ³ng":9281,"Ġprog":9282,"elly":9283,"Ġflash":9284,"ĠBres":9285,"1994":9286,"ĠSilvestre":9287,"ĠNorwich":9288,"oranesi":9289,"McLaren":9290,"ĠSuper":9291,"Má»Ł":9292,"Mart":9293,"Náº±m":9294,"báº¡n":9295,"cl":9296,"eed":9297,"ĠÄĳiáº¿c":9298,"Ġháº¿n":9299,"ĠhÆ°Æ¡u":9300,"Ġná»ĩ":9301,"phan":9302,"ĠÄĲá»Ŀi":9303,"iness":9304,"Ġhop":9305,"ĠKesley":9306,"ĠDream":9307,"arch":9308,"ario":9309,"alk":9310,"Ġká»ģn":9311,"Thá»ĳng":9312,"ChuyÃªn":9313,"ĠXi":9314,"Ġ94":9315,"Ġ2020":9316,"ÄĳÃ¡":9317,"ovanni":9318,"á»ģnh":9319,"ĠeBay":9320,"oftware":9321,"Ġáº¤t":9322,"ĠTHSCT":9323,"ower":9324,"ĠVietcombank":9325,"ĠBologna":9326,"ĠThuram":9327,"enegro":9328,"Ġchá»ķi":9329,"Messina":9330,"'.":9331,"BÃ¡nh":9332,"Cam":9333,"Kiá»ĥu":9334,"dÃ¹":9335,"nÆ¡i":9336,"nik":9337,"Ńa":9338,"Ġtá»Ļt":9339,"Ġtáº£n":9340,"Ġtá»§i":9341,"ĠthÃ¢u":9342,"ĠliÃªng":9343,"ĠhiÃªn":9344,"ĠgÃło":9345,"ĠTer":9346,"ĠrÃ¬nh":9347,"ĠrÃ¡ng":9348,"ĠrÃ¬a":9349,"ĠCong":9350,"ĠCáº·p":9351,"ĠHit":9352,"ĠPS":9353,"ĠPDF":9354,"ĠNgá»ĵi":9355,"...âĢĿ":9356,"Thua":9357,"icester":9358,"Ġ108":9359,"tha":9360,"PhÃŃa":9361,"Ġdien":9362,"sey":9363,"abad":9364,"aze":9365,"azon":9366,"ĠEmp":9367,"ĠGiá»¯":9368,"ĠoÃ¡n":9369,"ĠToáº£n":9370,"ĠPCCC":9371,"Ġhá»Łi":9372,"ĠDef":9373,"ĠCSKA":9374,"ĠStephen":9375,"ĠBangladesh":9376,"issan":9377,"ĠSaigontourist":9378,"ĠValentine":9379,"DVD":9380,"Há»ĵng":9381,"Iran":9382,"Ká»·":9383,"Renault":9384,"Vua":9385,"ban":9386,"báº£o":9387,"du":9388,"dan":9389,"dÆ°á»Ľi":9390,"há»£p":9391,"sáº½":9392,"vi":9393,"Ġcot":9394,"Ġhan":9395,"Ġháº¥u":9396,"Ġsite":9397,"Ġchá»«":9398,"ĠMoy":9399,"ĠThao":9400,"ĠPen":9401,"ĠKuchma":9402,"ĠGmail":9403,"ĠGHz":9404,"ĠUNESCO":9405,"ili":9406,"Triá»ĩu":9407,"olod":9408,"SDÄĲ":9409,"tone":9410,"netSent":9411,"rys":9412,"ĠMail":9413,"ortmund":9414,"ĠmÃªnh":9415,"allad":9416,"uka":9417,"Ġ1974":9418,"ĠCamoranesi":9419,"ĠSAM":9420,"ieva":9421,"ĠVirgin":9422,"ĠFiref":9423,"ementieva":9424,"ĠPTSC":9425,"ĠCannavaro":9426,"Ferrari":9427,"sovpetro":9428,"ĠPuyol":9429,"350":9430,"BÃ¡n":9431,"CA":9432,"MP":9433,"Mong":9434,"aq":9435,"ctr":9436,"há»įc":9437,"min":9438,"ráº¥t":9439,"su":9440,"wat":9441,"Ġ[":9442,"ĠÃ¡ch":9443,"ĠÃºp":9444,"Ġenz":9445,"ĠtÃŃt":9446,"Ġbit":9447,"ĠkhÃ¢m":9448,"Ġpháº¥t":9449,"Ġvá»«ng":9450,"ĠquÃ¡ng":9451,"Ġquá»³":9452,"chá»ĵng":9453,"ĠBack":9454,"ĠLÃªn":9455,"Ġmá»Ńa":9456,"ĠSac":9457,"ĠGV":9458,"Ġdoping":9459,"Ġyou":9460,"ori":9461,"asc":9462,"thua":9463,"ager":9464,"Ġduá»Ĺi":9465,"Ġ125":9466,"ober":9467,"able":9468,"Ġfax":9469,"ĠWord":9470,"ĠBrad":9471,"uki":9472,"ĠAss":9473,"ĠScott":9474,"erbai":9475,"ĠEssien":9476,"\";":9477,"Bilbao":9478,"Káº»":9479,"bridge":9480,"cer":9481,"thi":9482,"Ġ%":9483,"Ġamin":9484,"nhÆ°ng":9485,"Ġmá»ĭt":9486,"Ġsolo":9487,"ĠsÃ©c":9488,"ĠngÃ³i":9489,"Ġdáº¥n":9490,"ĠVá»¹":9491,"ĠPep":9492,"ĠTran":9493,"ĠTrapattoni":9494,"ĠKan":9495,"ĠDementieva":9496,"ĠGÄĲ":9497,"ĠQuáº¥t":9498,"Ġquyá»ĩn":9499,"orth":9500,"TháºŃm":9501,"Ġ2009":9502,"TrÆ°a":9503,"Chuyáº¿n":9504,"Christ":9505,"ĠJoa":9506,"tham":9507,"Ġdioxin":9508,"apro":9509,"apixel":9510,"ire":9511,"iste":9512,"ĠMadonna":9513,"ĠColl":9514,"leyton":9515,"Contact":9516,"TMN":9517,"ĠNetwork":9518,"ujah":9519,"richello":9520,"Osasuna":9521,"Williams":9522,"Israel":9523,"ĠChaiman":9524,"ContactUs":9525,"LÆ°Æ¡ng":9526,"Má»ĳi":9527,"Sáº¯p":9528,"ViÃªm":9529,"mal":9530,"pt":9531,"rit":9532,"tÃ¡c":9533,"Ġthon":9534,"ĠhÃ²ng":9535,"ĠnhÃ³c":9536,"ĠsÃº":9537,"Ġsá»¡":9538,"ĠxoÃłi":9539,"ĠHáº¿t":9540,"ĠVien":9541,"chung":9542,"ĠLÃ¡ng":9543,"ĠSÄĲ":9544,"ĠPrix":9545,"ĠKiá»ĥu":9546,"ĠKore":9547,"ĠKenn":9548,"ĠGun":9549,"ĠkhoÃ©t":9550,"Ġvá»¥t":9551,"Ġ650":9552,"atedo":9553,"ĠEst":9554,"Ġcafe":9555,"ĠnguÃ´i":9556,"ovsky":9557,"esto":9558,"Ġ256":9559,"ĠReg":9560,"allah":9561,"QuÃ¡n":9562,"Ġ1977":9563,"Ġsexy":9564,"Ġmenu":9565,"uzia":9566,"ĠFabio":9567,"ĠTomasson":9568,"ĠOutlook":9569,"Albacete":9570,"ĠBrescia":9571,"erbaijan":9572,"Ká»³":9573,"LS":9574,"Sociedad":9575,"TÄĥng":9576,"bá»ı":9577,"cess":9578,"jin":9579,"tu":9580,"wis":9581,"watra":9582,"ĠtÃ³t":9583,"ĠthÃ¡n":9584,"ĠchÃ´ng":9585,"ĠbÃ¹i":9586,"ĠmÆ°á»£t":9587,"ĠnhÃ´":9588,"Ġsáº£nh":9589,"Ġnáº¥c":9590,"ĠgÃºt":9591,"Ġphot":9592,"ĠvÃłn":9593,"quÃ¡":9594,"ĠNáº¥u":9595,"ĠxÃºp":9596,"ĠCisco":9597,"ĠHing":9598,"ĠHall":9599,"ĠÄĳÃ£ng":9600,"ĠVá»ĳn":9601,"ĠBir":9602,"ĠMol":9603,"ĠLion":9604,"amine":9605,"ĠSXH":9606,"ĠPitt":9607,"ĠNgÃ´n":9608,"ĠKS":9609,"ĠChÃŃn":9610,"emlin":9611,"imo":9612,"ĠRay":9613,"ĠKhuyáº¿n":9614,"ThÆ°Æ¡ng":9615,"ĠFri":9616,"istry":9617,"ĠJorge":9618,"thá»©":9619,"Ġnguoi":9620,"inawatra":9621,"ĠMarquez":9622,"ĠLatin":9623,"ĠTMNCSG":9624,"Myanmar":9625,"ĠSergei":9626,"ĠBacolod":9627,"Ġenzy":9628,"HC":9629,"Office":9630,"ule":9631,"vÃło":9632,"Ġup":9633,"ĠlÃºt":9634,"ĠlÆ°Æ¡n":9635,"Ġmáº¥u":9636,"Ġmáº©n":9637,"ĠnÃ²ng":9638,"Ġgen":9639,"ĠTá»ĳc":9640,"ĠTiá»ĩp":9641,"ĠquÄĥng":9642,"Ġxá»ĭn":9643,"ĠVu":9644,"cháº¿t":9645,"ĠMet":9646,"á»¥t":9647,"ĠLá»Ľp":9648,"ĠLÄĥk":9649,"ĠSN":9650,"ĠKÄĲT":9651,"ĠDÃ¢u":9652,"ĠDHA":9653,"ĠGe":9654,"ĠGold":9655,"esk":9656,"orca":9657,"asi":9658,"uston":9659,"atin":9660,"Ġ101":9661,"Ġ850":9662,"tern":9663,"tháº¿":9664,"thiáº¿u":9665,"ideo":9666,"ever":9667,"Ġpassword":9668,"Ġ270":9669,"ĠColum":9670,"Ġ1978":9671,"1986":9672,"ĠCPA":9673,"board":9674,"ĠFlash":9675,"ovenia":9676,"Ġcalo":9677,"ĠKazakhstan":9678,"450":9679,"Bá»Łi":9680,"DÅ©ng":9681,"Ro":9682,"Virus":9683,"bÃ¡nh":9684,"láº¯c":9685,"yad":9686,"Ġcort":9687,"ĠÄĳá»ĳm":9688,"Ġváº¡":9689,"ĠtrÆ¡":9690,"Ġnhieu":9691,"Ġsáº£y":9692,"Ġná»įc":9693,"Ġgluc":9694,"ĠVá»ı":9695,"ĠPoly":9696,"ĠDH":9697,"eme":9698,"âĢĿ)":9699,"Tháº¥t":9700,"iles":9701,"Chiev":9702,"row":9703,"ĠQuÃª":9704,"atar":9705,"ĠXa":9706,"ĠXu":9707,"ome":9708,"ĠOne":9709,"Ġwushu":9710,"iche":9711,"Ġpixel":9712,"alla":9713,"ĠVietsovpetro":9714,"ĠAnder":9715,"ĠSpears":9716,"ĠDelhi":9717,"ĠBecks":9718,"ĠGram":9719,"Ġ1966":9720,"ĠVCB":9721,"ĠWalter":9722,"azzi":9723,"ĠJeff":9724,"ĠEnter":9725,"Thuá»µ":9726,"ĠKiatisak":9727,"ĠSunday":9728,"ĠEricsson":9729,"Ġshock":9730,"Norwich":9731,"Chievo":9732,"Bá»ĳn":9733,"ITC":9734,"Láº¥y":9735,"MÃ´i":9736,"Mall":9737,"NIC":9738,"Toyota":9739,"jad":9740,"men":9741,"tá»ķ":9742,"yÃªu":9743,"Ġel":9744,"Ġcáº±n":9745,"ĠÄĳáº¥ng":9746,"Ġtráº¥u":9747,"Ġtrá»Ľn":9748,"Ãªt":9749,"phÃ²ng":9750,"ĠTem":9751,"ĠHwang":9752,"ĠBlo":9753,"ĠPatt":9754,"ĠTrans":9755,"ĠTrulli":9756,"ĠChÃ¡y":9757,"Ġtiáº¿u":9758,"ĠKhal":9759,"ask":9760,"roll":9761,"thÃ´ng":9762,"thá»ĭ":9763,"une":9764,"Ġpiano":9765,"ĠBarrichello":9766,"ĠShinawatra":9767,"Quang":9768,"Ġ802":9769,"ĠHenin":9770,"iban":9771,"Ġjudo":9772,"ĠBoston":9773,"ĠFallujah":9774,"Ġmicro":9775,"azeera":9776,"Ġcotton":9777,"ĠFirefox":9778,"!.":9779,"DÆ°Æ¡ng":9780,"Go":9781,"Olymp":9782,"Per":9783,"VI":9784,"cÄĥng":9785,"ios":9786,"lant":9787,"uary":9788,"yan":9789,"Ġáº¿":9790,"ĠÃ³i":9791,"Ġláº³ng":9792,"ĠlÆ°á»£m":9793,"Ġbasa":9794,"Ġmeth":9795,"ĠtrÆ°á»Ľng":9796,"ĠrÃª":9797,"ĠCad":9798,"ĠLis":9799,"ĠTrai":9800,"ald":9801,"ĠRica":9802,"asy":9803,"ics":9804,"aguar":9805,"aver":9806,"mantec":9807,"ept":9808,"giáº£m":9809,"ience":9810,"burgo":9811,"Ġ1973":9812,"1984":9813,"ĠJoseph":9814,"Luis":9815,"ĠRobbie":9816,"ĠGhrai":9817,"ĠJanuary":9818,"ĠAlbacete":9819,"Mallorca":9820,"ĠGhraib":9821,"Ab":9822,"Ká»¹":9823,"Sant":9824,"Tá»±":9825,"VC":9826,"lÃªn":9827,"vietnam":9828,"Æł":9829,"Ġte":9830,"Ġtanh":9831,"ĠcÃºt":9832,"Ġbáº§m":9833,"Ġtráº§y":9834,"Ġná»±c":9835,"ĠnÃºm":9836,"ĠkhÃ©t":9837,"Ġgá»Ŀ":9838,"Ġdáº»":9839,"qua":9840,"ĠrÃ¬":9841,"Ġráº§u":9842,"ĠBinh":9843,"ĠMá»Ļng":9844,"ĠLiá»ħu":9845,"ĠSand":9846,"ĠhoÃ¡n":9847,"ĠKle":9848,"ĠChuyá»ĥn":9849,"ĠGI":9850,"arn":9851,"Ġdá»¥m":9852,"ĠRoh":9853,"ĠRud":9854,"ĠITC":9855,"ThÆ°á»£ng":9856,"athi":9857,"ĠFin":9858,"isia":9859,"Ġ103":9860,"ĠSaudi":9861,"ecca":9862,"Ġfont":9863,"ĠStankovic":9864,"ĠHenrik":9865,"Ġsá»¥n":9866,"etts":9867,"ĠVaio":9868,"yono":9869,"Ag":9870,"CÃłng":9871,"DÃ²ng":9872,"SÆ¡n":9873,"TE":9874,"mond":9875,"sáº¿p":9876,"zh":9877,"ngoÃłi":9878,"Ġchan":9879,"ĠchÃły":9880,"Ġngá»Ľ":9881,"Ġphá»Ļng":9882,"Ġgiáº¿m":9883,"ĠNá»ķi":9884,"ĠButt":9885,"ĠMÆ°á»Ŀng":9886,"ĠÄĲen":9887,"ĠÄĲÃ¢u":9888,"ĠLen":9889,"amo":9890,"ĠSÃ³ng":9891,"ĠAk":9892,"ĠTrÃ²":9893,"ĠDaily":9894,"ĠGaz":9895,"Ġloi":9896,"âĢĿ?":9897,"Ġ512":9898,"ĠIt":9899,"ThiÃªn":9900,"ĠFeb":9901,"ĠWang":9902,"Phong":9903,"ula":9904,"ewell":9905,"ĠmÃ´tÃ´":9906,"beria":9907,"Ġ1971":9908,"ĠCru":9909,"ĠNorth":9910,"ĠJulien":9911,"ĠMassach":9912,"ĠCMND":9913,"Andre":9914,"ĠHTX":9915,"BBC":9916,"Geor":9917,"Livorno":9918,"can":9919,"mit":9920,"nect":9921,"vice":9922,"ĠcÃłn":9923,"ĠhÃ¢n":9924,"Ġhanh":9925,"Ġkháº¿":9926,"Ġganh":9927,"phÃ¡t":9928,"ĠTáº¡p":9929,"Ġgiáº·c":9930,"ĠxÃŃt":9931,"ĠCu":9932,"ĠCÆ°":9933,"ĠCom":9934,"ĠHun":9935,"ĠBau":9936,"ĠMand":9937,"ange":9938,"ĠLump":9939,"Ġ210":9940,"ĠSur":9941,"ĠSDÄĲ":9942,"ĠSMS":9943,"ĠPap":9944,"indows":9945,"ĠKid":9946,"á»Ńng":9947,"ĠChina":9948,"ĠNhá»ı":9949,"ĠDr":9950,"Ġbá»£":9951,"arra":9952,"elson":9953,"ĠIa":9954,"ThÆ°á»Ŀng":9955,"Chá»©ng":9956,"ĠWright":9957,"raw":9958,"Ġ190":9959,"ĠThuá»Ļt":9960,"Kháº£":9961,"Ġá»¨ng":9962,"ĠArj":9963,"ĠDoÃ£n":9964,"Sauber":9965,"ĠBarth":9966,"giÃºp":9967,"','":9968,"Ġ1967":9969,"ĠCorp":9970,"ĠPlayer":9971,"ĠElectr":9972,"ĠBMW":9973,"ĠLinkton":9974,"Carlos":9975,".âĢĿ":9976,"CÃł":9977,"Jaguar":9978,"TI":9979,"UD":9980,"biáº¿n":9981,"break":9982,"gic":9983,"gá»įi":9984,"oom":9985,"sch":9986,"vá»«a":9987,"Ġáº¯t":9988,"Ġcá»įng":9989,"ĠthuyÃªn":9990,"ĠhÃ¨n":9991,"ĠchÃ¹i":9992,"Ġbon":9993,"Ġnai":9994,"Ġnet":9995,"ĠngÃ³t":9996,"Ġngá»ķn":9997,"ĠTaw":9998,"quan":9999,"ĠNak":10000,"Ġxá»Ľi":10001,"ĠCisse":10002,"Ġhá»Ľt":10003,"ĠMÃ´":10004,"ĠMÆ°u":10005,"ĠLille":10006,"ĠAN":10007,"ĠTráº¡ch":10008,"ĠNgÃ£":10009,"ĠKam":10010,"ĠDiá»ĩn":10011,"ĠRah":10012,"orst":10013,"ĠKhÃŃ":10014,"Ġbá»Ļn":10015,"rov":10016,"ĠHouston":10017,"agn":10018,"Ġtrá»£n":10019,"trá»ĭ":10020,"Ġ06":10021,"ĠLuÃ´n":10022,"ouk":10023,"ĠSher":10024,"negie":10025,"ĠCarnegie":10026,"Ġ260":10027,"ĠBremer":10028,"ĠSerena":10029,"opy":10030,"ĠAmb":10031,"ĠSport":10032,"ĠSparta":10033,"ĠGruzia":10034,"ĠKremlin":10035,"ommel":10036,"ĠRangers":10037,"ĠIssawa":10038,"Bá»ı":10039,"Cao":10040,"Ex":10041,"QK":10042,"Yushchenko":10043,"cÃ¢y":10044,"sburg":10045,"Ġá»ķi":10046,"Ġáº¯p":10047,"Ġbeta":10048,"Ġmiá»ĩn":10049,"Ġtrau":10050,"Ġsáº¡c":10051,"Ġkhay":10052,"Ġdáº«m":10053,"ĠTiáº¿c":10054,"ĠVÆ°á»£t":10055,"ĠMell":10056,"ĠLiá»ĩt":10057,"ĠSay":10058,"ĠSá»Ńu":10059,"Ġlá»µ":10060,"ĠAG":10061,"Thá»ĭt":10062,"Ġtaekwondo":10063,"itor":10064,"ĠtoÃ¡i":10065,"ĠAnna":10066,"acch":10067,"treo":10068,"Phan":10069,"áºµm":10070,"Ġnhá»Ľt":10071,"ĠMarat":10072,"ĠMichel":10073,"ĠÄĲKDT":10074,"ĠMarketing":10075,"ĠToure":10076,"akhtar":10077,"ĠLumpur":10078,"Cá»ĳ":10079,"HÃ²a":10080,"Ri":10081,"XÃ¢y":10082,"cin":10083,"die":10084,"tiáº¿p":10085,"táº¹c":10086,"vá»ģ":10087,"ĠcÆ°á»¡i":10088,"ĠvÆ°á»£ng":10089,"Ġcháº¯t":10090,"ĠbÃŃt":10091,"ĠmÃ©o":10092,"Ġtrá»ĩt":10093,"Ġngá»«":10094,"Ġdau":10095,"ĠTao":10096,"ĠTev":10097,"ĠrÃ¢m":10098,"ĠNSND":10099,"ĠNuno":10100,"Ġhá»±c":10101,"Ġchá»±c":10102,"ĠBáº¿":10103,"onk":10104,"ĠSum":10105,"Ġlá»ĵi":10106,"ĠATP":10107,"ĠAOL":10108,"ĠKofi":10109,"ĠChe":10110,"ĠGas":10111,"ĠRacing":10112,"TrÆ°Æ¡ng":10113,"ĠWB":10114,"ĠOct":10115,"exe":10116,"egal":10117,"ĠGiá»įng":10118,"Nghá»ĭ":10119,"ĠTime":10120,"Ġoff":10121,"ĠSilv":10122,"ĠAndrea":10123,"enzo":10124,"ĠRamallah":10125,"ĠRodrigues":10126,"ocaat":10127,"buÃ´n":10128,"ĠTechnolog":10129,"ĠMassachus":10130,"610":10131,"?).":10132,"HoÃłn":10133,"Há»£p":10134,"LÆ°á»£ng":10135,"Viet":10136,"bin":10137,"cÃ¡n":10138,"prom":10139,"xa":10140,"ĠÄĳong":10141,"nháºŃn":10142,"ĠlÃ¡c":10143,"Ġháº¯c":10144,"Ġnude":10145,"ĠTTC":10146,"Ġres":10147,"ĠNáº±m":10148,"ĠCle":10149,"aig":10150,"ĠMiguel":10151,"ĠLÅ©":10152,"aman":10153,"aux":10154,"ĠTray":10155,"ĠTravel":10156,"ĠChÆ°":10157,"iah":10158,"Chá»£":10159,"ĠGiovanni":10160,"tero":10161,"otter":10162,"ĠBru":10163,"ĠThÆ¡m":10164,"Ġcuar":10165,"ĠAgu":10166,"ĠEximbank":10167,"resmo":10168,"ĠOlimp":10169,"Ġxá»īn":10170,"Ġxá»īu":10171,"ĠJonathan":10172,"ĠMontenegro":10173,"ĠAbdullah":10174,"bourne":10175,"96":10176,"RÃµ":10177,"Ste":10178,"kor":10179,"nÆ°á»Ľc":10180,"vÃ©":10181,"Ġvol":10182,"Ġnháº¥m":10183,"Ġnong":10184,"Ġnano":10185,"Ġneu":10186,"Ġphan":10187,"Ġphoto":10188,"ĠquÃ¢y":10189,"ĠCB":10190,"Ã²e":10191,"ĠBia":10192,"ĠBá»¯a":10193,"ĠMed":10194,"ĠÄĲÆ°a":10195,"ĠThÃ´i":10196,"ĠLleyton":10197,"Ġlá»£p":10198,"ĠAle":10199,"ĠDen":10200,"ensen":10201,"ĠGáº¡o":10202,"ÄĲá»©ng":10203,"imar":10204,"âĢĿ;":10205,"ĠUS":10206,"ĠIceland":10207,"Tháº£o":10208,"ilson":10209,"rav":10210,"ĠJol":10211,"Ġchuá»ĵn":10212,"osa":10213,"Äĳá»ģu":10214,"á»ĩu":10215,"ĠHugh":10216,"Ġwon":10217,"reen":10218,"ĠMarcel":10219,"ĠLÄĲLÄĲ":10220,"Ġ280":10221,"ĠCarlo":10222,"ĠBron":10223,"Ġxoong":10224,"egas":10225,"ĠPhilips":10226,"Ġsá»©a":10227,"Ġoáº£i":10228,"ĠMauresmo":10229,"ĠAlexand":10230,"ĠLevante":10231,"Ġvaccine":10232,"ĠGhana":10233,"ĠdÃ¬u":10234,"ĠLuxemburgo":10235,"ĠEmpoli":10236,"DÆ°á»Ŀng":10237,"Háº¡nh":10238,"Máº¥t":10239,"VÅ©ng":10240,"bach":10241,"cÃ¡":10242,"cáº§u":10243,"den":10244,"fer":10245,"gue":10246,"kins":10247,"lÆ°á»£ng":10248,"pro":10249,"ril":10250,"tay":10251,"Ġá»ķng":10252,"á»¨ng":10253,"ĠtÆ¡i":10254,"Ġcáº§y":10255,"ĠlÃ³":10256,"ĠbáºŃy":10257,"Ġbiet":10258,"ĠsÃ¹i":10259,"Ġsearch":10260,"Ġkhac":10261,"ĠgÃ¡o":10262,"ĠNÃło":10263,"ĠHiá»ĥu":10264,"chá»£":10265,"ĠBh":10266,"Ġngháº¹n":10267,"ĠLAF":10268,"ĠPin":10269,"ĠKor":10270,"ĠDio":10271,"ĠGard":10272,"ĠPháº£":10273,"arin":10274,"alf":10275,"adi":10276,"Ġ02":10277,"KhÃ¡m":10278,"Ġ181":10279,"1975":10280,"ĠAlger":10281,"ĠCarroll":10282,"ĠBrug":10283,"ĠÄĲKÄĲT":10284,"giá»¯a":10285,"ĠWebsite":10286,"ĠForlan":10287,"ĠAmerican":10288,"ĠFelix":10289,"ruary":10290,"ĠBasten":10291,"ĠOxford":10292,"ĠHingis":10293,"ĠFebruary":10294,"ĠTevez":10295,"ĠcuarÆ¡":10296,"Av":10297,"Vic":10298,"VÄ©nh":10299,"bps":10300,"for":10301,"ná»¯":10302,"Ġad":10303,"Ġmon":10304,"Ġnheo":10305,"ĠnhÃµm":10306,"ĠnÃŃn":10307,"ĠTuyá»ĩt":10308,"ĠgiÃ´ng":10309,"ĠBC":10310,"ĠLÃ´":10311,"ĠSanh":10312,"ĠSab":10313,"ĠPat":10314,"ĠDáº«n":10315,"eni":10316,"ĠGuti":10317,"ĠPháº«u":10318,"ĠâĢ¦":10319,"elb":10320,"Ġngoai":10321,"ĠnghÄ©nh":10322,"ĠEa":10323,"olid":10324,"ĠFi":10325,"ĠFis":10326,"ĠFort":10327,"ĠJes":10328,"itamin":10329,"acy":10330,"ĠÄĲHDL":10331,"azer":10332,"ĠRobinson":10333,"ĠFranco":10334,"ĠBerbat":10335,"ĠMatt":10336,"vania":10337,"ĠMosk":10338,"ĠKuala":10339,"ĠAzerbaijan":10340,"ĠNicolas":10341,"ĠAdvocaat":10342,"ĠAuto":10343,"ĠCollina":10344,"ĠBarthez":10345,"ĠMassachusetts":10346,"ĠBerbatov":10347,"Báº¿n":10348,"báº£n":10349,"báº£ng":10350,"sáº£n":10351,"táº¥t":10352,"xuáº¥t":10353,"Ġcá»Ļm":10354,"Ġváº¿":10355,"ĠthÃ³t":10356,"Ġcháº¡c":10357,"Ġnháº§y":10358,"Ġsá»¯ng":10359,"Ġngá»Ńi":10360,"Ġdáº¥y":10361,"ĠpháºŃt":10362,"ĠTs":10363,"ĠTá»©c":10364,"ĠTáº¡m":10365,"quá»ĳc":10366,"ĠVÄ©":10367,"ĠBrus":10368,"ĠBommel":10369,"ĠMS":10370,"ĠMÃłn":10371,"ĠLáº¡ch":10372,"ĠKit":10373,"ĠGom":10374,"ĠPhuong":10375,"ÄĲÆ°a":10376,"alay":10377,"ĠQuá»Ľi":10378,"ĠFile":10379,"ĠJar":10380,"Ġcach":10381,"thanh":10382,"thÆ°Æ¡ng":10383,"edy":10384,"inger":10385,"ĠZin":10386,"Ġ135":10387,"epp":10388,"ĠSyl":10389,"ĠBHXH":10390,"ĠSenegal":10391,"ĠJulio":10392,"ĠVoeller":10393,"ĠVÄĲQG":10394,"ĠDubai":10395,"ĠPersie":10396,"ĠFiore":10397,"Am":10398,"Bá»ĳ":10399,"Boro":10400,"EG":10401,"GT":10402,"HÆ°Æ¡ng":10403,"Jose":10404,"Niá»ģm":10405,"Tai":10406,"cat":10407,"há»Ļi":10408,"láº¥y":10409,"pet":10410,"tinh":10411,"Ġion":10412,"ngoáº¡i":10413,"Ġnham":10414,"Ġnáº¡t":10415,"Ġgáº¡c":10416,"phi":10417,"ĠNÄĲ":10418,"ĠHÄĲT":10419,"ĠVegas":10420,"ĠBiá»ĩn":10421,"ĠÄĲá»ĵn":10422,"ĠTháºŃp":10423,"ĠLá»©c":10424,"ĠLove":10425,"ĠKas":10426,"ĠKap":10427,"ĠKHA":10428,"ĠKelly":10429,"ĠDay":10430,"ÄĲá»ĵ":10431,"ĠRenault":10432,"Ġtuá»·":10433,"...;":10434,"ĠWave":10435,"Nghi":10436,"Äĳá»©ng":10437,"tron":10438,"avier":10439,"ĠZag":10440,"Ġfol":10441,"ahl":10442,"ogo":10443,"ĠASIA":10444,"ocket":10445,"ĠOsama":10446,"Ġrá»¥i":10447,"ĠSimon":10448,"ĠaxÃŃt":10449,"ĠChristoph":10450,"ĠHanoi":10451,"ĠCenter":10452,"Ġ(!).":10453,"ĠTunisia":10454,"Ġomega":10455,"ĠTrojan":10456,"ĠDusit":10457,"ĠVienna":10458,"ĠGazprom":10459,"?âĢĿ,":10460,"Biáº¿n":10461,"Bá»ī":10462,"Gáº·p":10463,"Hiá»ĩu":10464,"LTT":10465,"RW":10466,"ble":10467,"fan":10468,"ná»ķi":10469,"syl":10470,"worth":10471,"Ġuyá»ĥn":10472,"ĠkÃ¬":10473,"ĠnhÃ¡o":10474,"Ġngan":10475,"Ġdáº¿":10476,"Ġdá»Ļt":10477,"Ġdel":10478,"Ġphone":10479,"ĠTiáº¿t":10480,"ĠTen":10481,"ĠTÆ¯":10482,"Ġrá»įi":10483,"Ġthá»Ľt":10484,"Ġxá»ĩ":10485,"Ġxui":10486,"Ġhá»«ng":10487,"ĠPis":10488,"ĠKi":10489,"ĠKos":10490,"ĠKate":10491,"ĠDortmund":10492,"Ġbá»Ŀi":10493,"ĠGÃ¡i":10494,"ĠGor":10495,"ĠPhil":10496,"alog":10497,"ĠKhmer":10498,"asonic":10499,"ĠFern":10500,"ĠFBI":10501,"ĠXÃ¡c":10502,"ĠYelt":10503,"thuá»ĳc":10504,"ĠLand":10505,"avan":10506,"ilani":10507,"ĠStan":10508,"oga":10509,"ĠCarol":10510,"udho":10511,"echn":10512,"ather":10513,"Ġoestrogen":10514,"ĠEdgar":10515,"ĠSalgado":10516,"ĠHelgu":10517,"ĠSato":10518,"Ġblock":10519,"Ġhá»Ŀn":10520,"Canada":10521,"ĠMoskva":10522,"ĠYeltsin":10523,"1000":10524,"CSC":10525,"DD":10526,"Hay":10527,"Háº±ng":10528,"NN":10529,"OT":10530,"She":10531,"káº¿t":10532,"máº¹":10533,"á»¦y":10534,"ĠtÃºm":10535,"Ġcáº¡p":10536,"Ġváº©y":10537,"Ġchuá»ĳt":10538,"Ġmiáº¿u":10539,"ĠnhÃ£o":10540,"Ġngao":10541,"ĠdÆ¡i":10542,"ĠHans":10543,"ĠBai":10544,"ĠBBT":10545,"ĠThong":10546,"ĠLÃ²ng":10547,"ĠSeb":10548,"ĠSuz":10549,"ĠPLO":10550,"ĠABC":10551,"ÄĲÆ°Æ¡ng":10552,"Ġlogic":10553,"ĠRá»ĵng":10554,"ĠRLC":10555,"Chia":10556,"ical":10557,"atter":10558,"ĠFed":10559,"Ġ1945":10560,"ombank":10561,"Äĳáº¿n":10562,"ĠAlessandro":10563,"Ġpar":10564,"Ġáº¨":10565,"ĠPalm":10566,"ize":10567,"ĠSpir":10568,"ĠVFD":10569,"Ġoz":10570,"ylan":10571,"ĠSlovenia":10572,"ĠCrouch":10573,"ĠADB":10574,"ĠOpera":10575,"Ġscudetto":10576,"ricio":10577,"izarro":10578,"ĠTaliban":10579,"ĠPaolo":10580,"ĠNovember":10581,"ĠNancy":10582,"ĠJoaquin":10583,"ĠColumbia":10584,"ĠHelguera":10585,"El":10586,"Getafe":10587,"Kiá»ĥm":10588,"Post":10589,"RC":10590,"bit":10591,"gy":10592,"ystem":10593,"Ġtáº¡c":10594,"ĠÄĥ":10595,"ĠhÃ³t":10596,"Ġcháº»":10597,"ĠbÃ´":10598,"ĠtrÃłm":10599,"Ġsá»ĩ":10600,"ĠCá»Ń":10601,"ĠBuch":10602,"ĠLit":10603,"ĠLáº¯k":10604,"ĠSel":10605,"ĠTrin":10606,"ĠKC":10607,"ĠRol":10608,"eter":10609,"ĠGiÃ³":10610,"hid":10611,"Khai":10612,"illo":10613,"aink":10614,"ĠShah":10615,"rost":10616,"ĠCambridge":10617,"ĠAmazon":10618,"ĠAMSubject":10619,"Ġrocket":10620,"ĠAirbus":10621,"ĠJulia":10622,"ĠRuud":10623,"ĠSonia":10624,"usalem":10625,"Ġmegapixel":10626,"ĠAmbros":10627,"ĠAlgeria":10628,"elbaink":10629,"udhoyono":10630,"Jazeera":10631,"PV":10632,"Pan":10633,"Ros":10634,"buk":10635,"kar":10636,"lau":10637,"san":10638,"tÃ¢m":10639,"váºŃt":10640,"ĠtÃ£":10641,"Ġváº¡t":10642,"Ġnom":10643,"ĠnÃ¡u":10644,"Ġgao":10645,"ĠgÃłi":10646,"ĠgÃ¡n":10647,"phim":10648,"Ġthá»ĵ":10649,"Ġxuyáº¿n":10650,"chu":10651,"chÃŃnh":10652,"ĠBes":10653,"ĠLÃłi":10654,"ĠPizarro":10655,"ĠNgá»¯":10656,"ĠNhÃ£":10657,"ĠDev":10658,"ĠDá»±a":10659,"ĠDylan":10660,"ĠGá»įi":10661,"ÄĲK":10662,"ÄĲau":10663,"ations":10664,"iso":10665,"islav":10666,"ĠJong":10667,"ĠXI":10668,"ĠYak":10669,"edine":10670,"uigi":10671,"PhÃ¢n":10672,"irin":10673,"ĠDoha":10674,"ĠLewis":10675,"ĠLuáºŃn":10676,"Ġform":10677,"afia":10678,"ĠCarac":10679,"ĠManuel":10680,"1990":10681,"ĠTNXP":10682,"ĠSymantec":10683,"ĠOlympiakos":10684,"ĠGlazer":10685,"ĠSIM":10686,"ĠCompaq":10687,"Leverkusen":10688,"ĠOliveira":10689,"ĠSakda":10690,"ĠMozilla":10691,"ĠKhatoco":10692,"Ġprogester":10693,"Ġphotoc":10694,"ĠOlimpico":10695,"ĠBruss":10696,"410":10697,"LT":10698,"Lyon":10699,"NÆ¡i":10700,"PS":10701,"Pro":10702,"UNG":10703,"VTV":10704,"Vietnam":10705,"cÆ°á»Ŀi":10706,"nÃ³i":10707,"oC":10708,"rate":10709,"zhe":10710,"Ġcuá»ĳc":10711,"Ġnil":10712,"ĠphÃ´ng":10713,"ĠToi":10714,"ĠCorn":10715,"ĠVui":10716,"ĠVSP":10717,"ĠLÃłn":10718,"ĠLá»Ńa":10719,"ĠLife":10720,"Ġbá»ĭa":10721,"ĠDennis":10722,"ÄĲang":10723,"Chung":10724,"ĠGiÃºp":10725,"ĠGiáº¥c":10726,"Nguyen":10727,"ĠLance":10728,"illermo":10729,"oko":10730,"ffe":10731,"Hoáº¡t":10732,"ĠNauy":10733,"ĠAthletic":10734,"ĠJerusalem":10735,"ĠKurd":10736,"ĠPennsyl":10737,"ĠSkype":10738,"isteas":10739,"810":10740,"BÃ¹i":10741,"BTC":10742,"CÃ¡nh":10743,"Minardi":10744,"Na":10745,"OK":10746,"bot":10747,"log":10748,"rip":10749,"ĠvÃ£i":10750,"Ġhec":10751,"ĠnhÃºt":10752,"Ġná»ĩn":10753,"Ġgui":10754,"ĠngÆ°á»£ng":10755,"ĠphÃło":10756,"Ġquáº§ng":10757,"ĠrÃ¹ng":10758,"ĠNá»¥":10759,"ĠCit":10760,"chÃº":10761,"chez":10762,"ĠBR":10763,"ĠThoáº¡i":10764,"ĠLá»Ļ":10765,"onto":10766,"ĠKey":10767,"ĠChap":10768,"ĠNhiÃªu":10769,"ĠRap":10770,"ĠUll":10771,"ors":10772,"ChÃ¢n":10773,"ChÆ¡i":10774,"rade":10775,"ĠXavi":10776,"Ġbuá»ĵm":10777,"then":10778,"thony":10779,"urity":10780,"ĠOb":10781,"Äĳá»Ļng":10782,"ĠThuá»³":10783,"inejad":10784,"ocu":10785,"ĠManiche":10786,"ourt":10787,"ĠDuáº©n":10788,"ĠPetr":10789,"Levante":10790,"____":10791,"ĠLawren":10792,"%-":10793,"Atalanta":10794,"City":10795,"MD":10796,"Sl":10797,"Ung":10798,"ae":10799,"hot":10800,"more":10801,"oit":10802,"táº§m":10803,"vÃłng":10804,"Ġtiá»ĩt":10805,"ĠlÃ©p":10806,"ĠchÃ¹ng":10807,"ĠbÃ¡ng":10808,"Ġmá»ĳ":10809,"Ġmag":10810,"Ġnua":10811,"ĠTÃ³m":10812,"Æ¡c":10813,"Ġquáº·ng":10814,"Ġrá»ĵ":10815,"ĠNal":10816,"ĠNick":10817,"ĠCá»±c":10818,"ĠBj":10819,"ĠBali":10820,"ĠSá»¯a":10821,"ĠPH":10822,"ĠPand":10823,"ĠKov":10824,"ĠDun":10825,"ĠGala":10826,"arest":10827,"ales":10828,"ĠKhiáº¿t":10829,"ilet":10830,"ĠFax":10831,"ĠFED":10832,"ĠHoang":10833,"idad":10834,"Ġcá»ĳm":10835,"lei":10836,"document":10837,"ĠAlaves":10838,"pril":10839,"low":10840,"riy":10841,"ĠCannes":10842,"ĠPrin":10843,"ĠAdel":10844,"ĠSearch":10845,"ĠLyn":10846,"Ġhá»¥i":10847,"1983":10848,"Ġ1958":10849,"ĠFire":10850,"ĠStefano":10851,"ĠSudan":10852,"rystal":10853,"aprodex":10854,"malat":10855,"ĠLionel":10856,"ĠSilvio":10857,"ĠPennsylvania":10858,"ĠUllrich":10859,"?...":10860,"Co":10861,"Láº¡i":10862,"May":10863,"NC":10864,"One":10865,"PG":10866,"Phi":10867,"Ráº¡ng":10868,"SiÃªu":10869,"UY":10870,"Ukrain":10871,"pa":10872,"pson":10873,"ret":10874,"tai":10875,"yah":10876,"Ġ00":10877,"ĠÄĳÃ¡t":10878,"nhiá»ģu":10879,"ĠlÆ°":10880,"Ġlá»ĳ":10881,"Ġlá»±":10882,"ĠhÃºng":10883,"Ġchuyen":10884,"Ġki":10885,"ĠmÃłnh":10886,"Ġmet":10887,"Ġsam":10888,"Ġdr":10889,"Ġphiá»ĩn":10890,"ĠTá»Ļi":10891,"Ġgiáº«m":10892,"ĠNur":10893,"Ġxá»ı":10894,"ĠCáº¥m":10895,"ĠHilton":10896,"ĠchoÃłng":10897,"chen":10898,"cháº³ng":10899,"ĠMain":10900,"ĠThiá»ĩp":10901,"ĠThuyáº¿t":10902,"inha":10903,"ĠLab":10904,"amond":10905,"ĠSir":10906,"aua":10907,"ĠAimar":10908,"ĠNho":10909,"aria":10910,"Thomas":10911,"ilian":10912,"ĠEC":10913,"ĠFish":10914,"Nhu":10915,"Ġtá»ĭt":10916,"KhÃ¡n":10917,"Khoa":10918,"ulos":10919,"ĠNghÄ©":10920,"ĠBarb":10921,"ezman":10922,"poulos":10923,"ĠParmalat":10924,"ĠPMSubject":10925,"Ġuá»ķng":10926,"ĠbÃ¬u":10927,"ĠEdm":10928,"ĠEdition":10929,"ylon":10930,"ĠHarris":10931,"ICO":10932,"ĠMBA":10933,"ĠurÃª":10934,"ĠSaray":10935,"ĠTuá»ĩ":10936,"ĠMelia":10937,"ĠMelbourne":10938,"ĠDellas":10939,"ĠBasel":10940,"ĠMueller":10941,"ĠIslamabad":10942,"ĠSiemens":10943,"Ġná»ĩm":10944,"Riedl":10945,"Ġphotocopy":10946,"ĠBrussels":10947,"011":10948,"Ed":10949,"Ronal":10950,"SO":10951,"Van":10952,"lÃºc":10953,"náº±m":10954,"nie":10955,"pen":10956,"sá»ķ":10957,"well":10958,"áº©ng":10959,"ngÃ´i":10960,"ĠtÃ½":10961,"ĠtÃ©t":10962,"ĠcÃ¢m":10963,"Ġtháº¹n":10964,"ĠlÃŃ":10965,"ĠlÄĥm":10966,"Ġliáº¿ng":10967,"Ġhinh":10968,"Ġkiáº¿p":10969,"Ġbáº§n":10970,"Ġbuá»ĳt":10971,"Ġbreak":10972,"ĠnhÃŃch":10973,"Ġgá»ĵng":10974,"Ġgames":10975,"phong":10976,"ĠHang":10977,"ĠMÃ¢y":10978,"ĠMend":10979,"ĠSk":10980,"ĠSiri":10981,"aud":10982,"ĠTrá»£":10983,"ĠChang":10984,"enberg":10985,"Cháº¿":10986,"aton":10987,"ative":10988,"ĠWon":10989,"ĠWol":10990,"ĠOm":10991,"trÃº":10992,"ington":10993,"ĠZeb":10994,"ĠvÃ©n":10995,"ĠCanon":10996,"ekong":10997,"1989":10998,"ĠBuá»ĵn":10999,"ĠVinaPhone":11000,"ĠSGD":11001,"ĠPrague":11002,"ĠMiller":11003,"ĠHeinze":11004,"ĠCongo":11005,"ĠVirginia":11006,"ĠGrammy":11007,"ĠLisbon":11008,"ĠASIAD":11009,"Ronaldo":11010,"Alex":11011,"Bao":11012,"CL":11013,"LCD":11014,"Ná»ģn":11015,"Ol":11016,"PA":11017,"UB":11018,"ghi":11019,"http":11020,"kas":11021,"ļt":11022,"áºł":11023,"Ġháº±n":11024,"Ġchá»Ļi":11025,"Ġnáº»o":11026,"ĠgÄĥm":11027,"Ġngáº©m":11028,"Ġngá»ĳn":11029,"ĠdÄ©a":11030,"phÃª":11031,"ĠTF":11032,"ĠTÃł":11033,"Ġvá»±":11034,"Ġrá»©t":11035,"Ġxiáº¿t":11036,"ĠMÆ°a":11037,"ĠMey":11038,"ĠÄĲoáº¡n":11039,"ĠSw":11040,"ĠSoftware":11041,"ĠChechn":11042,"ĠGa":11043,"ÄĲáº£ng":11044,"ĠQatar":11045,"ĠRanh":11046,"ĠGiÃ¡c":11047,"ĠFM":11048,"ĠFig":11049,"rad":11050,"Ġ1950":11051,"Ġphá»¥ng":11052,"Ġmá»įng":11053,"osph":11054,"ody":11055,"abeth":11056,"ĠShe":11057,"ĠService":11058,"tien":11059,"ĠSanta":11060,"icoid":11061,"Ġhá»ķi":11062,"ĠElvis":11063,"Ġ1965":11064,"IAEA":11065,"ĠSteaua":11066,"ĠRoss":11067,"ĠDomin":11068,"ĠAbdul":11069,"ĠNicole":11070,"ĠCentr":11071,"Ġthá»ım":11072,"Ġsilicon":11073,"ĠSophos":11074,"ĠEdwards":11075,"ĠMoya":11076,"Ġenzyme":11077,"Ġhecta":11078,"ĠChechnya":11079,":-":11080,"Huy":11081,"MÃłn":11082,"Petro":11083,"VÃŃ":11084,"aja":11085,"dÃłnh":11086,"dro":11087,"ique":11088,"ken":11089,"ois":11090,"ound":11091,"viÃªn":11092,"ĠÃ¬":11093,"Ġop":11094,"á»Ĳ":11095,"Ġtáº¯n":11096,"Ġcoc":11097,"ĠÄĳÃºt":11098,"nháº£y":11099,"ĠlÃ³ng":11100,"ĠbÃ¹a":11101,"Ġtren":11102,"Ġtrá»Ľ":11103,"ĠtrÃ³c":11104,"Ġnhá»£t":11105,"Ġgáº·m":11106,"ĠngÃ¹ng":11107,"ĠngÃºt":11108,"Ġdáº¥p":11109,"ĠphÃ¬nh":11110,"ĠTob":11111,"ĠNEC":11112,"Ġxá»Ł":11113,"ĠHÃ¡t":11114,"ĠVel":11115,"chÃºng":11116,"chuyá»ĥn":11117,"ĠBá»Ļt":11118,"ĠPSG":11119,"Ġgiá»Ļ":11120,"Ġhoáº¯c":11121,"eral":11122,"ĠDer":11123,"endo":11124,"ĠGabri":11125,"ĠÄĳá»ģm":11126,"ĠtuÃ´n":11127,"âĢĿ-":11128,"ĠIT":11129,"ĠIng":11130,"Tháº§y":11131,"rotta":11132,"Ġtoáº¡":11133,"ĠYou":11134,"ĠYudhoyono":11135,"ÄĳÃ´i":11136,"otto":11137,"Ġ03":11138,"Ġláº½o":11139,"ĠInterpol":11140,"Ġthá»Ńa":11141,"ĠAndrade":11142,"undai":11143,"Ġoanh":11144,"ACO":11145,"ĠSadr":11146,"ĠAngkor":11147,"ĠRosenborg":11148,"Ġrá»¥t":11149,"ĠBrook":11150,"ĠHasselbaink":11151,"Bremen":11152,"ĠIndra":11153,"ĠMaxim":11154,"ĠIMF":11155,"ĠQueens":11156,"Palermo":11157,"ĠCommun":11158,"ĠDigital":11159,"Shea":11160,"Ġáº¨n":11161,"zheimer":11162,"Ajax":11163,"Cur":11164,"Crist":11165,"Fernando":11166,"Hen":11167,"Paul":11168,"Tel":11169,"TÃ¹y":11170,"liÃªn":11171,"má»Ľi":11172,"rie":11173,"tÃ¹y":11174,"vÃŃ":11175,"nghi":11176,"Ġlim":11177,"ĠhÃ©o":11178,"Ġkien":11179,"Ġbáº£":11180,"Ġbox":11181,"ĠmÃºc":11182,"Ġmuá»ĳng":11183,"Ġsh":11184,"ĠkhÆ°á»Ľc":11185,"ĠkhÃŃt":11186,"Ġnguyá»ģn":11187,"ĠdÆ¡":11188,"Ġdá»ģn":11189,"ĠCÃ¹":11190,"ĠCuá»ĳn":11191,"ĠCocu":11192,"ĠHav":11193,"Ġchá»ĵn":11194,"ĠBent":11195,"ĠMach":11196,"ĠÄĲá»£t":11197,"ons":11198,"ĠSah":11199,"ĠSCO":11200,"ĠApril":11201,"ĠKod":11202,"ĠDDR":11203,"Ġkhoáº¯n":11204,"ĠId":11205,"ĠIv":11206,"ĠÃĬ":11207,"ĠWir":11208,"ĠWTA":11209,"ĠXung":11210,"ĠdÃ¹i":11211,"ury":11212,"Pha":11213,"dow":11214,"ovski":11215,"hoa":11216,"ĠAlzheimer":11217,"ards":11218,"ĠHaiti":11219,"ivert":11220,"ĠBach":11221,"ĠMicro":11222,"ĠMiccoli":11223,"ĠSanchez":11224,"ĠEURO":11225,"ĠCamry":11226,"izabeth":11227,"loria":11228,"ĠGood":11229,"lett":11230,"Ġ1962":11231,"1987":11232,"ĠPierre":11233,"ĠVenus":11234,"ĠÃĶn":11235,"Station":11236,"ĠLauren":11237,"ĠKTX":11238,"ĠSystems":11239,"ĠAhmadinejad":11240,"ĠSarayoot":11241,"ĠZebina":11242,"Báº§u":11243,"Da":11244,"Ray":11245,"Tá»ĳt":11246,"boy":11247,"cáº£m":11248,"met":11249,"vÃ¹ng":11250,"vÃ²ng":11251,"zan":11252,"ĠÃ¹":11253,"Ġáº£m":11254,"Ġtuá»Ļc":11255,"ĠvÃª":11256,"ĠbÃłnh":11257,"ĠbÃ¡i":11258,"ĠbÆ°á»Ľng":11259,"Ġbáº©y":11260,"ĠnhÄĥng":11261,"ĠsÃ¹ng":11262,"Ġdan":11263,"ĠdÃ£n":11264,"ĠTÆ¡":11265,"ĠrÃ´m":11266,"ĠxÃ©n":11267,"ĠCá»ĳng":11268,"chia":11269,"ĠBá»ĵng":11270,"Ġ1000":11271,"ĠMHz":11272,"ĠLem":11273,"ĠLeban":11274,"ĠSv":11275,"ĠPA":11276,"ĠPele":11277,"ĠAR":11278,"ĠNháº±m":11279,"ĠDA":11280,"ĠGeo":11281,"ÄĲáº¥t":11282,"Ġkhoáº£":11283,"ĠUt":11284,"Ġ430":11285,"ThÃ´i":11286,"Tháº§n":11287,"TrÃ¬nh":11288,"TrÃ²":11289,"ChÃłng":11290,"rows":11291,"ĠFid":11292,"ĠFav":11293,"radi":11294,"ĠJustin":11295,"thal":11296,"tháº§y":11297,"ĠAnthony":11298,"ĠArena":11299,"ĠNghÃ¨":11300,"ĠMarie":11301,"Ġbá»ķn":11302,"ĠBaraja":11303,"ĠHyundai":11304,"1992":11305,"ĠtÃŃa":11306,"Nghá»ģ":11307,"ĠPerrotta":11308,"Ġ1964":11309,"luivert":11310,"ĠMosul":11311,"ĠAbbey":11312,"ĠRuben":11313,"ishing":11314,"ĠPicasso":11315,"ĠRebecca":11316,"ĠDefoe":11317,"alladolid":11318,"Christian":11319,"alayeta":11320,"ĠLebanon":11321,"Cá»ķ":11322,"Dá»±a":11323,"Hg":11324,"Ham":11325,"Mark":11326,"PSV":11327,"Táº¡o":11328,"cá»©":11329,"duc":11330,"ius":11331,"má»Ł":11332,"má»©c":11333,"sÃ¡t":11334,"tail":11335,"zai":11336,"Ġtháº£y":11337,"Ġláº«m":11338,"Ġmo":11339,"Ġnháºµn":11340,"Ġkháº½":11341,"ĠkhÃ¹ng":11342,"ĠTod":11343,"ĠrÃŃt":11344,"Ġrich":11345,"chá»ĭ":11346,"chev":11347,"aii":11348,"ĠMul":11349,"ĠThuyá»ģn":11350,"Ġradar":11351,"ĠTruyá»ĩn":11352,"ĠTroy":11353,"ĠKuz":11354,"erg":11355,"ĠChos":11356,"ĠGam":11357,"ĠPháº£n":11358,"Ġ340":11359,"eless":11360,"Thá»Ń":11361,"raph":11362,"Nguy":11363,"Ġcaffe":11364,"Ġnguyen":11365,"akov":11366,"Ġ07":11367,"Ġá»·":11368,"ĠAriel":11369,"obar":11370,"ĠAlain":11371,"Ġ145":11372,"nets":11373,"ĠLeg":11374,"lop":11375,"uda":11376,"ĠAnderson":11377,"ĠClaudio":11378,"ĠBeck":11379,"Ġ1963":11380,"ĠDiamond":11381,"Ġchipset":11382,"ĠGeorgia":11383,"ĠPanasonic":11384,"ĠAct":11385,"ĠParker":11386,"Ġkaratedo":11387,"ĠGilberto":11388,"ĠKenya":11389,"izares":11390,"ĠFelipe":11391,"ĠMartina":11392,"ADB":11393,"warz":11394,"ĠVaart":11395,"Ġlipid":11396,"ckhorst":11397,"latan":11398,"ĠRemon":11399,"Aviv":11400,"ĠGomes":11401,"ĠZagor":11402,"ĠÄĥng":11403,"ĠBucharest":11404,"ĠEdmilson":11405,"BÃ©":11406,"BBÃłn":11407,"Fab":11408,"GP":11409,"KÃŃnh":11410,"LÆ°á»£t":11411,"ON":11412,"Re":11413,"bÃłi":11414,"gho":11415,"hcm":11416,"limex":11417,"mÃ¡t":11418,"ser":11419,"Ġlá»¥y":11420,"Ġbáº¹n":11421,"Ġtrá»Ĺi":11422,"Ġshop":11423,"Ġgall":11424,"Ġngá»ĳc":11425,"ĠTáº¿":11426,"ĠTÃ½":11427,"ĠrÃ¨m":11428,"ĠNá»Ĺ":11429,"ĠNÃ©n":11430,"ĠNeri":11431,"ĠxÃ¨o":11432,"ĠxÃ³i":11433,"ĠHas":11434,"cháº¥n":11435,"ĠBá»ķ":11436,"ĠBry":11437,"ĠMekong":11438,"ĠThÃ¡c":11439,"ĠTháº£nh":11440,"ĠSn":11441,"ĠPed":11442,"ĠTrá»©ng":11443,"ĠKezman":11444,"ĠNhá»ĭ":11445,"ĠPho":11446,"ĠPhone":11447,"ĠKhá»ķ":11448,"asia":11449,"ĠJay":11450,"ĠXÄĥng":11451,"ider":11452,"ÄĳÃªm":11453,"1980":11454,"ĠAlm":11455,"ichella":11456,"neth":11457,"iki":11458,"ubishi":11459,"ĠCarib":11460,"ache":11461,"ugia":11462,"ĠSeaprodex":11463,"ĠMauro":11464,"ĠMcCl":11465,"ĠCoria":11466,"Ġje":11467,"ĠGuillermo":11468,"ivaldo":11469,"ASEP":11470,"ĠVoIP":11471,"Ġniu":11472,"ĠÄĳÆ°Æ¡c":11473,"Ġsalon":11474,"ĠPattani":11475,"Google":11476,"DÆ°":11477,"HQ":11478,"Jan":11479,"Linh":11480,"Máº¯t":11481,"Rom":11482,"Sec":11483,"cáº¥p":11484,"cÆ¡m":11485,"lao":11486,"ná»Ļi":11487,"sso":11488,"Ġor":11489,"Ġ).":11490,"Ġtáº¥y":11491,"ĠÄĳáº±m":11492,"Ġláº¯t":11493,"ĠchÄ©a":11494,"ĠkÄ©":11495,"ĠbÆ°ng":11496,"Ġnhen":11497,"ĠsÃŃt":11498,"Ġnáº¿t":11499,"Ġgá»ī":11500,"Ġngá»Ŀi":11501,"Ġngáº©ng":11502,"Ġdiva":11503,"ĠTáº¥m":11504,"Ġquá»ĭ":11505,"Ġráº±m":11506,"Ġxá»ĳt":11507,"ĠHáº¡ng":11508,"ĠHUD":11509,"ĠBit":11510,"ĠLá»Ĺ":11511,"ĠSÃ¡t":11512,"ĠSem":11513,"ĠTrev":11514,"ĠKab":11515,"ĠKluivert":11516,"ĠNháºŃp":11517,"ĠDáº¥u":11518,"ĠGhi":11519,"ÄĲA":11520,"ThÃŃ":11521,"Tranh":11522,"etta":11523,"ader":11524,"ÄĳÃłn":11525,"Ġ127":11526,"Ġ116":11527,"ovan":11528,"ree":11529,"ĠDown":11530,"Ġpl":11531,"ĠMarsh":11532,"khá»ĳi":11533,"Ġthá»¥t":11534,"Giáº£":11535,"giao":11536,"giáº¥y":11537,"ĠRobson":11538,"mark":11539,"ocktail":11540,"biasso":11541,"ĠJunich":11542,"ĠJuninho":11543,"ĠMagath":11544,"ĠPlayStation":11545,"ĠHotmail":11546,"ĠBusiness":11547,"Ġgá»Ŀm":11548,"ĠCruise":11549,"ĠBronckhorst":11550,"ghouti":11551,"110":11552,"Af":11553,"Day":11554,"LoÃłi":11555,"Mad":11556,"Ur":11557,"Xá»Ń":11558,"cá»Ńa":11559,"dÃ¹ng":11560,"ges":11561,"hÃ¬nh":11562,"kinh":11563,"máº·t":11564,"ress":11565,"tiÃªu":11566,"tiáº¿ng":11567,"ye":11568,"ĠÃ³":11569,"Ġcháº¡nh":11570,"ĠtrÃ¡o":11571,"Ġnháº£m":11572,"ĠsÃ¡n":11573,"Ġkhang":11574,"Ġdáº¥m":11575,"ĠTá»ıi":11576,"ĠTown":11577,"ĠNot":11578,"ĠCá»ı":11579,"ĠCáº©n":11580,"ĠHad":11581,"chiÃªu":11582,"chá»©ng":11583,"ĠBÃ¹":11584,"ĠBá»ĵn":11585,"ĠBÆ°á»Łi":11586,"ĠMÃ£nh":11587,"ĠLÆ°á»£t":11588,"ĠLag":11589,"ĠLisa":11590,"Ġbá»ĭp":11591,"ĠNgá»įn":11592,"ĠKTS":11593,"ĠKatr":11594,"ĠKewell":11595,"erman":11596,"ĠGloria":11597,"ĠPhoto":11598,"ÄĲá»£t":11599,"Ġtuá»ĵn":11600,"ĠIan":11601,"Thá»«a":11602,"etsk":11603,"ĠGiÃły":11604,"Ġ102":11605,"Ġ104":11606,"ĠXH":11607,"tho":11608,"thÆ°á»£ng":11609,"ĠOS":11610,"ĠInf":11611,"Äĳa":11612,"ulth":11613,"oba":11614,"ĠReina":11615,"Ġ175":11616,"ĠStart":11617,"alli":11618,"order":11619,"Leeds":11620,"ĠCanizares":11621,"ĠAndriy":11622,"Ġhuá»³nh":11623,"ĠMcE":11624,"ĠCorradi":11625,"Ġmodule":11626,"ĠFerrero":11627,"intendo":11628,"treet":11629,"ĠComputer":11630,"ĠJimmy":11631,"Add":11632,"ĠTBN":11633,"Colombia":11634,"NHÄĲÃģ":11635,"ĠKennedy":11636,"ĠFried":11637,"athiwat":11638,"ĠHughes":11639,"ĠQueensland":11640,"netsova":11641,"BD":11642,"Cro":11643,"Dáº§u":11644,"GÃ¡i":11645,"Mo":11646,"VÃµ":11647,"VÆ°á»£t":11648,"Windows":11649,"bÃ³ng":11650,"cona":11651,"hat":11652,"mÃ¡":11653,"máº·c":11654,"zy":11655,"Ġat":11656,"ĠÃ©o":11657,"ĠÄĳay":11658,"Ġváº©n":11659,"Ġláº¹":11660,"ĠhÆ¡":11661,"Ġchang":11662,"Ġbáº·m":11663,"ĠmÃ¡nh":11664,"Ġmedia":11665,"Ġmafia":11666,"ĠtrÅ©ng":11667,"Ġsáº§m":11668,"Ġnem":11669,"Ġgel":11670,"Ġgáº¯p":11671,"ĠdáºŃu":11672,"ĠxÆ¡i":11673,"ĠCáº¯m":11674,"ĠVar":11675,"chai":11676,"ĠMem":11677,"ĠMoh":11678,"ĠMerk":11679,"ĠÄĲÃ¡p":11680,"ĠThÆ°á»Łng":11681,"ĠTháº¯m":11682,"ĠLá»Ĺi":11683,"ĠLenn":11684,"ĠSÃ¢m":11685,"ĠSap":11686,"aude":11687,"ĠNgo":11688,"ĠKCB":11689,"ĠPhÃ¡i":11690,"Ġloan":11691,"ĠRá»Ńa":11692,"ĠRev":11693,"ĠKhÃ¡ng":11694,"ThÆ°":11695,"ĠGiÃłnh":11696,"ĠXá»Ń":11697,"ĠHoáº£":11698,"irut":11699,"ĠNghÃ©":11700,"ieg":11701,"ough":11702,"ienco":11703,"ĠClark":11704,"ĠSeung":11705,"ĠCraig":11706,"ĠErn":11707,"Ġ1969":11708,"ĠÄĲKHK":11709,"iddink":11710,"ĠCPC":11711,"ĠPanucci":11712,"ĠSantiago":11713,"ĠCATP":11714,"ĠJunior":11715,"ĠRoberts":11716,"ĠToronto":11717,"value":11718,"eckler":11719,"GÄĲTLA":11720,"ÃĤm":11721,"ĠJohansson":11722,"ĠPepsi":11723,"jinov":11724,"ĠCadiz":11725,"Ġrichter":11726,"ĠKatrina":11727,"320":11728,"Biá»ĥu":11729,"Bec":11730,"LÃ¡":11731,"MN":11732,"Mac":11733,"RI":11734,"Reu":11735,"TQ":11736,"Tuyáº¿t":11737,"WB":11738,"bÃŃ":11739,"báº§u":11740,"cÆ¡n":11741,"cak":11742,"furt":11743,"gÃ¢y":11744,"luigi":11745,"vá»ĳn":11746,"ÃĲ":11747,"Ġar":11748,"Ġá»ĳp":11749,"Ġáºµm":11750,"ĠÄĳáºŃn":11751,"Ġvon":11752,"Ġthau":11753,"Ġkali":11754,"ĠmÆ°Æ¡ng":11755,"Ġtrá»ģ":11756,"Ġnhá»į":11757,"Ġsum":11758,"Ġngai":11759,"ĠdÃŃ":11760,"phÃ¹":11761,"ĠrÆ°ng":11762,"Ġruá»ķi":11763,"ĠCá»«":11764,"ches":11765,"ĠBom":11766,"aing":11767,"ĠMest":11768,"ĠMiá»ħu":11769,"ĠÄĲá»ĩ":11770,"ĠÄĲá»£i":11771,"Ġnghiáº¿n":11772,"ĠTháº±ng":11773,"ĠLed":11774,"ĠLot":11775,"ĠSamp":11776,"ĠPL":11777,"ĠPocket":11778,"iner":11779,"ĠAung":11780,"ĠAtt":11781,"erazzi":11782,"ĠDir":11783,"ĠPhillips":11784,"ĠILA":11785,"etam":11786,"ĠFont":11787,"ĠXÃºc":11788,"Ġbaby":11789,"trÆ°á»Łng":11790,"Ġ126":11791,"ĠAlv":11792,"Ġpit":11793,"ĠZalayeta":11794,"Ġwebcam":11795,"ĠEmail":11796,"Ġmuá»Ļi":11797,"allet":11798,"ĠCond":11799,"ĠCambiasso":11800,"1991":11801,"izz":11802,"ĠKhuÃ´n":11803,"ĠElena":11804,"ĠOsaka":11805,"ĠBojinov":11806,"ĠPauleta":11807,"ĠVinaGame":11808,"ĠVoeckler":11809,"ĠMusic":11810,"ĠKoller":11811,"ĠNarathiwat":11812,"ĠHawaii":11813,"ĠWolfsburg":11814,"ĠCastro":11815,"ĠVincenzo":11816,"Ġcorticoid":11817,"ĠAnderlecht":11818,"ĠElectronic":11819,"ĠSylv":11820,"ĠKuznetsova":11821,"ĠJunichiro":11822,"Reuters":11823,"ĠMestalla":11824,"AE":11825,"Háº¡t":11826,"Iá»":11827,"Ivan":11828,"Lá»Ĺi":11829,"TÆ°":11830,"TÃ¡":11831,"Tour":11832,"mohan":11833,"play":11834,"vá»¥":11835,"visco":11836,"zania":11837,"Ġasp":11838,"ĠtáºŃu":11839,"ĠtÃ¢ng":11840,"ĠthÃ³c":11841,"Ġhist":11842,"Ġnháº±ng":11843,"ĠnÆ¡":11844,"ĠnÅ©ng":11845,"Ġnáº»":11846,"Ġná»Ľt":11847,"ĠHÃ´n":11848,"ĠHur":11849,"ĠVac":11850,"ĠVass":11851,"chÃ¢n":11852,"ĠBad":11853,"ĠMiáº¿u":11854,"ĠÄĳá»Ļn":11855,"ĠLÃłnh":11856,"amy":11857,"ĠSett":11858,"ĠTrÆ°a":11859,"ĠTrÃ¡ch":11860,"ĠTrá»«":11861,"ĠKem":11862,"ĠChern":11863,"ĠGÃł":11864,"ÄĲá»Ĺ":11865,"Ġquat":11866,"ĠRon":11867,"ĠRov":11868,"ĠRain":11869,"ĠKhÃºc":11870,"Ġsá»Ńng":11871,"ĠEb":11872,"ĠVNÄĲ":11873,"ĠWo":11874,"Ġtoang":11875,"Ġtoilet":11876,"adei":11877,"ĠYas":11878,"ÄĳÃ¢y":11879,"Äĳoáº¡n":11880,"Phon":11881,"PhÃ³ng":11882,"iá»ħng":11883,"Ġ185":11884,"iane":11885,"ĠBrent":11886,"ĠSergio":11887,"oper":11888,"rique":11889,"ĠBlatter":11890,"VNPT":11891,"ĠMaterazzi":11892,"ĠVinac":11893,"ĠAdrian":11894,"ĠKarel":11895,"oleez":11896,"ĠMaj":11897,"Ġsilat":11898,"ĠQueen":11899,"ĠToledo":11900,"bandian":11901,"ĠRMIT":11902,"ĠKorei":11903,"ĠOctober":11904,"ĠFisichella":11905,"Ġgiá»Ļp":11906,"!\",":11907,"';":11908,"512":11909,"511":11910,"Bul":11911,"GD":11912,"NÃłng":11913,"Sad":11914,"VÃ´":11915,"bul":11916,"hoÃłn":11917,"mÃ³n":11918,"táºŃp":11919,"táº¡m":11920,"tord":11921,"yp":11922,"Ġ@":11923,"ĠÃºng":11924,"ĠtÃ¬":11925,"ĠcÃ¢":11926,"ĠlÆ¡i":11927,"ĠkÃŃ":11928,"Ġmiáº¿t":11929,"ĠsÃł":11930,"ĠngÃ¡c":11931,"ĠngÆ°Æ¡":11932,"Ġngá»£p":11933,"phÃŃa":11934,"ĠToni":11935,"Ġran":11936,"ĠrÃº":11937,"Ġráº¿t":11938,"ĠrÃ¨":11939,"ĠNab":11940,"ĠNow":11941,"ĠNeu":11942,"ĠCáº¡nh":11943,"ĠCá»§ng":11944,"ĠHum":11945,"ĠLá»ĩnh":11946,"Ġlá»ıi":11947,"ĠPol":11948,"Ġrat":11949,"ĠAe":11950,"ĠAqu":11951,"ĠKiá»ĩn":11952,"ĠKÃªnh":11953,"ĠCham":11954,"ĠChev":11955,"ĠDeb":11956,"ĠDeng":11957,"ĠRLCD":11958,"Ġtua":11959,"elen":11960,"ĠUT":11961,"ora":11962,"Ġluá»¹":11963,"Ġkhuá»·":11964,"Chim":11965,"ĠGiann":11966,"Ġvá»ĩt":11967,"ĠÄĳoÃ¡i":11968,"Ġ106":11969,"ĠJens":11970,"Ġthoáº¯t":11971,"ĠHop":11972,"ĠHome":11973,"Nhiá»ĩm":11974,"Ġdá»Ĺi":11975,"ures":11976,"Äĳá»ĵ":11977,"Ġ114":11978,"ÄĲTDÄĲ":11979,"khÃ³":11980,"ĠLuque":11981,"ĠmÃ´t":11982,"abel":11983,"Giáº¥c":11984,"afi":11985,"Ġuá»ĥ":11986,"ĠVald":11987,"ĠClub":11988,"ĠHAP":11989,"ĠMauricio":11990,"garet":11991,"Barca":11992,"ĠColeen":11993,"ĠJune":11994,"ustar":11995,"Ġká»ģnh":11996,"Ġami":11997,"ĠRaj":11998,"ĠKhoáº£n":11999,"ĠJihad":12000,"guer":12001,"ĠTanzania":12002,"dsay":12003,"ĠIgor":12004,"','#":12005,"Uruguay":12006,"412":12007,"Goran":12008,"Il":12009,"JICO":12010,"ML":12011,"OPEC":12012,"Rub":12013,"Racing":12014,"SH":12015,"TD":12016,"TÃ³m":12017,"VÃłng":12018,"Vin":12019,"WACO":12020,"br":12021,"bÃłn":12022,"báºŃt":12023,"dÃ¢n":12024,"ju":12025,"káº¿":12026,"kip":12027,"lob":12028,"sÄĥn":12029,"vez":12030,"Ġá»ĳ":12031,"ĠvÃºt":12032,"ĠthÃºng":12033,"Ġláº£ng":12034,"ĠhuÃ¢n":12035,"ĠtrÆ°Æ¡":12036,"ĠnhÃ¡p":12037,"ĠsáºŃm":12038,"ĠnÃ¡":12039,"ĠnÆ°á»Ľu":12040,"Ġngá»Ľt":12041,"ĠdÆ°á»£ng":12042,"Ġdia":12043,"phá»¥":12044,"phao":12045,"Ġráº¡c":12046,"ĠxiÃªu":12047,"ĠCanh":12048,"ĠCah":12049,"ĠHart":12050,"ĠHiddink":12051,"ĠVáº¿t":12052,"ĠLet":12053,"ĠLoÃłi":12054,"ĠSev":12055,"ĠSá»ĳt":12056,"ĠPotter":12057,"ĠChá»Ŀ":12058,"ĠChav":12059,"ĠChÃłm":12060,"ĠDim":12061,"ĠDac":12062,"ĠGoran":12063,"Ġdoi":12064,"ÄĲÃło":12065,"ĠRÄĥng":12066,"ĠUSA":12067,"Ġluáº©n":12068,"Trá»Ŀi":12069,"ĠkhÃ³m":12070,"asek":12071,"ĠQuay":12072,"ĠGiÃªng":12073,"ĠFenerbahce":12074,"ĠWis":12075,"ides":12076,"osito":12077,"ĠOK":12078,"ÄĳÃª":12079,"ampag":12080,"ird":12081,"iep":12082,"sene":12083,"khail":12084,"abin":12085,"ĠManmohan":12086,"Quáº§n":12087,"eppe":12088,"ĠRobot":12089,"Æ¯u":12090,"ĠCalvin":12091,"letcher":12092,"ĠLindsay":12093,"ĠCoruna":12094,"ĠKyoto":12095,"ĠDomen":12096,"ĠGreg":12097,"ĠAbdel":12098,"ĠSorensen":12099,"Ġ(!?).":12100,"ĠAyala":12101,"ĠJenas":12102,"ĠZhang":12103,"ĠSomalia":12104,"arthy":12105,"Rooney":12106,"ĠLenovo":12107,"ĠJolie":12108,"ĠTrinidad":12109,"ĠNalbandian":12110,"Ukraina":12111,"ĠFiguer":12112,"rowser":12113,"ulthard":12114,",âĢ¦":12115,"Dáº«n":12116,"Huyá»ģn":12117,"Jul":12118,"KiÃªn":12119,"MO":12120,"NÃ´ng":12121,"SÄĲ":12122,"Vi":12123,"VÃ¹ng":12124,"Vui":12125,"aph":12126,"bÃ¬a":12127,"danh":12128,"ea":12129,"há»ĩ":12130,"jo":12131,"mai":12132,"mÃ¡u":12133,"vÄĥn":12134,"vÃµ":12135,"yr":12136,"ĠÆ°Æ¡m":12137,"ĠtÃłnh":12138,"Ġhun":12139,"Ġháº»o":12140,"Ġbus":12141,"ĠnhÆ¡":12142,"Ġnáº·n":12143,"Ġgá»ķ":12144,"Ġguá»ĳc":12145,"ĠTÆ°Æ¡i":12146,"Ġthá»ıi":12147,"ĠNáº¥m":12148,"ĠNDT":12149,"Ġhá»Ľ":12150,"ĠHTM":12151,"Ġchá»«a":12152,"á»±t":12153,"ayev":12154,"ĠBun":12155,"ĠBow":12156,"ĠMáº¡n":12157,"ĠMÄĥng":12158,"ĠMÃ³ng":12159,"ĠÄĲáº»":12160,"ĠÄĲTVN":12161,"ĠLÆ°á»Ľi":12162,"ĠSE":12163,"ĠSuy":12164,"ĠSuk":12165,"ĠSÃŃp":12166,"Ġgiá»Ĺ":12167,"ĠAtalanta":12168,"ĠNgoc":12169,"ĠChoi":12170,"ĠNhá»ĭp":12171,"ĠGem":12172,"Ġ-&":12173,"aris":12174,"elka":12175,"aso":12176,"Cháº¥n":12177,"ict":12178,"ater":12179,"ĠEun":12180,"ĠHoc":12181,"ĠhÃ£n":12182,"ĠAnast":12183,"Ġ121":12184,"Phillips":12185,"andez":12186,"ieng":12187,"Ġ148":12188,"ĠBarghouti":12189,"utan":12190,"ĠCarter":12191,"ashid":12192,"athon":12193,"ĠElizabeth":12194,"Giá»¯":12195,"1988":12196,"ĠCharlie":12197,"Ġxá»īa":12198,"ompson":12199,"ĠJulie":12200,"ĠCAN":12201,"ĠPetrov":12202,"ĠMaster":12203,"ĠQLTT":12204,"ways":12205,"ĠChalabi":12206,"ĠSofia":12207,"ĠTawan":12208,"ĠTTCK":12209,"ĠZinedine":12210,"Posted":12211,"Panathinaikos":12212,"ĠMeyde":12213,"ĠZagorakis":12214,"Ġkhuá»·u":12215,"Card":12216,"Di":12217,"IN":12218,"Iraq":12219,"Lo":12220,"Lau":12221,"Tuáº¥n":12222,"bes":12223,"cium":12224,"gÃł":12225,"rÆ¡":12226,"tem":12227,"von":12228,"Ġq":12229,"Ġcocktail":12230,"ĠvÃ¡nh":12231,"Ġluá»ĳng":12232,"ĠlÃ¢ng":12233,"Ġbáº½":12234,"Ġbáº±m":12235,"Ġmy":12236,"Ġsáº¯ng":12237,"Ġkhá»Ŀ":12238,"ĠngÆ°u":12239,"Ġpháº¿t":12240,"ĠTiago":12241,"quÃª":12242,"ĠgiÃ£i":12243,"ĠNá»Ńa":12244,"ĠNÃ¢ng":12245,"ĠNumancia":12246,"ĠxÃ³c":12247,"ĠCud":12248,"Ġhá»Ŀi":12249,"ĠBou":12250,"ĠMaz":12251,"ĠnghÃŃa":12252,"ĠLAN":12253,"ĠPav":12254,"inos":12255,"ĠCháº¡y":12256,"ĠDat":12257,"ĠDur":12258,"ĠGet":12259,"Ġ380":12260,"Ġyeu":12261,"alo":12262,"ĠngoÃ£n":12263,"2008":12264,"ason":12265,"icill":12266,"ĠJos":12267,"ĠJoh":12268,"ĠJoo":12269,"ĠJust":12270,"ĠXÃ¡":12271,"ĠInst":12272,"Äĳá»Ļ":12273,"trá»¥":12274,"Pháº£n":12275,"ĠArn":12276,"ĠÄĲHQG":12277,"ĠMars":12278,"ĠLex":12279,"ross":12280,"Leicester":12281,"ĠColor":12282,"astian":12283,"axo":12284,"ĠPrso":12285,"enstein":12286,"ĠGronk":12287,"ĠQuynh":12288,"ĠMatth":12289,"uzzi":12290,"attle":12291,"ĠTommy":12292,"ĠHeid":12293,"Ġ1956":12294,"ĠMacedon":12295,"ĠEsposito":12296,"ĠFlorent":12297,"ĠWiltord":12298,"ĠAvram":12299,"ĠBosnia":12300,"ĠMusab":12301,"ĠSecurity":12302,"ĠCharisteas":12303,"Ãļc":12304,"NICEF":12305,"ĠKidman":12306,"Ġresort":12307,"ĠJesus":12308,"ĠChosun":12309,"ĠGronkjaer":12310,"!)":12311,"750":12312,"AG":12313,"Ben":12314,"Bank":12315,"Kiáº¿n":12316,"Sky":12317,"Tech":12318,"Vo":12319,"Washington":12320,"gáº·p":12321,"iesta":12322,"kiá»ĥm":12323,"sÃ¡ng":12324,"tá»«ng":12325,"web":12326,"ynamo":12327,"Ġit":12328,"ĠthÆ¡i":12329,"Ġlem":12330,"ĠhÃ¹m":12331,"ĠmÃ¡ng":12332,"ĠnhÃ¡c":12333,"ĠnhÃ©p":12334,"Ġgá»įng":12335,"ĠngáºŃy":12336,"Ġden":12337,"ĠphÄĥng":12338,"Ġphishing":12339,"ĠTÃ¡":12340,"ĠTáº¡ng":12341,"ĠTet":12342,"ĠTat":12343,"Ġquáº·c":12344,"ĠrÄĥm":12345,"Ġtá»ģ":12346,"Ġthá»ī":12347,"ĠCin":12348,"ĠHis":12349,"ĠVDC":12350,"ĠVissan":12351,"ĠÄĲÃ³n":12352,"ĠThompson":12353,"ĠPos":12354,"ĠPoe":12355,"ĠPJICO":12356,"ĠÄĳÃ³a":12357,"enia":12358,"Ġviol":12359,"ĠkhÃ³e":12360,"useppe":12361,"adze":12362,"urta":12363,"ĠAnn":12364,"Ġ119":12365,"Ġá»ļt":12366,"obyl":12367,"Ġwin":12368,"ĠZlatan":12369,"ierre":12370,"ube":12371,"ution":12372,"sten":12373,"estern":12374,"ĠSchwarz":12375,"Ġbá»ģnh":12376,"1985":12377,"ĠNaj":12378,"ĠAtlant":12379,"ustav":12380,"ĠKlose":12381,"ycin":12382,"Ġtrojan":12383,"ĠSorin":12384,"Ġzoom":12385,"ĠBobby":12386,"ĠLuxembourg":12387,"ĠMitsubishi":12388,"ĠrÃ¬u":12389,"ĠHÄĲTT":12390,"lautern":12391,"ĠLawrence":12392,"ĠKovac":12393,"Phonak":12394,"Bulgaria":12395,"!!":12396,":âĢĿ":12397,"Erik":12398,"LÃ¢u":12399,"Ne":12400,"NÃ¢ng":12401,"SKT":12402,"Tang":12403,"Tá»Ľi":12404,"VP":12405,"VÄĲV":12406,"báº¯n":12407,"cÄĥn":12408,"mat":12409,"sar":12410,"trol":12411,"wi":12412,"áº¾":12413,"ĠÄĳuá»ĳc":12414,"Ġvali":12415,"ĠthÅ©ng":12416,"Ġthiá»ĥn":12417,"ĠlÃ¬a":12418,"Ġkiá»ĩu":12419,"Ġkil":12420,"Ġballet":12421,"ĠmÃŃch":12422,"ĠmÃºi":12423,"ĠnhÃ¢m":12424,"ĠTi":12425,"ĠTar":12426,"ĠTogo":12427,"Ġrub":12428,"Ġrá»£n":12429,"ĠcÃ³p":12430,"ĠNig":12431,"ĠxÃ¢u":12432,"ĠHá»Ļ":12433,"ĠVoi":12434,"ĠBiro":12435,"ĠMÃ¡t":12436,"ĠÄĲáº£m":12437,"ĠTháºŃn":12438,"ĠTháº»":12439,"ĠThat":12440,"ĠLÃ¡i":12441,"Ġ(-":12442,"ĠStone":12443,"ĠTrá»ĳng":12444,"ĠDC":12445,"ĠGuy":12446,"ĠGol":12447,"ĠGaudio":12448,"arez":12449,"imb":12450,"ĠRá»«ng":12451,"elda":12452,"asco":12453,"ĠFletcher":12454,"ĠWT":12455,"ĠJup":12456,"NgÃ´":12457,"ĠYok":12458,"ĠOai":12459,"Ġmáº¹o":12460,"uni":12461,"unk":12462,"acetam":12463,"acurta":12464,"Äĳiá»ĩn":12465,"á»ĥu":12466,"ape":12467,"Khá»§ng":12468,"reg":12469,"ĠMargaret":12470,"odork":12471,"loyd":12472,"ĠConnect":12473,"ugan":12474,"ĠSeong":12475,"ĠTTXH":12476,"ashin":12477,"CSKA":12478,"1982":12479,"ĠÄĲATP":12480,"ĠTMÄĲT":12481,"ĠCoulthard":12482,"ĠNorm":12483,"ĠBernard":12484,"Ġpencak":12485,"ĠMohammad":12486,"Ġguá»ĵng":12487,"ĠFreder":12488,"ĠDonetsk":12489,"ĠWoodgate":12490,"eople":12491,"ĠSpirit":12492,"ĠMohd":12493,"ĠCondoleez":12494,"odorkovsky":12495,"520":12496,"Bu":12497,"Czech":12498,"MI":12499,"Mod":12500,"PMU":12501,"Ronald":12502,"Shi":12503,"Sun":12504,"Tun":12505,"VFF":12506,"back":12507,"bá»ĩu":12508,"dis":12509,"film":12510,"há»ĵi":12511,"lov":12512,"lá»«a":12513,"sÆ¡":12514,"uart":12515,"nháºŃp":12516,"ĠvÃ¡t":12517,"Ġváº¹t":12518,"ĠchÆ°":12519,"Ġbass":12520,"Ġmar":12521,"ĠmÆ°á»Ľt":12522,"Ġsty":12523,"ĠnÃ²i":12524,"Ġnylon":12525,"ĠphÃłng":12526,"ĠNao":12527,"ĠNintendo":12528,"ĠxiÃªn":12529,"anos":12530,"Ġhá»ī":12531,"ĠVáº½":12532,"chá»©":12533,"ĠMb":12534,"ĠMiá»ħn":12535,"ĠMista":12536,"ĠThiá»ĩt":12537,"ĠLiv":12538,"ĠSqu":12539,"ĠSá»£":12540,"ĠSub":12541,"ĠTrÃ¹ng":12542,"ĠDá»ĭp":12543,"ĠGua":12544,"ĠGran":12545,"ĠRoc":12546,"ĠRiver":12547,"elet":12548,"ĠUtd":12549,"Ġ480":12550,"Ġluá»ĵn":12551,"Trá»ĭnh":12552,"Ġtráº»o":12553,"roe":12554,"icia":12555,"ĠEasy":12556,"isi":12557,"Ġ107":12558,"Ġ109":12559,"ĠJP":12560,"ĠJet":12561,"ĠXong":12562,"ĠXáº¿p":12563,"Äĳáº·t":12564,"tráº£":12565,"sev":12566,"ĠHugo":12567,"ĠArsene":12568,"ebook":12569,"ĠDoug":12570,"ĠInterpet":12571,"ĠBarry":12572,"ika":12573,"ĠStand":12574,"ĠRomeo":12575,"Ġáº¤y":12576,"giai":12577,"hamoni":12578,"ĠDavies":12579,"ĠSchro":12580,"ĠAdam":12581,"ĠSports":12582,"Ġoai":12583,"ĠCNN":12584,"ĠEddie":12585,"ĠMorgan":12586,"ĠAirways":12587,"antan":12588,"ĠAngulo":12589,"pping":12590,"Baradei":12591,"ĠKyung":12592,"ĠFrankfurt":12593,"itsu":12594,"Ġseries":12595,"Ġ(?).":12596,"ĠToldo":12597,"Celta":12598,"ĠSÄĲNÄĲ":12599,"mitry":12600,"Beckham":12601,"ĠRovers":12602,"ĠFigueroa":12603,"acetamol":12604,"130":12605,"620":12606,"910":12607,"?!":12608,"Com":12609,"Dáº«u":12610,"Email":12611,"Ir":12612,"LÃªn":12613,"Lá»Ľp":12614,"Ricardo":12615,"Vinh":12616,"bÃªn":12617,"cáº§m":12618,"date":12619,"gre":12620,"hÃ¡t":12621,"lá»Ľp":12622,"mb":12623,"mith":12624,"rl":12625,"ror":12626,"str":12627,"uja":12628,"vÅ©":12629,"Â®":12630,"ngá»±a":12631,"Ġcá»¯":12632,"ĠbÃŃch":12633,"ĠmÆ°á»Ľp":12634,"ĠtrÃ¡m":12635,"Ġnhá»ĳi":12636,"ĠsÃ¡":12637,"Ġsáº¥p":12638,"ĠkhÆ°":12639,"ĠgÃ¹":12640,"Ġgáº«y":12641,"Ġngá»£":12642,"phy":12643,"Ġphung":12644,"ĠTá»ĩ":12645,"quáº£":12646,"ĠrÃªn":12647,"ĠCÃ¡m":12648,"ĠCent":12649,"ĠHem":12650,"ĠHann":12651,"ĠHernan":12652,"ĠBat":12653,"ĠBis":12654,"ĠBoy":12655,"ĠMoun":12656,"ĠÄĲá»ģn":12657,"ĠÄĲá»ķng":12658,"ĠnghÃªu":12659,"ono":12660,"ĠSho":12661,"ĠSou":12662,"ĠSÃ©c":12663,"aun":12664,"Ġbá»ĭu":12665,"ĠKarl":12666,"ĠGai":12667,"ĠGCN":12668,"ĠGTGT":12669,"esa":12670,"ima":12671,"ĠRalf":12672,"ĠIDC":12673,"ĠIyad":12674,"ThÃ©p":12675,"Truyá»ģn":12676,"ChÄĥm":12677,"Cháº·ng":12678,"ision":12679,"omo":12680,"Ġcap":12681,"thur":12682,"agate":12683,"ĠAnt":12684,"Phe":12685,"Ġ117":12686,"Ġ118":12687,"avia":12688,"á»ģm":12689,"ulf":12690,"ebo":12691,"obor":12692,"reens":12693,"khai":12694,"Ġwebmaster":12695,"ailly":12696,"ogh":12697,"ĠBae":12698,"lyn":12699,"ifi":12700,"ĠSeries":12701,"ĠConver":12702,"owell":12703,"ĠvÃŃa":12704,"ĠSoe":12705,"Ander":12706,"ĠSaez":12707,"ĠHPHN":12708,"ĠSlim":12709,"ĠGerard":12710,"ĠProdi":12711,"Alessandro":12712,"ĠCasmir":12713,"ĠÆ¯ng":12714,"ĠPetrolimex":12715,"shire":12716,"AFP":12717,"ciolo":12718,"ĠMikhail":12719,"ĠFlorence":12720,"ĠÄĳuÃ´ng":12721,"Franc":12722,"ĠOleguer":12723,"Ġnháº½o":12724,"ĠPolytech":12725,"ĠRudi":12726,"George":12727,"ĠBruce":12728,"ĠChristopher":12729,"ĠSuzuki":12730,"Ġcocaine":12731,"ĠMarshall":12732,"Afee":12733,".)":12734,"APEC":12735,"Cat":12736,"De":12737,"ES":12738,"MÃ´":12739,"Táº¿t":12740,"cáº¯t":12741,"eer":12742,"jamin":12743,"lÃ¡i":12744,"lou":12745,"nal":12746,"oth":12747,"sá»Ńa":12748,"ute":12749,"vÆ°á»Ŀn":12750,"ĳt":12751,"á»Ķ":12752,"ĠtÃ¡nh":12753,"Ġtext":12754,"nháº¡c":12755,"Ġláº·t":12756,"ĠhÃª":12757,"Ġháº¡m":12758,"ĠchÃ³c":12759,"iá»ĳt":12760,"Ġmá»ĭ":12761,"Ġnháº¡o":12762,"Ġsanh":12763,"Ġnew":12764,"Ġgáº«u":12765,"ĠdÆ°á»£t":12766,"ĠphÅ©":12767,"ĠTW":12768,"ĠTáºŃn":12769,"ĠÄĳá»Ĺi":12770,"Ġráº£":12771,"Ġrá»Ļp":12772,"Ġtá»£n":12773,"ĠNelson":12774,"anol":12775,"ĠVers":12776,"ĠBG":12777,"ĠBÃ£o":12778,"ĠBAR":12779,"ĠBuck":12780,"inda":12781,"ĠAug":12782,"ĠTrá»Ĺi":12783,"ĠKeo":12784,"Ġthuong":12785,"ĠNhÃ¢m":12786,"ĠDO":12787,"ĠGT":12788,"ĠQSDÄĲ":12789,"ĠRus":12790,"ĠRivaldo":12791,"...?":12792,"ĠICT":12793,"ĠKhuáº¥t":12794,"ĠKhodorkovsky":12795,"icer":12796,"ĠVNA":12797,"ĠJoan":12798,"Ġ930":12799,"urn":12800,"Äĳáº¥t":12801,"ÄĳÃło":12802,"ivu":12803,"app":12804,"Ġá»Ĳ":12805,"ĠHut":12806,"ĠMario":12807,"Ġ134":12808,"ĠHá»įa":12809,"occ":12810,"ĠSha":12811,"ĠShak":12812,"Quá»¹":12813,"wski":12814,"ĠHAS":12815,"ECAF":12816,"Ġ1961":12817,"Ġrá»§a":12818,"anyi":12819,"ĠLiu":12820,"ĠMuham":12821,"weat":12822,"ĠKuranyi":12823,"ĠBelletti":12824,"ĠBellamy":12825,"ĠDesk":12826,"ĠWarner":12827,"ĠDamien":12828,"ĠModel":12829,"ĠRegistry":12830,"ĠKasim":12831,"ĠPandiani":12832,"ĠBryan":12833,"Croatia":12834,"ĠChernobyl":12835,"ĠDomenech":12836,"BÃ£o":12837,"Dáº¥u":12838,"HÆ°á»Ľng":12839,"IÃĬ":12840,"JP":12841,"LÃłng":12842,"Mat":12843,"Numancia":12844,"VÃ¢n":12845,"Vá»ĳn":12846,"Vitamin":12847,"bá»ĳ":12848,"bang":12849,"cáºŃu":12850,"háº¡":12851,"há»Ļ":12852,"hor":12853,"hÃ²a":12854,"lá»Ŀi":12855,"pl":12856,"sá»ĳc":12857,"viá»ĩc":12858,"wer":12859,"world":12860,"Ġten":12861,"nhÃ³m":12862,"ĠthÃ²":12863,"ĠlÃ¹a":12864,"Ġlá»ĳt":12865,"Ġliáº¿c":12866,"ĠhÃ¡ng":12867,"Ġháº¡c":12868,"Ġmac":12869,"ĠkháºŃp":12870,"ĠngÃ³c":12871,"ĠTp":12872,"ĠTÃŃch":12873,"ĠTáº§m":12874,"Ġreg":12875,"ĠNas":12876,"ĠNÃ©t":12877,"ĠNich":12878,"ĠNiel":12879,"Ġxá»ĳc":12880,"ĠCrystal":12881,"ĠHB":12882,"ĠHiÃªn":12883,"ĠHanh":12884,"ĠHá»£i":12885,"Ġchon":12886,"ĠBQL":12887,"ĠÄĲo":12888,"ĠThuy":12889,"ĠLiá»ģu":12890,"onia":12891,"ĠSic":12892,"ĠPeople":12893,"ĠTráº£i":12894,"ĠTreo":12895,"ĠNgÃłi":12896,"ĠKa":12897,"ĠKum":12898,"ĠChat":12899,"ĠNhan":12900,"ĠDÆ°á»¡ng":12901,"ĠDiaz":12902,"ÄĲá»Ŀi":12903,"ĠIQ":12904,"ĠISP":12905,"ĠISS":12906,"Thá»ķ":12907,"Tháº¡c":12908,"TrÃł":12909,"Ġvien":12910,"icini":12911,"ushi":12912,"ĠFX":12913,"ĠWan":12914,"ĠXD":12915,"ĠHos":12916,"Nhá»Ľ":12917,"ĠAnelka":12918,"unia":12919,"Äĳen":12920,"Ġ122":12921,"uiz":12922,"tonia":12923,"igg":12924,"ĠAlpha":12925,"ĠDofilm":12926,"ipp":12927,"Ġflu":12928,"azu":12929,"ogne":12930,"orde":12931,"Ġtrá»«u":12932,"ĠTNGT":12933,"vnn":12934,"ĠSpeed":12935,"ĠElite":12936,"dee":12937,"giá»ĳng":12938,"ĠSihan":12939,"HNT":12940,"Ãģp":12941,"ĠVIII":12942,"ĠMoon":12943,"Ġ1954":12944,"ohama":12945,"ĠMacau":12946,"ladbach":12947,"ĠCeleron":12948,"ĠAthlon":12949,"itsch":12950,"ĠCasset":12951,"ĠFirst":12952,"ĠJoon":12953,"ĠViduka":12954,"ĠGPL":12955,"ĠBalears":12956,"ĠBMI":12957,"ĠCostacurta":12958,"ĠLavrov":12959,"ĠSusan":12960,"ĠSusilo":12961,"Celtic":12962,"Ġglucose":12963,"ĠGordon":12964,"ĠCaracciolo":12965,"Secure":12966,"ĠTreviso":12967,"ĠMcEwen":12968,"ĠCahill":12969,"ĠHTML":12970,"ĠPolytechnic":12971,"!?":12972,")\".":12973,"550":12974,"As":12975,"Bor":12976,"MÃ¡":12977,"MÃ£i":12978,"SÃ´ng":12979,"Tá»īnh":12980,"VÆ°á»Ŀn":12981,"ball":12982,"cu":12983,"cÅ©":12984,"enh":12985,"gab":12986,"hen":12987,"king":12988,"lip":12989,"má»ĳi":12990,"máº¯t":12991,"oint":12992,"rs":12993,"vai":12994,"ville":12995,"virus":12996,"walk":12997,"Ġá»ĳi":12998,"Ġoi":12999,"Ġváº±n":13000,"Ġláº¥m":13001,"ĠchÆ°á»Łng":13002,"ĠnhÃºn":13003,"ĠnÃłi":13004,"ĠnÃºc":13005,"Ġdáº§y":13006,"ĠTL":13007,"ĠTÃ´ng":13008,"ĠgiÆ°Æ¡ng":13009,"ĠrÃ´n":13010,"Ġráº©y":13011,"Ġtá»ĥ":13012,"Ġthá»ĩ":13013,"Ġxáº¹p":13014,"anton":13015,"ĠCQ":13016,"ĠHush":13017,"ĠHitz":13018,"ĠMD":13019,"ĠThy":13020,"ĠThun":13021,"ĠLáº¯c":13022,"ĠLap":13023,"ĠSet":13024,"ĠSasser":13025,"auer":13026,"Ġlá»ķ":13027,"ĠAce":13028,"ĠTrÃ´ng":13029,"ĠTráº£ng":13030,"ĠTrá»Ļn":13031,"ĠKB":13032,"ĠChÃło":13033,"ĠChiÃªu":13034,"Ġthui":13035,"ĠNhanh":13036,"ĠDáº¡y":13037,"ĠDiana":13038,"enter":13039,"Ġbá»īnh":13040,"ĠGA":13041,"ĠPhÄĥng":13042,"ÄĲoáº¡n":13043,"emy":13044,"Ġkhoi":13045,"ĠRas":13046,"ĠRach":13047,"Ġ470":13048,"ĠKháº¿":13049,"atri":13050,"ĠXSKT":13051,"itel":13052,"ador":13053,"ĠYe":13054,"ĠYeon":13055,"ĠInc":13056,"ĠInt":13057,"Äĳá»ĭa":13058,"125":13059,"umb":13060,"Ġá»Ķ":13061,"Ġghim":13062,"230":13063,"Ġ144":13064,"ĠMará»ĳc":13065,"ĠLuÃ´ng":13066,"Ġtrá»¥i":13067,"ubu":13068,"awati":13069,"NASA":13070,"udent":13071,"opol":13072,"ĠHye":13073,"ĠuÃ½":13074,"ĠHamann":13075,"ĠOlympia":13076,"ĠMcG":13077,"ĠWalt":13078,"Ġoxi":13079,"Huá»³nh":13080,"ĠDaew":13081,"ĠEstonia":13082,"ĠHDV":13083,"ĠBruno":13084,"ĠMarcos":13085,"ĠDisk":13086,"ĠBurn":13087,"Robert":13088,"Roberto":13089,"ĠLima":13090,"ĠNiweat":13091,"ĠIDECAF":13092,"ĠnitÆ¡":13093,"ĠOlivier":13094,"ĠNapoli":13095,"--------":13096,"ĠMitsustar":13097,"ĠEllen":13098,"Martin":13099,"ĠHitler":13100,"esktop":13101,"Santander":13102,"ĠRahman":13103,"ĠBeslan":13104,"Ġaspirin":13105,"Saddam":13106,"Illes":13107,"ĠChavez":13108,"ĠDacourt":13109,"icillin":13110,"ĠAvramovic":13111,"ĠSchroeder":13112,"316":13113,"516":13114,"613":13115,"CÃº":13116,"Cuá»ĳn":13117,"Dani":13118,"Def":13119,"Diego":13120,"Emp":13121,"Jon":13122,"Jar":13123,"MÃły":13124,"Mur":13125,"PW":13126,"Quyá»ģn":13127,"Rau":13128,"Ta":13129,"Táº¡m":13130,"Tom":13131,"Video":13132,"XD":13133,"XÃ¡c":13134,"dá»ĭch":13135,"ká»³":13136,"ool":13137,"por":13138,"say":13139,"ych":13140,"Ġis":13141,"Ġliáº¿m":13142,"ĠhÃº":13143,"Ġcháº§m":13144,"ĠchÃŃt":13145,"Ġchlor":13146,"Ġmetro":13147,"ĠkhÃłn":13148,"Ġngá»Ĺng":13149,"ĠphÃ¹ng":13150,"ĠTw":13151,"ĠTÃ¡o":13152,"ĠquÃłng":13153,"Ġquáº³ng":13154,"ĠgiáºŃm":13155,"ĠNá»ģn":13156,"ĠCáºŃn":13157,"ĠHÆ¡i":13158,"ĠHind":13159,"chiá»ģu":13160,"chá»ĳng":13161,"ĠBá»ĥ":13162,"ĠBud":13163,"ĠBiel":13164,"Ġ111":13165,"ĠMÃŃnh":13166,"ĠThuyÃªn":13167,"ĠLtd":13168,"ĠSX":13169,"ĠSÃ´":13170,"ĠSá»©":13171,"ĠPi":13172,"ĠPack":13173,"ĠPop":13174,"ĠTrá»¥":13175,"erre":13176,"ĠChÃ¢ng":13177,"ĠNhá»±t":13178,"ĠDÅ©i":13179,"Ġbá»¡":13180,"ĠGÆ°Æ¡ng":13181,"ĠPhu":13182,"ĠPhÃ¡":13183,"ĠPhar":13184,"ĠPhot":13185,"Ġ330":13186,"ars":13187,"ĠQG":13188,"ĠQU":13189,"imÄĥng":13190,"ĠRen":13191,"ĠRaus":13192,"eli":13193,"á»£c":13194,"Cháº¡y":13195,"icot":13196,"Nháº¥t":13197,"ĠYam":13198,"tháºŃt":13199,"ĠAnne":13200,"Ġ207":13201,"trÆ°á»Ŀng":13202,"Ġ123":13203,"appan":13204,"dobe":13205,"ĠAriz":13206,"Ġnháº¹t":13207,"Giáº£m":13208,"iera":13209,"assar":13210,"uts":13211,"ĠBravo":13212,"Æ¯á»":13213,"Æ¯á»Ľc":13214,"ĠSeng":13215,"ĠSeattle":13216,"ĠPlat":13217,"ĠSihamoni":13218,"ĠCoup":13219,"Ġhiu":13220,"ĠAziz":13221,"ĠtrÄ©u":13222,"ĠDesailly":13223,"ĠDickson":13224,"ĠCostinha":13225,"ĠSacombank":13226,"ĠArjen":13227,"ĠlÃ³e":13228,"Rosenborg":13229,"ĠAnastasia":13230,"ĠCudicini":13231,"ugansk":13232,"reensaver":13233,"050":13234,"220":13235,"726":13236,"850":13237,"Ath":13238,"Cal":13239,"DE":13240,"GHz":13241,"GÃ³p":13242,"Há»Ĺ":13243,"Sa":13244,"Sá»©t":13245,"TÆ°á»Łng":13246,"World":13247,"bÃ©":13248,"cá»ı":13249,"cá»±u":13250,"dÃłi":13251,"dom":13252,"kat":13253,"mÃ¹a":13254,"pes":13255,"tam":13256,"tá»·":13257,"wall":13258,"yev":13259,"ĠÃ³ng":13260,"Ġaudio":13261,"Ġtáº¹c":13262,"Ġláº£":13263,"ĠhÃ¡":13264,"Ġmui":13265,"ĠnÃºp":13266,"ĠngÃ¡p":13267,"ĠphÆ°á»£ng":13268,"ĠTon":13269,"ĠTÃło":13270,"ĠTTT":13271,"ĠTáº§ng":13272,"Ġrá»ĭch":13273,"ĠrÆ°á»Ŀm":13274,"ĠNol":13275,"ĠNá»ĳt":13276,"ĠNext":13277,"ĠxiÃªm":13278,"ĠVisa":13279,"champ":13280,"ĠBP":13281,"ĠMá»Ŀi":13282,"ĠMido":13283,"ĠÄĲÄ©a":13284,"ĠThá»ıa":13285,"ĠLak":13286,"ĠLine":13287,"onex":13288,"onbuk":13289,"ĠPosh":13290,"inas":13291,"ĠAudio":13292,"ĠNgá»±":13293,"ĠKath":13294,"ĠNhÆ°á»£c":13295,"ĠRene":13296,"elan":13297,"ĠKhuyÃªn":13298,"Tháº©m":13299,"2009":13300,").-":13301,"ussia":13302,"ĠGiuseppe":13303,"olm":13304,"ĠFilip":13305,"Ġtrá»ĭa":13306,"ĠJank":13307,"Ngá»ĵi":13308,"ĠYul":13309,"ĠYugansk":13310,"thá»ĥ":13311,"idas":13312,"idur":13313,"ossa":13314,"lee":13315,"Äĳá»ķ":13316,"truyá»ģn":13317,"Khá»ĳi":13318,"ĠAlam":13319,"Ġhydro":13320,"ĠCarl":13321,"ĠManager":13322,"ĠRomario":13323,"ĠIstan":13324,"Quick":13325,"uket":13326,"ĠRobin":13327,"burgh":13328,"ĠMontr":13329,"ĠthÃ¹y":13330,"ĠAsp":13331,"ĠUnix":13332,"ĠElton":13333,"carlo":13334,"Ġvuá»Ļt":13335,"999":13336,"ehr":13337,"ĠOlsen":13338,"mertin":13339,"Ġ1957":13340,"ĠFrancis":13341,"Ġscan":13342,"ĠArmenia":13343,"nghá»ĩ":13344,"ĠWilson":13345,"ĠRubella":13346,"ROM":13347,"ĠJaap":13348,"Frank":13349,"Saigon":13350,"ĠUltra":13351,"................":13352,"akopoulos":13353,"ĠXiao":13354,"ĠBloom":13355,"ĠClean":13356,"ĠFernandez":13357,"ĠCarolina":13358,"ĠRoland":13359,"Ġdriver":13360,"ĠFlorentino":13361,"ustavo":13362,"ĠCondoleezza":13363,"ĠMuhammad":13364,"ĠIstanbul":13365,"%...":13366,"112":13367,"710":13368,"Biá»ĩn":13369,"ET":13370,"FD":13371,"Fox":13372,"Ghi":13373,"Gra":13374,"Ná»ķi":13375,"OM":13376,"Tor":13377,"Uá»·":13378,"WF":13379,"Wol":13380,"bá»ĳc":13381,"fte":13382,"kim":13383,"rick":13384,"rigo":13385,"sang":13386,"sáº¡ch":13387,"tá»ĳt":13388,"ngá»ĵi":13389,"ĠvÃ¹":13390,"Ġvest":13391,"ĠthÃ¢":13392,"ĠlÃ²a":13393,"Ġhien":13394,"ĠchÆ°á»Ŀm":13395,"Ġkey":13396,"Ġmao":13397,"ĠsÃªn":13398,"Ġkham":13399,"ĠgÃ¡p":13400,"ĠngÃ´ng":13401,"ĠngÃ¡t":13402,"ĠphÃŃch":13403,"ĠTá»µ":13404,"ĠquÃ¡ch":13405,"ĠrÆ¡":13406,"ĠNáº¯ng":13407,"ĠNoi":13408,"ĠCienco":13409,"ĠHeld":13410,"aide":13411,"ĠMes":13412,"ĠÄĲÃ³ng":13413,"ĠLeo":13414,"ĠLáºŃy":13415,"ĠSH":13416,"ĠStreet":13417,"ĠSmertin":13418,"ĠPP":13419,"ĠAA":13420,"ĠNgá»Ļ":13421,"ĠNgang":13422,"ĠKer":13423,"ĠKyo":13424,"ĠKais":13425,"ĠNhá»ķn":13426,"ĠDem":13427,"ĠDá»¥c":13428,"ĠPhuket":13429,"Ġlove":13430,"ĠRai":13431,"ĠKhÃ¢m":13432,"ĠFTA":13433,"ĠWik":13434,"ĠWei":13435,"ĠHouse":13436,"thá»£":13437,"Ġ2015":13438,"ĠOh":13439,"ĠIndo":13440,"Äĳau":13441,"avio":13442,"ĠHub":13443,"illon":13444,"inea":13445,"ĠZd":13446,"180":13447,"nefte":13448,"ĠÄĲTLA":13449,"Ġláº»n":13450,"ĠAdu":13451,"ĠClaude":13452,"ĠDelgado":13453,"ĠElBaradei":13454,"ĠSoo":13455,"linois":13456,"ĠMcAfee":13457,"ĠBVTV":13458,"ĠSAWACO":13459,"ĠAngola":13460,"attie":13461,"ĠMaya":13462,"ĠFabiano":13463,"SPN":13464,"Ġchá»Ńa":13465,"ĠPascal":13466,"ĠFrings":13467,"Ġhormon":13468,"Ġblog":13469,"ĠÃĲáº£ng":13470,"Ġcomputer":13471,"William":13472,"Sparta":13473,"ĠStefan":13474,"ĠMcCarthy":13475,"Ġriu":13476,"Website":13477,"ĠSumatra":13478,"ĠPisico":13479,"ĠAmbrosini":13480,"ĠYakubu":13481,"ĠRapid":13482,"ĠTobago":13483,"ĠGabriel":13484,"ĠFavalli":13485,"ĠActive":13486,"Ġjeans":13487,"Anderlecht":13488,"ĠSihanouk":13489,"ĠDaewoo":13490,"':":13491,"315":13492,"Cáº·p":13493,"Cá»Ńa":13494,"DÄ©":13495,"Del":13496,"EIC":13497,"GM":13498,"LÃ£":13499,"Lao":13500,"LáºŃp":13501,"Ná»¥":13502,"OP":13503,"PSG":13504,"Rá»ĳi":13505,"Rod":13506,"Sony":13507,"bÃ¡c":13508,"cos":13509,"cio":13510,"get":13511,"gov":13512,"háº¿t":13513,"hiá»ĩu":13514,"je":13515,"mÃ´i":13516,"nÃ¢ng":13517,"nelli":13518,"resto":13519,"yáº¿u":13520,"ĠcÃ¹i":13521,"nháº¡y":13522,"ĠvÃŃt":13523,"Ġláº¡t":13524,"Ġláº¡y":13525,"ĠhÃ³m":13526,"Ġben":13527,"Ġbilli":13528,"Ġmáº¡t":13529,"Ġtrá»ĵ":13530,"Ġtrá»ĵi":13531,"ĠnhÃ¨":13532,"Ġnháº¯p":13533,"Ġnhoi":13534,"Ġsáº§n":13535,"Ġsáº¡m":13536,"Ġná»Ļm":13537,"Ġnatri":13538,"ĠkhÃªu":13539,"Ġngáº£i":13540,"ĠdÃ³":13541,"Ġdat":13542,"quÃ¡i":13543,"ĠNy":13544,"ĠNight":13545,"ĠCÃ¢n":13546,"ĠCÃ¡p":13547,"ĠCoca":13548,"Ġhá»£t":13549,"ĠBiá»ĩt":13550,"ĠBavar":13551,"ĠBasso":13552,"ĠMW":13553,"ĠÄĲáº¥u":13554,"ĠÄĲÃŃch":13555,"ĠnghÃª":13556,"ĠLik":13557,"ĠAT":13558,"ĠNgÆ°":13559,"ĠNgoáº¡n":13560,"ĠKm":13561,"ĠKÃŃch":13562,"ĠKel":13563,"ĠKwon":13564,"ĠCher":13565,"ĠPhillip":13566,"aly":13567,"ĠRic":13568,"Ġ440":13569,"ĠviÃª":13570,"Ġkhuáº¿ch":13571,"aska":13572,"ĠEast":13573,"olle":13574,"ĠFiel":13575,"rag":13576,"ragh":13577,"Ġthoai":13578,"itra":13579,"ady":13580,"agle":13581,"tri":13582,"trÃ¹m":13583,"Ġ152":13584,"ava":13585,"download":13586,"ectron":13587,"ovd":13588,"rex":13589,"ipedia":13590,"ellig":13591,"ĠEmil":13592,"ĠState":13593,"LÄĲBÄĲ":13594,"160":13595,"ĠParreira":13596,"ĠIsh":13597,"Lee":13598,"ĠRiise":13599,"acho":13600,"ĠSpace":13601,"ĠSpacy":13602,"ĠDNTN":13603,"eikh":13604,"ĠScience":13605,"ĠPervez":13606,"Ġ365":13607,"339":13608,"ĠMoreno":13609,"Ġ338":13610,"ĠSharp":13611,"ĠRosicky":13612,"ĠMarkus":13613,"ĠSimao":13614,"Ġmodem":13615,"ĠWebber":13616,"ĠKHCN":13617,"arence":13618,"ĠTae":13619,"ĠTaj":13620,"vesen":13621,"itzer":13622,"Ġcalcium":13623,"ĠAlbelda":13624,"grade":13625,"ĠMassimo":13626,"ĠFrei":13627,"ĠJensen":13628,"ĠOpenOffice":13629,"Ġ(?!).":13630,"ĠFalluja":13631,"luca":13632,"ĠMurphy":13633,"ĠByr":13634,"inness":13635,"ĠRecoba":13636,"ĠCreative":13637,"ĠKorall":13638,"ĠKodak":13639,"cá»©u":13640,"ĠPedro":13641,"ĠElectronics":13642,"oborsky":13643,"Empoli":13644,"ĠRausing":13645,"ĠFielmann":13646,"010":13647,"Ang":13648,"Bá»įn":13649,"Cor":13650,"Cap":13651,"EI":13652,"Gu":13653,"Háº¡n":13654,"Láº½":13655,"RP":13656,"San":13657,"Soft":13658,"Tá»ĳc":13659,"VáºŃn":13660,"Ven":13661,"XL":13662,"XuÃ¢n":13663,"biz":13664,"cáº·p":13665,"dÃŃnh":13666,"dá»ħ":13667,"hel":13668,"lá»£i":13669,"ness":13670,"sÃ©":13671,"tiá»ĥu":13672,"uh":13673,"wong":13674,"wart":13675,"xá»ĭn":13676,"yer":13677,"yte":13678,"ĠÃ´i":13679,"Ġáº¯ng":13680,"ĠcÃ¡ng":13681,"ĠvÃ´ng":13682,"Ġtháº£nh":13683,"Ġlá»ĭ":13684,"Ġbá»ĳng":13685,"Ġmiáº¿n":13686,"ĠtruÃ¢n":13687,"Ġtrans":13688,"ĠnhÃ¡m":13689,"ĠnhÃ³i":13690,"Ġná»ĭu":13691,"Ġkhiá»ħng":13692,"Ġgáº¡":13693,"ĠgÃ£i":13694,"ĠdÃł":13695,"phane":13696,"Ġphosph":13697,"ĠTiá»ĩm":13698,"ĠTáº¯m":13699,"Ġgiáº§y":13700,"ĠrÃºp":13701,"ĠNag":13702,"ĠNav":13703,"ĠCL":13704,"Ġhá»īnh":13705,"ĠHK":13706,"ĠHinh":13707,"ĠHak":13708,"ĠVáº»":13709,"ĠVor":13710,"chkov":13711,"ĠBiáº¿n":13712,"ĠBot":13713,"ĠBá»Ĺng":13714,"ĠMI":13715,"ĠMáºŃt":13716,"ĠÄĲáº¿":13717,"ĠLá»į":13718,"ĠLuyá»ĩn":13719,"ĠLah":13720,"ĠSas":13721,"ĠPod":13722,"ĠAK":13723,"ĠTrÃ¡ng":13724,"ĠTrio":13725,"ĠKP":13726,"ĠKao":13727,"ĠKent":13728,"ĠChá»«ng":13729,"ĠChivu":13730,"ĠNháº¥n":13731,"ĠDá»ĳc":13732,"ĠDuyá»ĩt":13733,"ĠGá»«ng":13734,"ÄĲÃ¡":13735,"ÄĲÃ¡m":13736,"aron":13737,"ĠRá»ĳi":13738,"ĠRáº±ng":13739,"ĠRÃºt":13740,"elie":13741,"ĠUB":13742,"ĠUBC":13743,"ĠISO":13744,"ĠKhe":13745,"Ġchá»ĭt":13746,"Truy":13747,"Chuyá»ĥn":13748,"olin":13749,"ĠFol":13750,"ĠXiáº¿c":13751,"ĠYemen":13752,"ĠYuri":13753,"Ġ202":13754,"ĠOver":13755,"ĠIniesta":13756,"Ġbaht":13757,"tran":13758,"trang":13759,"doanh":13760,"ĠVÃłm":13761,"ĠAlaska":13762,"Ġ141":13763,"ĠLeicester":13764,"ĠZaw":13765,"odom":13766,"Ġ178":13767,"ĠthÃŃa":13768,"ĠStudio":13769,"oke":13770,"ĠCarragh":13771,"lycer":13772,"ĠValeri":13773,"ĠValente":13774,"ĠHÄĲBA":13775,"ĠsuÃ´ng":13776,"erslautern":13777,"artner":13778,"artsev":13779,"skjaer":13780,"ĠJohnny":13781,"ĠSeagate":13782,"ĠBerk":13783,"ĠMichigan":13784,"ĠBenjamin":13785,"TSKH":13786,"ĠAgric":13787,"anny":13788,"Hoáº·c":13789,"ĠGuinea":13790,"Ġ1955":13791,"ittle":13792,"Internet":13793,"ĠSuha":13794,"ĠForbes":13795,"ĠDomesco":13796,"ĠEsc":13797,"ksand":13798,"ĠnhÃŃm":13799,"ĠWhit":13800,"ĠDeschamp":13801,"oshin":13802,"ĠDarren":13803,"ĠNeil":13804,"ĠIllinois":13805,"NSÆ¯T":13806,"ĠCEPT":13807,"ĠVincent":13808,"ĠLitva":13809,"Ġnilon":13810,"ĠAdelaide":13811,"ĠCommunic":13812,"ĠGeoff":13813,"ĠChevanton":13814,"ĠGiannakopoulos":13815,"ĠValdez":13816,"ĠNajaf":13817,"Tunes":13818,"ĠDouglas":13819,"ĠStandard":13820,"ĠBGK":13821,"Ġfluor":13822,"ordeaux":13823,"ĠRachel":13824,"ĠBavaria":13825,"ĠCarragher":13826,"&,":13827,"Bá»¯a":13828,"Cá»Ļng":13829,"Duy":13830,"Fenerbahce":13831,"Háº¡":13832,"IF":13833,"Mail":13834,"Se":13835,"Sport":13836,"Tinh":13837,"UN":13838,"bs":13839,"cáº§n":13840,"cic":13841,"life":13842,"mon":13843,"nÃªn":13844,"náº·ng":13845,"nien":13846,"nock":13847,"ral":13848,"sai":13849,"sá»©c":13850,"sol":13851,"Ġhá»¯ng":13852,"Ġhack":13853,"Ġtráº¡c":13854,"ĠnhÃ¡":13855,"Ġnot":13856,"ĠgÃ²n":13857,"ĠdiÃªm":13858,"Ġdesktop":13859,"Ġpham":13860,"Ġpháº£ng":13861,"ĠTÃ¡n":13862,"ĠTÃ³c":13863,"Ġgio":13864,"Ġrai":13865,"ĠrÃ²i":13866,"ĠHá»ĳ":13867,"ĠVil":13868,"ĠVÃ¢ng":13869,"chet":13870,"ĠBA":13871,"ĠMá»ħ":13872,"ĠMIC":13873,"ĠÄĲá»Ļt":13874,"ĠThink":13875,"ĠLing":13876,"ĠLok":13877,"amil":13878,"ĠPon":13879,"ĠPel":13880,"ĠPoborsky":13881,"Ġhot":13882,"ĠAff":13883,"ĠATB":13884,"ĠApol":13885,"ĠDÆ°a":13886,"ĠData":13887,"ĠGene":13888,"ĠPhilani":13889,"arat":13890,"arrent":13891,"ĠQi":13892,"ĠRid":13893,"ĠRá»ħ":13894,"ĠUÃ´ng":13895,"ĠKhiá»ĥn":13896,"usa":13897,"ĠEarth":13898,"ĠJob":13899,"ĠYartsev":13900,"thÃ¢n":13901,"agement":13902,"ĠOCI":13903,"Äĳá»¥ng":13904,"Ġghá»ģnh":13905,"ĠReese":13906,"Ġ147":13907,"ioches":13908,"Ġplas":13909,"ĠnghiÃª":13910,"ĠShakhtar":13911,"utra":13912,"ĠCologne":13913,"ĠPetron":13914,"ibril":13915,"ĠRoche":13916,"ĠchÃ³p":13917,"ECC":13918,"ĠSoun":13919,"ĠAgnelli":13920,"ĠDean":13921,"attan":13922,"HoÃł":13923,"uxerre":13924,"ĠAndreas":13925,"ĠKarachi":13926,"ĠBeattie":13927,"ĠWebmaster":13928,"ĠAhn":13929,"ĠKHXH":13930,"ĠLiberia":13931,"ĠRamos":13932,"Shakhtar":13933,"ĠSoros":13934,"ĠMassa":13935,"FFFF":13936,"ĠBritish":13937,"ĠNikopol":13938,"Ġcatwalk":13939,"Ġstudio":13940,"nikova":13941,"Ġelectron":13942,"Nauy":13943,"ĠHarrison":13944,"ĠFontana":13945,"ĠVassell":13946,"ĠSettings":13947,"ĠNormandy":13948,"ĠYugansknefte":13949,"ĠPetronas":13950,"ĠNikopolidis":13951,"%);":13952,"020":13953,"640":13954,"915":13955,"Bá»ķ":13956,"Dynamo":13957,"FPT":13958,"GE":13959,"HÃ¹ng":13960,"Her":13961,"Lan":13962,"Mex":13963,"Pak":13964,"Patr":13965,"RL":13966,"Rich":13967,"Tiá»ĥu":13968,"UT":13969,"Xu":13970,"cÃ¢u":13971,"cáº£nh":13972,"gá»Ńi":13973,"hn":13974,"nÃłng":13975,"oz":13976,"tÃłu":13977,"vel":13978,"wushu":13979,"xÃ¢y":13980,"yle":13981,"zio":13982,"Ġ),":13983,"Ġus":13984,"Ġec":13985,"ħu":13986,"Ġcoll":13987,"Ġcode":13988,"ĠÄĳÃ¬a":13989,"Ġthá»ĳ":13990,"ĠthÃ¬nh":13991,"Ġthat":13992,"Ġtháº·ng":13993,"ĠhÃ¹n":13994,"ĠkÃ¬a":13995,"Ġbá»±":13996,"Ġmem":13997,"Ġmil":13998,"Ġnhat":13999,"ĠnhÃ³t":14000,"Ġná»¡":14001,"Ġnicot":14002,"Ġkháº¥t":14003,"ĠgÃ³a":14004,"Ġdá»ĳt":14005,"pho":14006,"Ġphiáº¿m":14007,"Ġphuc":14008,"quÃªn":14009,"Ġgiup":14010,"ĠNÃ©":14011,"ĠNano":14012,"ĠxÃºi":14013,"ĠxÃºm":14014,"ĠCÃºm":14015,"ĠHorno":14016,"ĠHLTT":14017,"á»±ng":14018,"aye":14019,"ĠBÃłu":14020,"ĠMao":14021,"ĠMuá»ĳi":14022,"ĠMini":14023,"ĠThÃł":14024,"ĠThiá»ĩu":14025,"ĠThÃºc":14026,"ĠLie":14027,"ĠLuiz":14028,"ĠSD":14029,"ĠSoi":14030,"ĠPSP":14031,"Ġrap":14032,"ĠGáº¥p":14033,"ĠGus":14034,"ĠGov":14035,"ĠPhe":14036,"ÄĲá»Ļ":14037,"emberg":14038,"imon":14039,"ĠRashid":14040,"Ġviec":14041,"Chile":14042,"ĠFound":14043,"isk":14044,"isler":14045,"ĠWestern":14046,"á»Ŀng":14047,"iter":14048,"ĠYáº¿u":14049,"ĠYoo":14050,"the":14051,"thiÃªn":14052,"Ġchiu":14053,"unity":14054,"Ġ158":14055,"NDP":14056,"tona":14057,"Ġ188":14058,"Ġnhuá»ĩ":14059,"ional":14060,"ĠMari":14061,"ĠLuca":14062,"abo":14063,"prise":14064,"count":14065,"ĠCarbon":14066,"ournikova":14067,"uchi":14068,"kocha":14069,"ĠHyun":14070,"ĠValeron":14071,"ĠPhilippe":14072,"ĠÄĳá»±Æ¡c":14073,"ĠvÃŃu":14074,"ĠHariri":14075,"Ġjean":14076,"ĠiTunes":14077,"Ġ1959":14078,"ĠNorodom":14079,"ĠtiÃª":14080,"Ġuric":14081,"ĠNeto":14082,"ĠWilbur":14083,"ĠMakassar":14084,"ĠIvanov":14085,"ync":14086,"ĠTOEIC":14087,"ĠTRI":14088,"izarazu":14089,"ĠMarchena":14090,"enbauer":14091,"ĠHillary":14092,"ĠKolev":14093,"Serie":14094,"ĠLeonardo":14095,"uckner":14096,"ĠSophia":14097,"olstein":14098,"NHÄĲA":14099,"ĠDragon":14100,"HCV":14101,"ĠKÄĲTM":14102,"ĠANÄĲT":14103,"atherine":14104,"Ġgallery":14105,"ĠXHCN":14106,"ĠNaomi":14107,"Ġngá»£m":14108,"ĠHushovd":14109,"ĠCoupet":14110,"Ġlá»ĭm":14111,"ĠApollo":14112,"!âĢĿ,":14113,"\").":14114,"BH":14115,"Biá»ĥn":14116,"Cá»§":14117,"Cáº¥m":14118,"Cole":14119,"EVN":14120,"Hung":14121,"Har":14122,"Javier":14123,"Lá»ĳi":14124,"Lance":14125,"LHQ":14126,"Máº«u":14127,"NCO":14128,"RÆ°á»£u":14129,"Valladolid":14130,"XÃ£":14131,"biáº¿t":14132,"cet":14133,"gÃ³i":14134,"háº¡t":14135,"mu":14136,"rand":14137,"sell":14138,"wick":14139,"Ãĵ":14140,"Ġum":14141,"Ġter":14142,"ĠbáºŃp":14143,"ĠnÆ°Æ¡":14144,"ĠnÃ¨":14145,"phia":14146,"ĠTáº»":14147,"ĠTitan":14148,"quÃ½":14149,"Ġráº¯m":14150,"ĠNO":14151,"ĠNu":14152,"anov":14153,"ĠCK":14154,"ĠCR":14155,"ĠHáº§m":14156,"ĠHiáº¿m":14157,"ĠBey":14158,"ĠBond":14159,"ĠMÃ¡ch":14160,"ĠLáº¡nh":14161,"ĠLPG":14162,"onse":14163,"ĠSK":14164,"ĠSok":14165,"ĠSiss":14166,"Ġgiá»ħu":14167,"Ġhoac":14168,"ĠTruy":14169,"ĠTrump":14170,"ĠKamp":14171,"ĠKaw":14172,"ĠCháº£":14173,"ĠDiÃªm":14174,"enque":14175,"ĠGá»Ĺ":14176,"ĠGenn":14177,"ĠPhÆ°á»Ŀng":14178,"emba":14179,"Ġloang":14180,"ely":14181,"ĠUNICEF":14182,"ĠImp":14183,"ĠKhá»ķng":14184,"Trá»£":14185,"asino":14186,"asnic":14187,"astien":14188,"ĠQueiro":14189,"ĠEidur":14190,"ĠESPN":14191,"ĠWM":14192,"ĠHoÃłnh":14193,"ĠHoáº±ng":14194,"NháºŃp":14195,"Ġchuong":14196,"ĠOkocha":14197,"leans":14198,"Ġ155":14199,"Ġnguá»Ŀi":14200,"Ġdiem":14201,"Ġdieu":14202,"down":14203,"evich":14204,"Ġgháº»":14205,"ulovski":14206,"1976":14207,"Ġ142":14208,"ĠZico":14209,"ĠZarqawi":14210,"TTg":14211,"ouch":14212,"Ġ225":14213,"140":14214,"berson":14215,"ĠBruckner":14216,"ĠIsmail":14217,"Quáº£n":14218,"rien":14219,"istani":14220,"raft":14221,"ucation":14222,"Ġkhá»©u":14223,"IDV":14224,"eux":14225,"1981":14226,"ĠStep":14227,"ĠGeremi":14228,"Ãģnh":14229,"ĠVII":14230,"ĠGuinness":14231,"ĠSalossa":14232,"All":14233,"eroni":14234,"ĠEnrique":14235,"ĠtruáºŃt":14236,"ĠAllen":14237,"ĠKlasnic":14238,"ĠThoáº¡t":14239,"ĠÃªkÃŃp":14240,"ĠÄĳuá»£c":14241,"ÃĶNG":14242,"ology":14243,"ĠMartine":14244,"ĠJamie":14245,"ĠLeonid":14246,"ĠBayer":14247,"ĠResearch":14248,"ĠSofitel":14249,"ĠMegawati":14250,"ĠTechnology":14251,"ĠTechnologies":14252,"ĠKCQ":14253,"Cristiano":14254,"Ġmarathon":14255,"ĠHitzfeld":14256,"ĠAceh":14257,"ĠMontreal":14258,"ĠSissoko":14259,"ĠQueiroz":14260,"&.":14261,")âĢ¦":14262,"218":14263,"416":14264,"612":14265,"650":14266,"720":14267,"BÄĥng":14268,"CÃ¡n":14269,"Hong":14270,"HÃºt":14271,"Ká»ĭch":14272,"MÆ°á»Ŀi":14273,"SÃłi":14274,"SÃ³ng":14275,"Sol":14276,"SÃ¡u":14277,"Sá»ĳt":14278,"Tim":14279,"Uá»ĳng":14280,"Vai":14281,"gÃ£":14282,"long":14283,"rine":14284,"sá»Ń":14285,"suáº¥t":14286,"tx":14287,"tuá»ķi":14288,"váº«n":14289,"vit":14290,"xáº¿p":14291,"zic":14292,"Ġáº£i":14293,"Ġ!\".":14294,"Ġoshin":14295,"ĠtÆ°Æ¡m":14296,"nhe":14297,"Ġváº§n":14298,"ĠthÆ°á»£c":14299,"Ġlien":14300,"ĠlÃªnh":14301,"ĠlÃµng":14302,"Ġkang":14303,"ĠbÃ©t":14304,"Ġmá»¥":14305,"ĠtrÃ¡t":14306,"Ġtrá»įt":14307,"phÃ¡":14308,"ĠTá»ĳn":14309,"ĠTab":14310,"Ġvá»ĵng":14311,"Æ¡ng":14312,"ĠNil":14313,"ĠNáº¯m":14314,"ĠNuÃ´i":14315,"ĠCoi":14316,"ĠCou":14317,"ĠClo":14318,"ĠCMS":14319,"ĠHá»ĵn":14320,"ĠHash":14321,"ĠVill":14322,"chÃ¡y":14323,"ĠBá»ĵi":14324,"ĠBTA":14325,"ĠMiá»ĩn":14326,"ĠMoo":14327,"ĠÄĲam":14328,"ĠÄĲÃ¨n":14329,"ĠThÃ¢m":14330,"ĠLov":14331,"Ġlá»£":14332,"ĠPR":14333,"ĠPant":14334,"ĠKV":14335,"ĠKournikova":14336,"ĠDia":14337,"ĠGÃ¢y":14338,"ÄĲÃłm":14339,"Ġ3000":14340,"Ġyoga":14341,"alin":14342,"Ġloanh":14343,"Ġká»īnh":14344,"ĠRh":14345,"ĠUri":14346,"Trá»©ng":14347,"ĠQuá»³":14348,"ĠtáºŃpTiÃªu":14349,"isha":14350,"Ġ1088":14351,"ĠXDC":14352,"teron":14353,"thá»Ń":14354,"osse":14355,"unis":14356,"Äĳá»ĩ":14357,"tráº¯ng":14358,"treme":14359,"Ġ129":14360,"Kháº£o":14361,"este":14362,"Ġ165":14363,"TTP":14364,"Ġ132":14365,"Ġ137":14366,"ofidis":14367,"occo":14368,"Ġfrom":14369,"Ġkáº»o":14370,"rosa":14371,"Ġ275":14372,"amini":14373,"ectin":14374,"owler":14375,"ĠTNCS":14376,"ĠAnders":14377,"ĠAdd":14378,"Intel":14379,"ĠMichelle":14380,"Giá»įng":14381,"rogram":14382,"ĠCityphone":14383,"ĠMats":14384,"giá»¯":14385,"ĠNhuá»ĩ":14386,"ĠSheva":14387,"ĠCá»©u":14388,"ĠShide":14389,"Ġacet":14390,"ĠSolari":14391,"ĠSimone":14392,"himi":14393,"ĠMotta":14394,"ĠGarros":14395,"ĠBeat":14396,"ĠKyr":14397,"ĠKlaus":14398,"ĠBelgrade":14399,"ĠÃªkip":14400,"ANN":14401,"ĠKenneth":14402,"ĠBlues":14403,"ĠGravesen":14404,"ĠNikol":14405,"Robbie":14406,"quyá»ģn":14407,"ĠFujitsu":14408,"Olympiakos":14409,"Ġmethane":14410,"ĠLÅ©y":14411,"teroid":14412,"ĠThonglao":14413,"ĠCentrino":14414,"ĠRainer":14415,"temala":14416,"itschko":14417,"ĠHindu":14418,"ĠArizona":14419,"ĠJankulovski":14420,"Ġplasma":14421,"ĠSouness":14422,"AV":14423,"Báº¡o":14424,"Bill":14425,"Car":14426,"GÃł":14427,"Lat":14428,"Owen":14429,"Sal":14430,"Sáº¯c":14431,"Tiger":14432,"biá»ĥu":14433,"bá»ĳt":14434,"cÃº":14435,"dong":14436,"dal":14437,"font":14438,"giáº¿t":14439,"gow":14440,"hard":14441,"lÃ½":14442,"lÆ°u":14443,"ple":14444,"prus":14445,"vui":14446,"vili":14447,"ĠÃ¢y":14448,"á»ĺ":14449,"Ġtháº«m":14450,"ĠhÃ¡m":14451,"Ġchong":14452,"ĠchÃ¹n":14453,"ĠchÃ²m":14454,"ĠbÃºi":14455,"ĠnhÃ²a":14456,"Ġnhá»¡":14457,"ĠnhÃºm":14458,"Ġsáº£i":14459,"Ġsup":14460,"Ġsteroid":14461,"ĠnÃ£y":14462,"Ġdáº±ng":14463,"Ġphá»ĵn":14464,"ĠTá»ģ":14465,"quá»·":14466,"Ġquáº¹t":14467,"ĠgiÅ©":14468,"Ġráº¡":14469,"ĠrÃ¡y":14470,"ĠNavar":14471,"Ġxáº»o":14472,"ĠCá»ĵn":14473,"ĠCec":14474,"ĠCall":14475,"ĠVog":14476,"ĠBá»Ļi":14477,"ĠBran":14478,"ĠBá»ıng":14479,"ĠBamb":14480,"aire":14481,"ĠnghÃ©":14482,"ĠThung":14483,"ĠLoc":14484,"ĠLoa":14485,"ĠLizarazu":14486,"ĠPena":14487,"inic":14488,"ĠAdobe":14489,"ĠKÃ©o":14490,"ĠKWh":14491,"ĠChip":14492,"ĠNhiáº¿p":14493,"ĠDS":14494,"ĠDin":14495,"ĠDud":14496,"ĠDahl":14497,"ĠGut":14498,"ÄĲC":14499,"ÄĲN":14500,"ÄĲáº·t":14501,"ÄĲá»ĭnh":14502,"Ġloai":14503,"ĠloÃ¡ng":14504,"ĠRF":14505,"ĠRak":14506,"Ġngoa":14507,"etl":14508,"usuf":14509,"ĠEver":14510,"ĠFe":14511,"isol":14512,"ĠWander":14513,"ĠJal":14514,"omot":14515,"ombo":14516,"Ġtoáº¡i":14517,"ading":14518,"thÆ°á»Łng":14519,"urch":14520,"eve":14521,"ÄĲTG":14522,"Ġposter":14523,"ĠZabel":14524,"ĠLucar":14525,"ĠKimi":14526,"ĠCÆ¡m":14527,"ortunity":14528,"ubar":14529,"neider":14530,"awn":14531,"240":14532,"ĠClarence":14533,"ĠSpam":14534,"ĠGriff":14535,"ĠDeisler":14536,"pportunity":14537,"ĠCá»¥m":14538,"ĠCPE":14539,"ĠHeine":14540,"âĢĻâĢĻ":14541,"vanced":14542,"ĠGuard":14543,"Ġ1953":14544,"Ġlá»įai":14545,"ĠAngelina":14546,"ĠVirenque":14547,"coln":14548,"ĠRichardson":14549,"ĠGreens":14550,"ĠOrleans":14551,"overy":14552,"ĠMagn":14553,"Ġpolyp":14554,"ĠMarcus":14555,"1974":14556,"Brioches":14557,"ĠRyu":14558,"ĠnhÅ©n":14559,"ĠÄĳá»Ŀn":14560,"ĠFree":14561,"NET":14562,"chtenstein":14563,"ĠCyprus":14564,"html":14565,"ĠMurcia":14566,"VKSND":14567,"ĠMetropol":14568,"ĠnuÃ´ng":14569,"Ġfolic":14570,"Ġprogesteron":14571,"Slovakia":14572,"ĠFisher":14573,"Ġopera":14574,"ĠFidel":14575,"ĠLegend":14576,"ĠKabul":14577,"Madrid":14578,"ĠSampras":14579,"ĠYasuk":14580,"ĠJustine":14581,"Athletic":14582,"ĠWikipedia":14583,"Mexico":14584,"ĠLucarelli":14585,".',":14586,"318":14587,"820":14588,"913":14589,"CR":14590,"CÃºm":14591,"HÃ´n":14592,"La":14593,"Li":14594,"Lá»Ļ":14595,"Mang":14596,"Miá»ģn":14597,"Master":14598,"Yahoo":14599,"iÃª":14600,"ku":14601,"lish":14602,"máº¡nh":14603,"media":14604,"má»ģm":14605,"sung":14606,"sis":14607,"sak":14608,"tuy":14609,"tá»Ļi":14610,"tá»Ń":14611,"tim":14612,"yce":14613,"zin":14614,"á»Ĵ":14615,"Ġcáº¡m":14616,"Ġcá»Ĺi":14617,"ĠÄĳiáº¿m":14618,"Ġváº§ng":14619,"ĠthÃ²ng":14620,"ĠlÃ²i":14621,"ĠkWh":14622,"Ġbáº·t":14623,"Ġmat":14624,"Ġmobile":14625,"Ġnáº¥p":14626,"ĠnÃŃt":14627,"Ġkháº¥n":14628,"Ġgáº«m":14629,"Ġgout":14630,"ĠdáºŃt":14631,"phÃ¢n":14632,"ĠgiÅ©a":14633,"Ġren":14634,"ĠNational":14635,"ĠxÃ²e":14636,"anz":14637,"ĠCá»Ļt":14638,"ĠCáº¥u":14639,"ĠCic":14640,"ĠHÃ´":14641,"ĠHÃ£n":14642,"ĠVÃ©":14643,"ĠVáº¯ng":14644,"chan":14645,"ĠÄĲáº¹p":14646,"ĠÄĲiá»ģm":14647,"ĠLÃ´i":14648,"Ġmá»ģn":14649,"Ġ(+":14650,"ĠSM":14651,"ĠSáº¯t":14652,"ĠSne":14653,"aur":14654,"ĠPre":14655,"ĠProst":14656,"Ġhoe":14657,"ĠAward":14658,"ĠTrip":14659,"ĠNgá»§":14660,"ĠChÄĥn":14661,"ĠGry":14662,"ĠPhá»Ł":14663,"ÄĲáºŃu":14664,"Ġ370":14665,"emier":14666,"imÃ©t":14667,"âĢĿ),":14668,"ĠKháº©u":14669,"ilyn":14670,"Ġvisc":14671,"ChÃ¹a":14672,"room":14673,"ĠGiven":14674,"ĠFut":14675,"ĠFiles":14676,"rada":14677,"Ġ832":14678,"ĠJason":14679,"Ġ1930":14680,"ĠHom":14681,"Nhá»ķn":14682,"ages":14683,"acin":14684,"ĠIns":14685,"ÄĳÃ³":14686,"Ġduá»ĩ":14687,"128":14688,"ingo":14689,"PhÃ¡":14690,"PhÃºc":14691,"doba":14692,"ĠHuong":14693,"ĠHuang":14694,"iller":14695,"obal":14696,"LBÄĲ":14697,"nett":14698,"khá»§ng":14699,"eper":14700,"ĠCantona":14701,"ĠSchneider":14702,"ĠAscoli":14703,"anks":14704,"Ġhuá»ĩ":14705,"ĠLincoln":14706,"liu":14707,"ĠMorris":14708,"ĠExcel":14709,"ĠNorton":14710,"ĠJeonbuk":14711,"ĠVient":14712,"ĠSolskjaer":14713,"redit":14714,"472":14715,"ĠThoÃ¡t":14716,"adeur":14717,"ĠGeneral":14718,"ĠKrÃ´ng":14719,"Paraguay":14720,"Ġboong":14721,"ĠRaff":14722,"ijder":14723,"ction":14724,"VTÄĲB":14725,"Brit":14726,"ĠIPv":14727,"ĠTyson":14728,"ĠWatson":14729,"ĠMillwall":14730,"Gerolstein":14731,"ĠNetworks":14732,"Peru":14733,"agnol":14734,"acchinardi":14735,"ĠMarcelo":14736,"ĠGarden":14737,"ĠFortune":14738,"ĠTenet":14739,"ĠSebastian":14740,"Ġvá»±a":14741,"Current":14742,"ĠÄĥngten":14743,"Ġhistamin":14744,"ĠMountain":14745,"ĠHutton":14746,"ĠDesktop":14747,"ĠPlatini":14748,"Ġbilliards":14749,"ĠAgricole":14750,"ĠCouto":14751,"ĠGreenspan":14752,"ĠYasukuni":14753,"ĠSneijder":14754,"Gerolsteiner":14755,"\"-":14756,"321":14757,"950":14758,"Arafat":14759,"BiÃªn":14760,"Dom":14761,"DTT":14762,"HoÃłi":14763,"Há»įa":14764,"Nick":14765,"Pad":14766,"Robot":14767,"Su":14768,"Sil":14769,"Táº§m":14770,"Táº¥m":14771,"Un":14772,"Wal":14773,"corder":14774,"form":14775,"gill":14776,"há»į":14777,"jp":14778,"ká»¹":14779,"lit":14780,"mus":14781,"qt":14782,"song":14783,"tif":14784,"viáº¿t":14785,"vest":14786,"xá»Ń":14787,"Ġ;":14788,"Ġare":14789,"ĠÆł":14790,"Łm":14791,"ngá»§":14792,"ĠtÃ¡p":14793,"Ġtien":14794,"Ġcup":14795,"Ġclin":14796,"ĠcÆ°á»Ŀm":14797,"ĠÄĳanh":14798,"Ġlá»§ng":14799,"Ġháº¹":14800,"Ġhit":14801,"ĠhÃ³i":14802,"Ġkiáº¿ng":14803,"ĠbÆ°Æ¡n":14804,"Ġnhe":14805,"Ġsaxo":14806,"ĠgÃłu":14807,"Ġgoi":14808,"ĠTax":14809,"Ġre":14810,"Ġria":14811,"ĠNC":14812,"ĠNott":14813,"ĠNicky":14814,"ĠximÄĥng":14815,"ĠCÃłnh":14816,"ĠCand":14817,"ĠCá»§a":14818,"Ġhá»Ľn":14819,"ĠHO":14820,"ĠHau":14821,"ĠHag":14822,"ĠHector":14823,"Ġchoai":14824,"ĠVT":14825,"ĠVÄĲTG":14826,"chum":14827,"ĠBáº¡o":14828,"aim":14829,"ĠMiÃªn":14830,"ĠMov":14831,"ĠMÃ¡u":14832,"ĠMassage":14833,"ĠTher":14834,"ĠThÃ¡o":14835,"ĠLor":14836,"Ġmá»ģ":14837,"ĠSÃª":14838,"ĠSno":14839,"ĠSmart":14840,"ĠPong":14841,"ĠPip":14842,"ĠPach":14843,"ĠPoll":14844,"ĠNgáº¡n":14845,"ĠKes":14846,"ĠChanh":14847,"Ä©u":14848,"ĠDáº¡ng":14849,"ĠDá»ħ":14850,"enson":14851,"ĠGogh":14852,"ĠloÃ©":14853,"ĠRao":14854,"ĠRoll":14855,"elo":14856,"elain":14857,"ĠUp":14858,"Ġ520":14859,"Ġ570":14860,"ĠKhÃ¡t":14861,"Tháº±ng":14862,"Tháº»":14863,"ThÃŃch":14864,"ĠÃī":14865,"Chá»ĳng":14866,"robot":14867,"ĠEM":14868,"ĠEg":14869,"ĠEp":14870,"ĠEva":14871,"olution":14872,"ĠWard":14873,"Ġthoáº¡t":14874,"Ġ1918":14875,"Ġ1938":14876,"ĠHoull":14877,"ĠYM":14878,"tháº¥t":14879,"agh":14880,"Ġtá»Ńu":14881,"leb":14882,"Äĳáº¥u":14883,"105":14884,"inga":14885,"á»ĩp":14886,"1970":14887,"obe":14888,"hou":14889,"ĠAlme":14890,"azi":14891,"Ġ217":14892,"afemi":14893,"ĠCaro":14894,"ĠBrand":14895,"ĠBlaster":14896,"ĠBlasi":14897,"ĠMyat":14898,"ĠASEP":14899,"ĠCanc":14900,"ersin":14901,"ĠcuÃ´":14902,"ĠBerry":14903,"eyeno":14904,"ĠScudetto":14905,"Ġlá»¥i":14906,"ĠMorton":14907,"ĠBagle":14908,"caro":14909,"ĠCordoba":14910,"ĠSiu":14911,"ansas":14912,"ĠHargre":14913,"ĠVinci":14914,"ĠVinashin":14915,"LuÃ´n":14916,"ĠFabien":14917,"ĠBeau":14918,"ĠSarah":14919,"Ġ666":14920,"ĠAllian":14921,"ĠVenice":14922,"ĠSavimex":14923,"nghá»ģ":14924,"ĠWater":14925,"ĠIgn":14926,"ĠHotsp":14927,"ĠStockh":14928,"ĠAssoc":14929,"ĠEnterprise":14930,"Andreas":14931,"ravel":14932,"ĠMendes":14933,"ĠDominica":14934,"Henry":14935,"ĠAlvaro":14936,"Iá»Ĩ":14937,"ĠXDHK":14938,"udential":14939,"Wolves":14940,"Ġcollagen":14941,"ĠMartinez":14942,"ĠBambang":14943,"ĠHeineken":14944,"ĠHoullier":14945,"ĠAlmeida":14946,"eyenoord":14947,"ĠHargreaves":14948,")âĢĿ.":14949,"414":14950,"515":14951,"614":14952,"920":14953,"EX":14954,"Giáº¿t":14955,"KC":14956,"Lar":14957,"Lib":14958,"MM":14959,"Ma":14960,"PGS":14961,"SÃ¡ch":14962,"SEA":14963,"Samsung":14964,"Tak":14965,"VÆ°Æ¡ng":14966,"XDC":14967,"bÃ³":14968,"dung":14969,"hwa":14970,"kn":14971,"kWh":14972,"lÃ£o":14973,"nÃ³":14974,"name":14975,"rung":14976,"rell":14977,"tÃ¡i":14978,"toÃłn":14979,"vá»ĭ":14980,"vÆ°á»£t":14981,"Ġap":14982,"Ġeth":14983,"nguá»ĵn":14984,"ĠcÆ°u":14985,"Ġváº¡i":14986,"ĠvÅ©ng":14987,"ĠvÃªnh":14988,"Ġthiáº¿c":14989,"ĠlÃ¡o":14990,"Ġlac":14991,"ĠhuyÃªn":14992,"Ġke":14993,"Ġkiáº¿t":14994,"ĠnhoÃłi":14995,"ĠnhÃ²m":14996,"ĠnÃª":14997,"Ġgá»Ļp":14998,"ĠngÆ°á»Ľc":14999,"Ġdáº¹t":15000,"Ġphá»Ŀ":15001,"Ġphá»ī":15002,"ĠTÃ¡i":15003,"ĠTÆ°á»Ľng":15004,"ĠlÃło":15005,"Ġrem":15006,"ĠrÆ°á»Ľi":15007,"Ġtá»µ":15008,"Ġxuyáº¿t":15009,"ĠxÃ©o":15010,"ĠHim":15011,
[...]
